{"!": 0, "!===": 1, "!âĢĿ": 2, "\"": 3, "#": 4, "$": 5, "%": 6, "&": 7, "'": 8, "(": 9, ")": 10, "*": 11, "+": 12, ",": 13, "-": 14, "-ï¼Į": 15, ".": 16, ".\"": 17, ".\"âĢĿ": 18, "..": 19, "...": 20, "....": 21, "......": 22, "........": 23, "................": 24, "...âĢĿ": 25, "/": 26, "0": 27, "1": 28, "2": 29, "3": 30, "4": 31, "5": 32, "6": 33, "7": 34, "8": 35, "9": 36, ":": 37, ";": 38, "<": 39, "=": 40, "==": 41, "===": 42, ">": 43, "?": 44, "@": 45, "A": 46, "B": 47, "C": 48, "D": 49, "E": 50, "F": 51, "G": 52, "H": 53, "I": 54, "J": 55, "K": 56, "L": 57, "M": 58, "N": 59, "O": 60, "P": 61, "Q": 62, "R": 63, "S": 64, "T": 65, "U": 66, "V": 67, "W": 68, "X": 69, "Y": 70, "Z": 71, "[": 72, "\\": 73, "]": 74, "^": 75, "_": 76, "`": 77, "a": 78, "b": 79, "c": 80, "d": 81, "e": 82, "f": 83, "g": 84, "h": 85, "i": 86, "j": 87, "k": 88, "l": 89, "m": 90, "n": 91, "o": 92, "p": 93, "q": 94, "r": 95, "s": 96, "t": 97, "u": 98, "v": 99, "w": 100, "x": 101, "y": 102, "z": 103, "{": 104, "|": 105, "}": 106, "~": 107, "¡": 108, "¡®": 109, "¢": 110, "¢å¤į": 111, "£": 112, "£æīİ": 113, "£çĦ¶": 114, "¤": 115, "¥": 116, "¥¿": 117, "¦": 118, "§": 119, "§ç»¿": 120, "¨": 121, "¨Ģ": 122, "©": 123, "ª": 124, "ªåĬĽ": 125, "«": 126, "«å¤´": 127, "¬": 128, "®": 129, "¯": 130, "¯çĿĢ": 131, "°": 132, "°éļ¾": 133, "±": 134, "²": 135, "³": 136, "´": 137, "µ": 138, "¶": 139, "·": 140, "¸": 141, "¹": 142, "º": 143, "»": 144, "¼": 145, "½": 146, "¾": 147, "¾İ": 148, "¿": 149, "¿Ģ": 150, "À": 151, "Á": 152, "Â": 153, "Ã": 154, "Ä": 155, "Å": 156, "Æ": 157, "Ç": 158, "È": 159, "É": 160, "Ê": 161, "Ë": 162, "Ì": 163, "Í": 164, "Î": 165, "Ï": 166, "Ð": 167, "Ñ": 168, "Ò": 169, "Ó": 170, "Ô": 171, "Õ": 172, "Ö": 173, "×": 174, "Ø": 175, "Ù": 176, "Ú": 177, "Û": 178, "Ü": 179, "Ý": 180, "Þ": 181, "ß": 182, "à": 183, "á": 184, "â": 185, "âĢ": 186, "âĢ¦": 187, "âĢ¦âĢ¦": 188, "âĢ¦âĢ¦âĢ¦âĢ¦": 189, "âĢ¦âĢ¦âĢĿ": 190, "âĢ¦âĢ¦ï¼Į": 191, "âĢ¦âĢĿ": 192, "âĢĶ": 193, "âĢĺ": 194, "âĢĻ": 195, "âĢĻâĢĻ": 196, "âĢľ": 197, "âĢĿ": 198, "âĢĿï¼Į": 199, "âĺ": 200, "âĺĨ": 201, "âĺĨâĺĨ": 202, "âĻ": 203, "âĻĢ": 204, "âĻĢâĻĢ": 205, "ã": 206, "ãĢ": 207, "ãĢģ": 208, "ãĢĤ": 209, "ãĢĤâĢľ": 210, "ãĢĤâĢľâĢĿ": 211, "ãĢĤâĢĿ": 212, "ãĢĤãĢĤ": 213, "ãĢĬ": 214, "ãĢĭ": 215, "ãĢĭï¼Į": 216, "ãĢĮ": 217, "ãĢı": 218, "ä": 219, "ä¸": 220, "ä¸¢": 221, "ä¸¤": 222, "ä¸¤ä¸ª": 223, "ä¸¤äºº": 224, "ä¸¤ä½į": 225, "ä¸¤å¹´": 226, "ä¸¤åĲį": 227, "ä¸¤ç§į": 228, "ä¸¤çĻ¾": 229, "ä¸¤èĢħ": 230, "ä¸¤éģĵ": 231, "ä¸¥": 232, "ä¸§": 233, "ä¸ª": 234, "ä¸°": 235, "ä¸´": 236, "ä¸¹": 237, "ä¸¹ä¼ļ": 238, "ä¸¹å¡Ķ": 239, "ä¸¹èį¯": 240, "ä¸¹éĽ·": 241, "ä¸º": 242, "ä¸ºä¹ĭ": 243, "ä¸ºäºĨ": 244, "ä¸ºä»Ģä¹Ī": 245, "ä¸ºä½ķ": 246, "ä¸»": 247, "ä¸½": 248, "ä¸¾": 249, "ä¸¾åĬ¨": 250, "ä¸Ģ": 251, "ä¸Ģä¸ª": 252, "ä¸Ģä¸ªäºº": 253, "ä¸Ģä¸ĭ": 254, "ä¸Ģä¸Ŀ": 255, "ä¸Ģäºº": 256, "ä¸ĢäºĽ": 257, "ä¸Ģä½į": 258, "ä¸Ģå£°": 259, "ä¸Ģå¤´": 260, "ä¸Ģå¤Ħ": 261, "ä¸Ģå®ļ": 262, "ä¸Ģå¯¹": 263, "ä¸Ģå¹´": 264, "ä¸Ģå¼¹": 265, "ä¸Ģå¼ł": 266, "ä¸Ģåĩ»": 267, "ä¸ĢåĪĩ": 268, "ä¸ĢåĬ¨": 269, "ä¸Ģåįģ": 270, "ä¸Ģåı£": 271, "ä¸Ģåı£æ°Ķ": 272, "ä¸Ģåı£é²ľè¡Ģ": 273, "ä¸Ģåıª": 274, "ä¸Ģåıĺ": 275, "ä¸ĢåĲį": 276, "ä¸ĢåĽ¢": 277, "ä¸ĢåĿĹ": 278, "ä¸Ģæ¬¡": 279, "ä¸ĢæĢĶ": 280, "ä¸ĢæĦ£": 281, "ä¸Ģæī«": 282, "ä¸ĢæĬ": 283, "ä¸ĢæĬ¹": 284, "ä¸ĢæĬĬ": 285, "ä¸Ģæĭ³": 286, "ä¸ĢæĮ¥": 287, "ä¸ĢæĮ¯": 288, "ä¸ĢæĹ¦": 289, "ä¸ĢæĹ¶éĹ´": 290, "ä¸ĢæĹģ": 291, "ä¸ĢæĹģçļĦ": 292, "ä¸ĢæĹı": 293, "ä¸ĢæĿ¡": 294, "ä¸ĢæĿ¥": 295, "ä¸Ģæŀļ": 296, "ä¸Ģæł·": 297, "ä¸ĢæŃ¥": 298, "ä¸Ģç§į": 299, "ä¸Ģç«ł": 300, "ä¸Ģç¬ĳ": 301, "ä¸Ģç¼ķ": 302, "ä¸ĢçĤ¹": 303, "ä¸Ģçīĩ": 304, "ä¸Ģçķª": 305, "ä¸ĢçĻ¾": 306, "ä¸Ģçļ±": 307, "ä¸ĢçĽ´": 308, "ä¸Ģçľ¼": 309, "ä¸Ģè¡Įäºº": 310, "ä¸Ģèµ·": 311, "ä¸Ģè·¯": 312, "ä¸Ģèº«": 313, "ä¸Ģè¾Ī": 314, "ä¸ĢèĤ¡": 315, "ä¸ĢèĤ¡èĤ¡": 316, "ä¸ĢèĦ¸": 317, "ä¸ĢèĪ¬": 318, "ä¸ĢèĪ¬çļĦ": 319, "ä¸ĢèĲ½": 320, "ä¸Ģé¢¤": 321, "ä¸Ģéģĵ": 322, "ä¸Ģéģĵéģĵ": 323, "ä¸ĢéģĵéģĵçĽ®åħī": 324, "ä¸ĢéĹª": 325, "ä¸Ģéĺµ": 326, "ä¸ĥ": 327, "ä¸ĥå½©": 328, "ä¸ĥåįģ": 329, "ä¸ĥåĵģ": 330, "ä¸ĥç«ł": 331, "ä¸ĩ": 332, "ä¸Ī": 333, "ä¸Īåºŀå¤§çļĦ": 334, "ä¸ī": 335, "ä¸īä¸ª": 336, "ä¸īäºº": 337, "ä¸īä½į": 338, "ä¸īå¤§": 339, "ä¸īå¹´": 340, "ä¸īåįģ": 341, "ä¸īåįĥ": 342, "ä¸īåįĥçĦ±": 343, "ä¸īåįĥçĦ±çĤİçģ«": 344, "ä¸īåįĥéĽ·": 345, "ä¸īåĲį": 346, "ä¸īç§į": 347, "ä¸īç«ł": 348, "ä¸īçĻ¾": 349, "ä¸īéģĵ": 350, "ä¸Ĭ": 351, "ä¸Ĭä¸Ģ": 352, "ä¸ĬäºĨ": 353, "ä¸Ĭåīį": 354, "ä¸Ĭåİ»": 355, "ä¸Ĭæ¬¡": 356, "ä¸Ĭç©º": 357, "ä¸ĬçļĦ": 358, "ä¸ĬéĿ¢": 359, "ä¸ĭ": 360, "ä¸ĭäºĨ": 361, "ä¸ĭåİ»": 362, "ä¸ĭåľº": 363, "ä¸ĭæĸ¹": 364, "ä¸ĭæĿ¥": 365, "ä¸ĭçļĦ": 366, "ä¸į": 367, "ä¸įä¸Ĭ": 368, "ä¸įä¹ħ": 369, "ä¸įäºĨ": 370, "ä¸įä»ħ": 371, "ä¸įä¼ļ": 372, "ä¸įä½ı": 373, "ä¸įå¤ª": 374, "ä¸įå¤ļ": 375, "ä¸įå¥½": 376, "ä¸įå®ļ": 377, "ä¸įå°ı": 378, "ä¸įå°ıçļĦ": 379, "ä¸įå°ĳ": 380, "ä¸įå°ĳäºº": 381, "ä¸įå¼±": 382, "ä¸įå¾Ĺ": 383, "ä¸įå¾Ĺä¸į": 384, "ä¸įåĨį": 385, "ä¸įåĩº": 386, "ä¸įåĪ°": 387, "ä¸įåĬ¨": 388, "ä¸įåı¯": 389, "ä¸įåı¯èĥ½": 390, "ä¸įåıĬ": 391, "ä¸įåĲĮ": 392, "ä¸įæĥ³": 393, "ä¸įæĦ": 394, "ä¸įæĦ§": 395, "ä¸įæĦ§æĺ¯": 396, "ä¸įæĪĲ": 397, "ä¸įæķ¢": 398, "ä¸įæĸŃ": 399, "ä¸įæĸŃçļĦ": 400, "ä¸įæĺ¯": 401, "ä¸įç®¡": 402, "ä¸įçĦ¶": 403, "ä¸įçĦ¶çļĦè¯Ŀ": 404, "ä¸įçĶ¨": 405, "ä¸įçĶ±": 406, "ä¸įçĶ±å¾Ĺ": 407, "ä¸įçŁ¥": 408, "ä¸įçŁ¥éģĵ": 409, "ä¸įè¦ģ": 410, "ä¸įè§ģ": 411, "ä¸įèµ·": 412, "ä¸įè¿ĩ": 413, "ä¸įè¿ĩå¥½": 414, "ä¸įè¿ĩè¿Ļ": 415, "ä¸įè¿ľå¤Ħ": 416, "ä¸įèĥ½": 417, "ä¸įéĶĻ": 418, "ä¸İ": 419, "ä¸İä¹ĭ": 420, "ä¸İä»ĸ": 421, "ä¸İåħ¶": 422, "ä¸İæŃ¤": 423, "ä¸İæŃ¤åĲĮæĹ¶": 424, "ä¸İèĲ§çĤİ": 425, "ä¸İéĤ£": 426, "ä¸ĵ": 427, "ä¸Ķ": 428, "ä¸ĸ": 429, "ä¸ĸçķĮ": 430, "ä¸ĺ": 431, "ä¸ľ": 432, "ä¸ľè¥¿": 433, "ä¸Ŀ": 434, "ä¸Ŀæ¯«": 435, "ä¸Ŀæ¯«ä¸į": 436, "ä¸Ń": 437, "ä¸Ńå¤®": 438, "ä¸Ńå·ŀ": 439, "ä¸Ńå¹´": 440, "ä¸Ńå¹´äºº": 441, "ä¸Ńå¿ĥ": 442, "ä¸Ńçº§": 443, "ä¸ŃçļĦ": 444, "ä¹": 445, "ä¹¦": 446, "ä¹°": 447, "ä¹±": 448, "ä¹³": 449, "ä¹¾": 450, "ä¹ĥ": 451, "ä¹ħ": 452, "ä¹Ī": 453, "ä¹ĭ": 454, "ä¹ĭä¸Ģ": 455, "ä¹ĭä¸Ĭ": 456, "ä¹ĭä¸ĬçļĦ": 457, "ä¹ĭä¸ĭ": 458, "ä¹ĭä¸Ń": 459, "ä¹ĭä¸ŃçļĦ": 460, "ä¹ĭäºº": 461, "ä¹ĭäºĭ": 462, "ä¹ĭå£°": 463, "ä¹ĭå¤Ħ": 464, "ä¹ĭå¤ĸ": 465, "ä¹ĭåĨħ": 466, "ä¹ĭåĨħçļĦ": 467, "ä¹ĭåīį": 468, "ä¹ĭåĬĽ": 469, "ä¹ĭåĲİ": 470, "ä¹ĭåľ°": 471, "ä¹ĭæ°Ķ": 472, "ä¹ĭæ³ķ": 473, "ä¹ĭæĦı": 474, "ä¹ĭæĦŁ": 475, "ä¹ĭæĹ¶": 476, "ä¹ĭçī©": 477, "ä¹ĭèī²": 478, "ä¹ĭéĹ´": 479, "ä¹ĭéĹ´çļĦ": 480, "ä¹Į": 481, "ä¹Įäºĳ": 482, "ä¹ĮåĿ¦åŁİ": 483, "ä¹İ": 484, "ä¹Ĳ": 485, "ä¹ĸ": 486, "ä¹Ŀ": 487, "ä¹Ŀå¤©å°Ĭ": 488, "ä¹Ŀå¹½": 489, "ä¹Ŀå¹½åľ°": 490, "ä¹Ŀå¹½åľ°åĨ¥èŁĴ": 491, "ä¹Ŀå¹½åľ°åĨ¥èŁĴæĹı": 492, "ä¹Ŀåįģ": 493, "ä¹Ŀç«ł": 494, "ä¹Ł": 495, "ä¹Łä¸į": 496, "ä¹Łä¸įä¼ļ": 497, "ä¹Łä¸įæķ¢": 498, "ä¹Łä¸įæĺ¯": 499, "ä¹Łä¼ļ": 500, "ä¹Łå°±": 501, "ä¹Łå°±æĺ¯": 502, "ä¹Łå¹¶ä¸į": 503, "ä¹Łå¹¶éĿŀæĺ¯": 504, "ä¹Łåıªèĥ½": 505, "ä¹Łæĺ¯": 506, "ä¹Łæĺ¯ä¸Ģ": 507, "ä¹Łæĺ¯ä»¤å¾Ĺ": 508, "ä¹Łæĺ¯åľ¨": 509, "ä¹Łæĺ¯åľ¨æŃ¤åĪ»": 510, "ä¹Łæĺ¯æľīäºĽ": 511, "ä¹Łæĺ¯æľīçĿĢ": 512, "ä¹Łæĺ¯ç¼ĵç¼ĵ": 513, "ä¹Łæĺ¯è¢«": 514, "ä¹Łæĺ¯è¶ĬæĿ¥è¶Ĭ": 515, "ä¹Łæĺ¯èĥ½å¤Ł": 516, "ä¹Łæĺ¯éĢĲæ¸Ĳ": 517, "ä¹Łæĺ¯éĢĲæ¸ĲçļĦ": 518, "ä¹Łç®Ĺæĺ¯": 519, "ä¹Łèĥ½": 520, "ä¹ł": 521, "äº": 522, "äº¡": 523, "äº¤": 524, "äº¤æīĭ": 525, "äº¤æĺĵ": 526, "äº§": 527, "äº§çĶŁ": 528, "äº®": 529, "äº²": 530, "äº²èĩª": 531, "äºº": 532, "äººå½±": 533, "äººç±»": 534, "äººç¾¤": 535, "äººçļĦ": 536, "äºĨ": 537, "äºĨä¸¤": 538, "äºĨä¸ª": 539, "äºĨä¸Ģ": 540, "äºĨä¸Ģä¸ª": 541, "äºĨä¸Ģä¸ĭ": 542, "äºĨä¸ĢäºĽ": 543, "äºĨä¸Ģä¼ļ": 544, "äºĨä¸Ģå£°": 545, "äºĨä¸Ģåı£": 546, "äºĨä¸Ģåı£æ°Ķ": 547, "äºĨä¸Ģç§į": 548, "äºĨä¸ĢçĤ¹": 549, "äºĨä¸Ģçķª": 550, "äºĨä¸Ģçľ¼": 551, "äºĨä¸Ģéģĵ": 552, "äºĨä¸Ĭåİ»": 553, "äºĨä¸ĭåİ»": 554, "äºĨä¸ĭæĿ¥": 555, "äºĨä¸įå°ĳ": 556, "äºĨä¹Ī": 557, "äºĨä»Ģä¹Ī": 558, "äºĨä»ĸ": 559, "äºĨå°Ĩè¿ĳ": 560, "äºĨåĩºåİ»": 561, "äºĨåĩºæĿ¥": 562, "äºĨåĩł": 563, "äºĨåİ»": 564, "äºĨåĲ§": 565, "äºĨåķĬ": 566, "äºĨæĭ±æīĭ": 567, "äºĨæĭį": 568, "äºĨæĮ¥æīĭ": 569, "äºĨæĳĨ": 570, "äºĨæĳĩå¤´": 571, "äºĨæĳĬæīĭ": 572, "äºĨçĤ¹": 573, "äºĨçīĩåĪ»": 574, "äºĨè§£": 575, "äºĨè®¸å¤ļ": 576, "äºĨèµ·æĿ¥": 577, "äºĨè¿ĩåİ»": 578, "äºĨè¿ĩæĿ¥": 579, "äºĨèĲ§çĤİ": 580, "äºĨèĲ§çĤİä¸Ģçľ¼": 581, "äºĨéĤ£": 582, "äºĪ": 583, "äºī": 584, "äºĭ": 585, "äºĭæĥħ": 586, "äºĮ": 587, "äºĮäºº": 588, "äºĮåįģ": 589, "äºĮç«ł": 590, "äºĮèĢģ": 591, "äºİ": 592, "äºı": 593, "äºĳ": 594, "äºĳå±±": 595, "äºĳå²ļ": 596, "äºĳå²ļå®Ĺ": 597, "äºĳæ£±": 598, "äºĳèĬĿ": 599, "äºĳéŁµ": 600, "äºĴ": 601, "äºĴçĽ¸": 602, "äºĶ": 603, "äºĶåįģ": 604, "äºĶç«ł": 605, "äºĶçĻ¾": 606, "äºĽ": 607, "äºĽè®¸": 608, "ä»": 609, "ä»£": 610, "ä»¤": 611, "ä»¤äºº": 612, "ä»¤å¾Ĺ": 613, "ä»¤å¾Ĺäºº": 614, "ä»¤å¾Ĺä»ĸ": 615, "ä»¤å¾ĹèĲ§çĤİ": 616, "ä»¥": 617, "ä»¥ä¸º": 618, "ä»¥ä¸Ģç§į": 619, "ä»¥ä»ĸ": 620, "ä»¥å¾Ģ": 621, "ä»¥åīį": 622, "ä»¥åıĬ": 623, "ä»¥åĲİ": 624, "ä»¬": 625, "ä»°": 626, "ä»¶": 627, "ä»·": 628, "ä»·æł¼": 629, "ä»»": 630, "ä»»ä½ķ": 631, "ä»»ä½ķäºº": 632, "ä»»çĶ±": 633, "ä»½": 634, "ä»¿": 635, "ä»¿ä½Ľ": 636, "ä»Ģ": 637, "ä»Ģä¹Ī": 638, "ä»Ģä¹Īä¸ľè¥¿": 639, "ä»ħ": 640, "ä»ħä»ħ": 641, "ä»ħä»ħåıªæĺ¯": 642, "ä»ħä»ħæĺ¯": 643, "ä»ĩ": 644, "ä»Ĭ": 645, "ä»Ĭå¤©": 646, "ä»ĬæĹ¥": 647, "ä»İ": 648, "ä»İä¸Ń": 649, "ä»İåħ¶": 650, "ä»İæľª": 651, "ä»İçº³æĪĴä¸Ń": 652, "ä»İçº³æĪĴä¸Ńåıĸåĩº": 653, "ä»İéĤ£": 654, "ä»Ķ": 655, "ä»Ķç»Ĩ": 656, "ä»ĸ": 657, "ä»ĸä¹Ł": 658, "ä»ĸä¹Łæĺ¯": 659, "ä»ĸä»¬": 660, "ä»ĸä»¬çļĦ": 661, "ä»ĸä¾¿æĺ¯": 662, "ä»ĸå¿ĥä¸Ń": 663, "ä»ĸåį´æĺ¯": 664, "ä»ĸåľ¨": 665, "ä»ĸæĺ¯": 666, "ä»ĸçļĦ": 667, "ä»ĸçŁ¥éģĵ": 668, "ä»ĸèĥ½å¤Ł": 669, "ä»ĺ": 670, "ä»Ļ": 671, "ä¼": 672, "ä¼¤": 673, "ä¼¤å®³": 674, "ä¼¤åĬ¿": 675, "ä¼´": 676, "ä¼´éļıçĿĢ": 677, "ä¼¸": 678, "ä¼¸åĩº": 679, "ä¼¼": 680, "ä¼¼ä¹İ": 681, "ä¼¼ä¹İæĺ¯": 682, "ä¼¼æĺ¯": 683, "ä¼Ĭ": 684, "ä¼į": 685, "ä¼Ĳ": 686, "ä¼ĳ": 687, "ä¼ĳæģ¯": 688, "ä¼Ĺ": 689, "ä¼Ĺäºº": 690, "ä¼Ĺå¤ļ": 691, "ä¼ĺ": 692, "ä¼ļ": 693, "ä¼ļæĺ¯": 694, "ä¼ļæľī": 695, "ä¼ļè¢«": 696, "ä¼ł": 697, "ä¼łåĩº": 698, "ä¼łæĿ¥": 699, "ä¼łæĿ¥çļĦ": 700, "ä¼łè¯´": 701, "ä½": 702, "ä½£": 703, "ä½£åħµ": 704, "ä½£åħµåĽ¢": 705, "ä½¿": 706, "ä½¿å¾Ĺ": 707, "ä½¿çĶ¨": 708, "ä½Ĩ": 709, "ä½Ĩåį´": 710, "ä½Ĩæĺ¯": 711, "ä½Ĩè¿Ļ": 712, "ä½ĨéĤ£": 713, "ä½į": 714, "ä½įç½®": 715, "ä½İ": 716, "ä½İä½İ": 717, "ä½İå£°": 718, "ä½İå£°éģĵ": 719, "ä½İå¤´": 720, "ä½İæ²ī": 721, "ä½İæ²īçļĦ": 722, "ä½ı": 723, "ä½ĵ": 724, "ä½ĵåĨħ": 725, "ä½ĵåĨħæĸĹæ°Ķ": 726, "ä½ĵåĨħçļĦ": 727, "ä½ķ": 728, "ä½ķç§į": 729, "ä½ķçŃī": 730, "ä½Ļ": 731, "ä½Ľ": 732, "ä½ĽæĢĴ": 733, "ä½ĽæĢĴçģ«èİ²": 734, "ä½ľ": 735, "ä½ľä¸º": 736, "ä½ľçĶ¨": 737, "ä½ł": 738, "ä½łä¹Ł": 739, "ä½łä»¬": 740, "ä½łæĺ¯": 741, "ä½łçļĦ": 742, "ä½łè¿Ļ": 743, "ä½łèĥ½": 744, "ä¾": 745, "ä¾§": 746, "ä¾µ": 747, "ä¾¿": 748, "ä¾¿æĺ¯": 749, "ä¾¿æĺ¯ä¼ļ": 750, "ä¾¿æĺ¯å°Ĩ": 751, "ä¾¿æĺ¯åĩºçİ°åľ¨äºĨ": 752, "ä¾¿æĺ¯åľ¨": 753, "ä¾¿æĺ¯çĽ´æİ¥": 754, "ä¾¿æĺ¯è¢«": 755, "ä¾¿æĺ¯èĥ½å¤Ł": 756, "ä¾¿èµ°": 757, "ä¾¿èĥ½": 758, "ä¾Ŀ": 759, "ä¾ĿæĹ§": 760, "ä¾ĿæĹ§æĺ¯": 761, "ä¾ĿçĦ¶": 762, "ä¾ĿçĦ¶æĺ¯": 763, "ä¾ĿéĿł": 764, "ä¿": 765, "ä¿¡": 766, "ä¿¡å¿ĥ": 767, "ä¿®": 768, "ä¿®å´ĸ": 769, "ä¿®çĤ¼": 770, "ä¿®çĤ¼å®¤": 771, "ä¿ĥ": 772, "ä¿ı": 773, "ä¿ıèĦ¸": 774, "ä¿Ŀ": 775, "ä¿ĿæĬ¤": 776, "ä¿ĿæĮģ": 777, "ä¿ĿæĮģçĿĢ": 778, "å": 779, "å¡": 780, "å¡Ķ": 781, "å¡ŀ": 782, "å¢": 783, "å¢¨": 784, "å¢¨å®¶": 785, "å¢ĥ": 786, "å¢ĵ": 787, "å¢Ļ": 788, "å¢ŀ": 789, "å£": 790, "å£«": 791, "å£®": 792, "å£°": 793, "å£°åĬ¿": 794, "å£°åĵį": 795, "å£°éģĵ": 796, "å£°éŁ³": 797, "å£ģ": 798, "å¤": 799, "å¤§": 800, "å¤§äºº": 801, "å¤§ä¼ļ": 802, "å¤§å¤ļ": 803, "å¤§å®¶": 804, "å¤§å°ı": 805, "å¤§å¸Ī": 806, "å¤§åİħ": 807, "å¤§åİħä¸Ń": 808, "å¤§åĵ¥": 809, "å¤§åľ°": 810, "å¤§æ®¿": 811, "å¤§æ±ī": 812, "å¤§æĪĺ": 813, "å¤§æĸĹå¸Ī": 814, "å¤§çļĦ": 815, "å¤§éķ¿èĢģ": 816, "å¤§éĹ¨": 817, "å¤§éĺµ": 818, "å¤§éĻĨ": 819, "å¤©": 820, "å¤©å¢ĵ": 821, "å¤©å¦ĸ": 822, "å¤©å¦ĸåĤĢ": 823, "å¤©å¦ĸåĩ°": 824, "å¤©å¦ĸåĩ°æĹı": 825, "å¤©å°Ĭ": 826, "å¤©å¸Ŀ": 827, "å¤©åºľ": 828, "å¤©åºľèģĶçĽŁ": 829, "å¤©åķ¸": 830, "å¤©åľ°": 831, "å¤©åľ°èĥ½éĩı": 832, "å¤©åľ°éĹ´": 833, "å¤©æĹ¶éĹ´": 834, "å¤©ç©º": 835, "å¤©ç©ºä¸Ĭ": 836, "å¤©ç©ºä¸ĬçļĦ": 837, "å¤©ç©ºä¸ĬéĤ£": 838, "å¤©ç©ºä¹ĭä¸Ĭ": 839, "å¤©çģ«": 840, "å¤©çģ«ä¸ī": 841, "å¤©çģ«ä¸īçİĦ": 842, "å¤©çģ«ä¸īçİĦåıĺ": 843, "å¤©çģ«å°ĬèĢħ": 844, "å¤©çĦļ": 845, "å¤©çĦļçĤ¼æ°Ķå¡Ķ": 846, "å¤©çĽĸ": 847, "å¤©è¡Į": 848, "å¤©èµĭ": 849, "å¤©èĽĩ": 850, "å¤©éĻħ": 851, "å¤ª": 852, "å¤ªå¤§": 853, "å¤ªå¤§çļĦ": 854, "å¤ªå¤ļ": 855, "å¤ªè¿ĩ": 856, "å¤ªèĻļ": 857, "å¤ªèĻļåı¤é¾Ļ": 858, "å¤«": 859, "å¤®": 860, "å¤±": 861, "å¤±åİ»äºĨ": 862, "å¤±æľĽ": 863, "å¤±è´¥": 864, "å¤´": 865, "å¤´é¡¶": 866, "å¤¹": 867, "å¤¹æĿĤçĿĢ": 868, "å¤º": 869, "å¤Ħ": 870, "å¤Ħäºİ": 871, "å¤ĦçļĦ": 872, "å¤ĩ": 873, "å¤į": 874, "å¤įæĿĤ": 875, "å¤ĸ": 876, "å¤ĸçķĮ": 877, "å¤ĸéĿ¢": 878, "å¤ļ": 879, "å¤ļä¹ħ": 880, "å¤ļå°ĳ": 881, "å¤ļå¹´": 882, "å¤ļçļĦ": 883, "å¤ļè°¢": 884, "å¤ľ": 885, "å¤Ł": 886, "å¤Ń": 887, "å¥": 888, "å¥¥": 889, "å¥¥æīĺ": 890, "å¥³": 891, "å¥³äºº": 892, "å¥³åŃ©": 893, "å¥³åŃĲ": 894, "å¥³çİĭ": 895, "å¥¹": 896, "å¥¹ä»¬": 897, "å¥¹çļĦ": 898, "å¥½": 899, "å¥½äºĨ": 900, "å¥½å¤Ħ": 901, "å¥½å¥ĩ": 902, "å¥½åĩł": 903, "å¥½çľĭ": 904, "å¥ĩ": 905, "å¥ĩå¼Ĥ": 906, "å¥ĩå¼ĤçļĦ": 907, "å¥Ī": 908, "å¥ī": 909, "å¥ĭ": 910, "å¥Ķ": 911, "å¥Ĺ": 912, "å¦": 913, "å¦®": 914, "å¦¹": 915, "å¦Ĥ": 916, "å¦Ĥä»Ĭ": 917, "å¦Ĥä»ĬçļĦ": 918, "å¦Ĥä½ķ": 919, "å¦Ĥåħ¶": 920, "å¦ĤåĲĮ": 921, "å¦Ĥæŀľ": 922, "å¦ĤæŃ¤": 923, "å¦ĥ": 924, "å¦ĸ": 925, "å¦ĸåĤĢ": 926, "å¦ĸåľ£": 927, "å¦ĸçģ«": 928, "å¦ĸçŀ": 929, "å¦ĸçŀĳ": 930, "å¦Ļ": 931, "å§": 932, "å§¿": 933, "å§ĭ": 934, "å§ĭç»Ī": 935, "å§Ĳ": 936, "å§ļ": 937, "å§ļçĽĽ": 938, "å¨": 939, "å¨ģ": 940, "å¨ģåĬĽ": 941, "å¨ģåİĭ": 942, "å¨ģèĥģ": 943, "å¨ĩ": 944, "å¨ĩèº¯": 945, "å©": 946, "åª": 947, "åªļ": 948, "å«": 949, "å«£çĦ¶": 950, "å«©": 951, "å®": 952, "å®¢": 953, "å®¢æ°Ķ": 954, "å®¤": 955, "å®³": 956, "å®¶": 957, "å®¶ä¼": 958, "å®¶ä¼Ļ": 959, "å®¶æĹı": 960, "å®¹": 961, "å®¹æĺĵ": 962, "å®¹è²Į": 963, "å®½": 964, "å®½æķŀ": 965, "å®ģ": 966, "å®ĥ": 967, "å®ĥä»¬": 968, "å®ĥçļĦ": 969, "å®Ī": 970, "å®ī": 971, "å®īéĿĻ": 972, "å®īéĿĻçļĦ": 973, "å®Į": 974, "å®Įåħ¨": 975, "å®Įæ¯ķ": 976, "å®ĮæĪĲ": 977, "å®Įç¾İ": 978, "å®Ĺ": 979, "å®Ĺä¸»": 980, "å®ļ": 981, "å®ļçĦ¶": 982, "å®Ľ": 983, "å®Ľå¦Ĥ": 984, "å®Ŀ": 985, "å®ŀ": 986, "å®ŀåĬĽ": 987, "å®ŀåľ¨": 988, "å®ŀåľ¨æĺ¯": 989, "å®ŀçļĦ": 990, "å®ŀè´¨": 991, "å¯": 992, "å¯¸": 993, "å¯¹": 994, "å¯¹äºİ": 995, "å¯¹äºİè¿Ļ": 996, "å¯¹äºİèĲ§çĤİ": 997, "å¯¹ä»ĸ": 998, "å¯¹ä»ĺ": 999, "å¯¹ä½ł": 1000, "å¯¹åħ¶": 1001, "å¯¹æīĭ": 1002, "å¯¹æĸ¹": 1003, "å¯¹çĿĢ": 1004, "å¯¹çĿĢèĲ§çĤİ": 1005, "å¯¹çĿĢéĤ£": 1006, "å¯¹è§Ĩ": 1007, "å¯¹è§ĨäºĨä¸Ģçľ¼": 1008, "å¯¹èĲ§çĤİ": 1009, "å¯¹éĿ¢": 1010, "å¯»": 1011, "å¯»å¸¸": 1012, "å¯»æī¾": 1013, "å¯¼": 1014, "å¯¼å¸Ī": 1015, "å¯¼èĩ´": 1016, "å¯Ĥ": 1017, "å¯ĤéĿĻ": 1018, "å¯Ĩ": 1019, "å¯Ĩå¯Ĩéº»éº»": 1020, "å¯Ĩéº»éº»": 1021, "å¯Ĵ": 1022, "å¯Ĵæ°Ķ": 1023, "å¯ĴæĦı": 1024, "å¯ĴèĬĴ": 1025, "å¯Łè§ī": 1026, "å¯Łè§īåĪ°": 1027, "å°": 1028, "å°±": 1029, "å°±å¦ĤåĲĮ": 1030, "å°±å¾Ĺ": 1031, "å°±åľ¨": 1032, "å°±åľ¨èĲ§çĤİ": 1033, "å°±æĺ¯": 1034, "å°±ç®Ĺ": 1035, "å°±ç®Ĺæĺ¯": 1036, "å°±çĬ¹å¦Ĥ": 1037, "å°´": 1038, "å°´å°": 1039, "å°´å°¬": 1040, "å°¸": 1041, "å°¸ä½ĵ": 1042, "å°º": 1043, "å°½": 1044, "å°½å¤´": 1045, "å°½æķ°": 1046, "å°¾": 1047, "å°ģ": 1048, "å°ģåį°": 1049, "å°Ħ": 1050, "å°ĦèĢĮåĩº": 1051, "å°Ĩ": 1052, "å°Ĩä¹ĭ": 1053, "å°Ĩä»ĸ": 1054, "å°Ĩä¼ļ": 1055, "å°Ĩåħ¶": 1056, "å°ĨçĽ®åħī": 1057, "å°Ĩè¿ĳ": 1058, "å°Ĩè¿Ļ": 1059, "å°ĨèĲ§çĤİ": 1060, "å°ĨéĤ£": 1061, "å°Ĭ": 1062, "å°ĬèĢħ": 1063, "å°ı": 1064, "å°ıä¼Ĭ": 1065, "å°ıå¥³åŃ©": 1066, "å°ıå§Ĳ": 1067, "å°ıå®¶ä¼Ļ": 1068, "å°ıå¿ĥ": 1069, "å°ıå¿ĥç¿¼": 1070, "å°ıå¿ĥç¿¼ç¿¼": 1071, "å°ıåĮ": 1072, "å°ıåĮ»": 1073, "å°ıåĮ»ä»Ļ": 1074, "å°ıåŃĲ": 1075, "å°ıæĹ¶": 1076, "å°ıçļĦ": 1077, "å°ıèĦ¸": 1078, "å°ĳ": 1079, "å°ĳå¥³": 1080, "å°ĳå¹´": 1081, "å°ĳçĪ·": 1082, "å°Ķ": 1083, "å°ĸ": 1084, "å°ĸéĶĲ": 1085, "å°ĺ": 1086, "å°ļ": 1087, "å±": 1088, "å±±": 1089, "å±±å³°": 1090, "å±±æ´ŀ": 1091, "å±±è°·": 1092, "å±±èĢģäºº": 1093, "å±±èĦī": 1094, "å±±é¡¶": 1095, "å±Ģ": 1096, "å±ĢéĿ¢": 1097, "å±ģ": 1098, "å±Ĥ": 1099, "å±Ĥæ¬¡": 1100, "å±ħ": 1101, "å±ħçĦ¶": 1102, "å±ħçĦ¶æĺ¯": 1103, "å±Ī": 1104, "å±ĪæĮĩ": 1105, "å±ĪæĮĩä¸Ģå¼¹": 1106, "å±Ĭ": 1107, "å±ĭ": 1108, "å±ĳ": 1109, "å±ķ": 1110, "å±ŀ": 1111, "å±ŀäºİ": 1112, "å±ŀæĢ§": 1113, "å²": 1114, "å²©": 1115, "å²©æµĨ": 1116, "å²©æŀŃ": 1117, "å²ģ": 1118, "å²Ĥ": 1119, "å²ļ": 1120, "å²Ľ": 1121, "å³": 1122, "å³°": 1123, "å´": 1124, "å´©": 1125, "å´ĸ": 1126, "å·": 1127, "å·¥": 1128, "å·¦": 1129, "å·¦åı³": 1130, "å·§": 1131, "å·¨": 1132, "å·¨å¤§": 1133, "å·¨å¤§çļĦ": 1134, "å·¨çŁ³": 1135, "å·®": 1136, "å·®è·Ŀ": 1137, "å·±": 1138, "å·²": 1139, "å·²æĺ¯": 1140, "å·²ç»ı": 1141, "å·²ç»ıæĺ¯": 1142, "å·²ç»ıè¢«": 1143, "å·´": 1144, "å·´æİĮ": 1145, "å·ħ": 1146, "å·ħå³°": 1147, "å·ŀ": 1148, "å¸": 1149, "å¸¦": 1150, "å¸¦çĿĢ": 1151, "å¸¦èµ·": 1152, "å¸®": 1153, "å¸®å¿Ļ": 1154, "å¸®åĬ©": 1155, "å¸¸": 1156, "å¸Ĥ": 1157, "å¸ĥ": 1158, "å¸ĥæ»¡": 1159, "å¸ĥæ»¡çĿĢ": 1160, "å¸Ī": 1161, "å¸Į": 1162, "å¸ĮæľĽ": 1163, "å¸Ĳ": 1164, "å¸Ŀ": 1165, "å¸ĿåĽ½": 1166, "å¸Ń": 1167, "å¸Ńåį·": 1168, "å¹": 1169, "å¹²": 1170, "å¹²æŀ¯": 1171, "å¹³": 1172, "å¹³æ·¡": 1173, "å¹³æĹ¥": 1174, "å¹³éĿĻ": 1175, "å¹´": 1176, "å¹´æĹ¶éĹ´": 1177, "å¹´è½»": 1178, "å¹´è½»ä¸Ģè¾Ī": 1179, "å¹´è½»äºº": 1180, "å¹´é¾Ħ": 1181, "å¹¶": 1182, "å¹¶ä¸į": 1183, "å¹¶ä¸įæĺ¯": 1184, "å¹¶ä¸Ķ": 1185, "å¹¶æ²¡æľī": 1186, "å¹¶æľª": 1187, "å¹¶éĿŀ": 1188, "å¹¶éĿŀæĺ¯": 1189, "å¹¸": 1190, "å¹»": 1191, "å¹½": 1192, "å¹¿": 1193, "å¹¿åľº": 1194, "å¹¿åľºä¸Ĭ": 1195, "å¹¿åľºä¹ĭä¸Ĭ": 1196, "å¹ħ": 1197, "å¹ķ": 1198, "åº": 1199, "åº¦": 1200, "åº§": 1201, "åºĬ": 1202, "åºĶ": 1203, "åºĶè¯¥": 1204, "åºĶè¯¥ä¾¿æĺ¯": 1205, "åºĶè¯¥æĺ¯": 1206, "åºķ": 1207, "åºľ": 1208, "åºŀ": 1209, "åºŀå¤§": 1210, "åºŀå¤§çļĦ": 1211, "åºŁ": 1212, "åºŁçī©": 1213, "åºŁè¯Ŀ": 1214, "å»": 1215, "å»¶": 1216, "å»º": 1217, "å¼": 1218, "å¼¥": 1219, "å¼¥æ¼«": 1220, "å¼¥æ¼«çĿĢ": 1221, "å¼¥æ¼«èĢĮåĩº": 1222, "å¼§": 1223, "å¼§åº¦": 1224, "å¼¯": 1225, "å¼±": 1226, "å¼¹": 1227, "å¼º": 1228, "å¼ºå¤§": 1229, "å¼ºæ¦ľ": 1230, "å¼ºæ¨ª": 1231, "å¼ºæĤį": 1232, "å¼ºè¡Į": 1233, "å¼ºèĢħ": 1234, "å¼Ģ": 1235, "å¼ĢäºĨ": 1236, "å¼Ģå§ĭ": 1237, "å¼Ģå§ĭäºĨ": 1238, "å¼Ģåİ»": 1239, "å¼Ģåı£": 1240, "å¼ĢåĲ¯": 1241, "å¼ĢæĿ¥": 1242, "å¼Ĥ": 1243, "å¼Ĥå¸¸": 1244, "å¼Ĥæł·": 1245, "å¼Ĥçģ«": 1246, "å¼ĥ": 1247, "å¼Ħ": 1248, "å¼ı": 1249, "å¼ķ": 1250, "å¼ķèµ·": 1251, "å¼Ł": 1252, "å¼ŁåŃĲ": 1253, "å¼ł": 1254, "å½": 1255, "å½¢": 1256, "å½¢æĪĲ": 1257, "å½©": 1258, "å½©é³ŀ": 1259, "å½±": 1260, "å½±åŃĲ": 1261, "å½»": 1262, "å½»åºķ": 1263, "å½»åºķçļĦ": 1264, "å½»å½»åºķ": 1265, "å½¼": 1266, "å½¼æŃ¤": 1267, "å½Ĵ": 1268, "å½ĵ": 1269, "å½ĵä¸ĭ": 1270, "å½ĵå¹´": 1271, "å½ĵåĪĿ": 1272, "å½ĵåľº": 1273, "å½ĵæĹ¥": 1274, "å½ĵçĦ¶": 1275, "å½ĵçľŁæĺ¯": 1276, "å¾": 1277, "å¾¡": 1278, "å¾®": 1279, "å¾®å¾®": 1280, "å¾®å¾®ä¸Ģ": 1281, "å¾®å¾®ä¸Ģåıĺ": 1282, "å¾®å¾®ä¸Ģç¬ĳ": 1283, "å¾®å¾®çĤ¹äºĨçĤ¹å¤´": 1284, "å¾®å¾®çĤ¹å¤´": 1285, "å¾®åıĺ": 1286, "å¾®ç¬ĳ": 1287, "å¾®ç¬ĳéģĵ": 1288, "å¾®çļ±": 1289, "å¾®çľ¯": 1290, "å¾½": 1291, "å¾½ç«ł": 1292, "å¾Ģ": 1293, "å¾Ħ": 1294, "å¾ĦçĽ´": 1295, "å¾ħ": 1296, "å¾ħå¾Ĺ": 1297, "å¾Ī": 1298, "å¾Īå¤ļ": 1299, "å¾Īå°ĳ": 1300, "å¾Īæĺ¯": 1301, "å¾Īéļ¾": 1302, "å¾Ĳ": 1303, "å¾Ĳå¾Ĳ": 1304, "å¾Ĺ": 1305, "å¾ĹåĪ°": 1306, "å¾ĹæĦı": 1307, "å¾ĹæľīäºĽ": 1308, "å¾Ĺç½ª": 1309, "å¿": 1310, "å¿«": 1311, "å¿«æŃ¥": 1312, "å¿«éĢŁ": 1313, "å¿µ": 1314, "å¿µå¤´": 1315, "å¿½": 1316, "å¿½çĦ¶": 1317, "å¿ĥ": 1318, "å¿ĥä¸Ń": 1319, "å¿ĥå¤´": 1320, "å¿ĥç¥ŀ": 1321, "å¿ĥçģ«": 1322, "å¿ĥçĤİ": 1323, "å¿ħ": 1324, "å¿ħçĦ¶": 1325, "å¿ħé¡»": 1326, "å¿Ĩ": 1327, "å¿Į": 1328, "å¿Įæĥ®": 1329, "å¿į": 1330, "å¿įä¸įä½ı": 1331, "å¿įä¸įä½ıçļĦ": 1332, "å¿ĺ": 1333, "å¿Ļ": 1334, "åĢ": 1335, "åĢ©": 1336, "åĢ©å½±": 1337, "åĢ¼": 1338, "åĢ¾": 1339, "åĢį": 1340, "åĢĴ": 1341, "åĢĴä¹Ł": 1342, "åĢĴæĺ¯": 1343, "åĢĻ": 1344, "åĢŁ": 1345, "åĢŁåĬ©": 1346, "åĢŁåĬ©çĿĢ": 1347, "åģ": 1348, "åģ¶": 1349, "åģ¶å°Ķ": 1350, "åģ·": 1351, "åģĩ": 1352, "åģı": 1353, "åģıå¤´": 1354, "åģıè¿ĩå¤´": 1355, "åģļ": 1356, "åģľ": 1357, "åģľæŃ¢": 1358, "åģľçķĻ": 1359, "åĤ": 1360, "åĤ¬": 1361, "åĤ²": 1362, "åĤ»": 1363, "åĤĢ": 1364, "åĤĢåĦ¡": 1365, "åĥ": 1366, "åĥµ": 1367, "åĥµç¡¬": 1368, "åĥı": 1369, "åĦ": 1370, "åĦ¡": 1371, "åĦ¿": 1372, "åħ": 1373, "åħ¥": 1374, "åħ¥äºĨ": 1375, "åħ¨": 1376, "åħ¨åĬĽ": 1377, "åħ¨èº«": 1378, "åħ¨éĥ¨": 1379, "åħ«": 1380, "åħ«åįģ": 1381, "åħ«ç«ł": 1382, "åħ¬": 1383, "åħ¬ä¸»": 1384, "åħ¬ä¼ļ": 1385, "åħ°": 1386, "åħ³": 1387, "åħ³ç³»": 1388, "åħ´": 1389, "åħ´å¥ĭ": 1390, "åħ´è¶£": 1391, "åħµ": 1392, "åħ¶": 1393, "åħ¶ä¸Ĭ": 1394, "åħ¶ä¸Ń": 1395, "åħ¶ä»ĸ": 1396, "åħ¶ä»ĸäºº": 1397, "åħ¶ä»ĸçļĦ": 1398, "åħ¶ä½ĵåĨħ": 1399, "åħ¶ä½Ļ": 1400, "åħ¶å®ŀ": 1401, "åħ¶åĲİ": 1402, "åħ¶èº«ä½ĵ": 1403, "åħ·": 1404, "åħ·å¤ĩ": 1405, "åħ»": 1406, "åħ½": 1407, "åħĢ": 1408, "åħĥ": 1409, "åħĦ": 1410, "åħĦå¼Ł": 1411, "åħħ": 1412, "åħħæ»¡": 1413, "åħħæĸ¥": 1414, "åħħæĸ¥çĿĢ": 1415, "åħĪ": 1416, "åħĪåīį": 1417, "åħĪåīįéĤ£": 1418, "åħĪçĶŁ": 1419, "åħī": 1420, "åħīåĽ¢": 1421, "åħīåľĪ": 1422, "åħīæ³½": 1423, "åħīæĺ¯": 1424, "åħīæŁ±": 1425, "åħīèĬĴ": 1426, "åħĭ": 1427, "åħį": 1428, "åħŃ": 1429, "åħŃåįģ": 1430, "åħŃç«ł": 1431, "åĨ": 1432, "åĨ¥": 1433, "åĨ¥å®Ĺ": 1434, "åĨ¥èŁĴ": 1435, "åĨ°": 1436, "åĨ°å¯Ĵ": 1437, "åĨ°åĨ·": 1438, "åĨ°åĩī": 1439, "åĨ°æ²³": 1440, "åĨ°æ²³è°·": 1441, "åĨ²": 1442, "åĨ²åĩ»": 1443, "åĨ²çĿĢ": 1444, "åĨ³": 1445, "åĨ³å®ļ": 1446, "åĨµ": 1447, "åĨ·": 1448, "åĨ·åĵ¼": 1449, "åĨ·æ±Ĺ": 1450, "åĨ·æ¼ł": 1451, "åĨ·ç¬ĳ": 1452, "åĨ·ç¬ĳéģĵ": 1453, "åĨ·çģ«": 1454, "åĨħ": 1455, "åĨħéĥ¨": 1456, "åĨħéĻ¢": 1457, "åĨį": 1458, "åĨįåº¦": 1459, "åĨįåĬłä¸Ĭ": 1460, "åĨįæ¬¡": 1461, "åĨĴ": 1462, "åĨĽ": 1463, "åĨł": 1464, "åĨłåĨĽ": 1465, "åĩ": 1466, "åĩ¡": 1467, "åĩ¤": 1468, "åĩ¤æ¸ħåĦ¿": 1469, "åĩ°": 1470, "åĩ¶": 1471, "åĩ¶åħ½": 1472, "åĩ¶æĤį": 1473, "åĩº": 1474, "åĩºä¹İ": 1475, "åĩºäºĨ": 1476, "åĩºå£°": 1477, "åĩºåİ»": 1478, "åĩºæīĭ": 1479, "åĩºæĿ¥": 1480, "åĩºæĿ¥çļĦ": 1481, "åĩºçİ°": 1482, "åĩºçİ°äºĨ": 1483, "åĩºçİ°åľ¨": 1484, "åĩºçİ°åľ¨äºĨ": 1485, "åĩºçİ°çļĦ": 1486, "åĩ»": 1487, "åĩ»æĿĢ": 1488, "åĩ»è´¥": 1489, "åĩĢ": 1490, "åĩĢèİ²": 1491, "åĩĢèİ²å¦ĸçģ«": 1492, "åĩĦ": 1493, "åĩĦåİī": 1494, "åĩĨ": 1495, "åĩĨå¤ĩ": 1496, "åĩī": 1497, "åĩĮ": 1498, "åĩĮåİī": 1499, "åĩı": 1500, "åĩıå¼±": 1501, "åĩĳ": 1502, "åĩĿ": 1503, "åĩĿåĽº": 1504, "åĩĿèģļ": 1505, "åĩĿèģļæĪĲ": 1506, "åĩĿéĩį": 1507, "åĩł": 1508, "åĩłä¸ª": 1509, "åĩłä¹İ": 1510, "åĩłä¹İæĺ¯": 1511, "åĩłäºº": 1512, "åĩłä½į": 1513, "åĩłåĪĨ": 1514, "åĩłåįģ": 1515, "åĩłåĲį": 1516, "åĩłéģĵ": 1517, "åĩŃ": 1518, "åĩŃåĢŁ": 1519, "åĩŃç©º": 1520, "åĪ": 1521, "åĪ©": 1522, "åĪ«": 1523, "åĪ«äºº": 1524, "åĪ°": 1525, "åĪ°äºĨ": 1526, "åĪ°å¾Ĺ": 1527, "åĪ°æīĭ": 1528, "åĪ°æĹ¶åĢĻ": 1529, "åĪ°è¾¾": 1530, "åĪ¶": 1531, "åĪº": 1532, "åĪºçľ¼": 1533, "åĪ»": 1534, "åĪĢ": 1535, "åĪĥ": 1536, "åĪĨ": 1537, "åĪĨéĴŁ": 1538, "åĪĩ": 1539, "åĪĴ": 1540, "åĪĹ": 1541, "åĪĻ": 1542, "åĪĻæĺ¯": 1543, "åĪļ": 1544, "åĪļå¥½": 1545, "åĪļåĪļ": 1546, "åĪļåĪļèĲ½ä¸ĭ": 1547, "åĪļæ¬²": 1548, "åĪļæīį": 1549, "åĪĽ": 1550, "åĪĿ": 1551, "åī": 1552, "åī§": 1553, "åī§çĥĪ": 1554, "åī§çĥĪçļĦ": 1555, "åī©": 1556, "åī¯": 1557, "åīĬ": 1558, "åīį": 1559, "åīįæĸ¹": 1560, "åīįæĿ¥": 1561, "åīįè¾Ī": 1562, "åīįèĢħ": 1563, "åīįéĿ¢": 1564, "åīĳ": 1565, "åĬ": 1566, "åĬ¡": 1567, "åĬ¨": 1568, "åĬ¨äºº": 1569, "åĬ¨ä½ľ": 1570, "åĬ¨æīĭ": 1571, "åĬ¨çļĦ": 1572, "åĬ¨çĿĢ": 1573, "åĬ¨èº«": 1574, "åĬ¨éĿĻ": 1575, "åĬ©": 1576, "åĬªåĬĽ": 1577, "åĬ²": 1578, "åĬ²æ°Ķ": 1579, "åĬ²é£İ": 1580, "åĬ¿": 1581, "åĬ¿åĬĽ": 1582, "åĬĪ": 1583, "åĬĽ": 1584, "åĬĽçļĦ": 1585, "åĬĽéĩı": 1586, "åĬŀ": 1587, "åĬŀæ³ķ": 1588, "åĬŁ": 1589, "åĬŁæ³ķ": 1590, "åĬł": 1591, "åĬłä¸Ĭ": 1592, "åĬłå¿«": 1593, "åĬłåĪ": 1594, "åĬłåĪĳ": 1595, "åĬłåĪĳå¤©": 1596, "åĬłåĪĹ": 1597, "åĬłåĪĹå®¶æĹı": 1598, "åĬłåĪĹæ¯ķ": 1599, "åĬłçİĽ": 1600, "åĬłçİĽå¸ĿåĽ½": 1601, "åĭ": 1602, "åĭī": 1603, "åĭīå¼º": 1604, "åĮ": 1605, "åĮ¹": 1606, "åĮ¹ç»ĥ": 1607, "åĮº": 1608, "åĮºåŁŁ": 1609, "åĮħ": 1610, "åĮħåĽ´": 1611, "åĮħè£¹": 1612, "åĮĸ": 1613, "åĮĸä¸º": 1614, "åĮĸä¸ºä¸Ģéģĵ": 1615, "åĮĹ": 1616, "åĮĹé¾Ļçİĭ": 1617, "åį": 1618, "åį¡": 1619, "åį«": 1620, "åį°": 1621, "åį°è®°": 1622, "åį±": 1623, "åį±éĻ©": 1624, "åį³": 1625, "åį³ä½¿": 1626, "åį³ä½¿æĺ¯": 1627, "åį³ä¾¿": 1628, "åį³ä¾¿æĺ¯": 1629, "åį³å°Ĩ": 1630, "åį´": 1631, "åį´å¹¶æľª": 1632, "åį´æĺ¯": 1633, "åį´æĺ¯çªģçĦ¶": 1634, "åį·": 1635, "åį·è½´": 1636, "åįģ": 1637, "åįģåĩł": 1638, "åįģæĿ¥": 1639, "åįĥ": 1640, "åįĩ": 1641, "åįĩèħ¾": 1642, "åįĬ": 1643, "åįĬä¸ª": 1644, "åįĬåľ£": 1645, "åįĬæĻĮ": 1646, "åįĬæĻĮåĲİ": 1647, "åįĬç©º": 1648, "åįĬç©ºä¸Ń": 1649, "åįĬçĤ¹": 1650, "åįİ": 1651, "åįķ": 1652, "åįĸ": 1653, "åįĹ": 1654, "åįĹåŃ¦éĻ¢": 1655, "åįł": 1656, "åįłæį®": 1657, "åİ": 1658, "åİ»": 1659, "åİ»äºĨ": 1660, "åİĦ": 1661, "åİĦéļ¾": 1662, "åİĦéļ¾æ¯Ĵ": 1663, "åİĦéļ¾æ¯Ĵä½ĵ": 1664, "åİħ": 1665, "åİĨ": 1666, "åİī": 1667, "åİĭ": 1668, "åİĭåĪ¶": 1669, "åİĭæĬĳ": 1670, "åİĭè¿«": 1671, "åİļ": 1672, "åİŁ": 1673, "åİŁæľ¬": 1674, "åİŁæĿ¥": 1675, "åı": 1676, "åı£": 1677, "åı£åĳĨ": 1678, "åı¤": 1679, "åı¤å¦ĸ": 1680, "åı¤å¸Ŀ": 1681, "åı¤åħĥ": 1682, "åı¤æ²³": 1683, "åı¤æĢª": 1684, "åı¤æĹı": 1685, "åı¤æłĳ": 1686, "åı¤èĢģ": 1687, "åı¤é¾Ļ": 1688, "åı¥": 1689, "åı¥è¯Ŀ": 1690, "åı¦": 1691, "åı¦å¤ĸ": 1692, "åıª": 1693, "åıªä¸įè¿ĩ": 1694, "åıªå¾Ĺ": 1695, "åıªæĺ¯": 1696, "åıªæľī": 1697, "åıªè¦ģ": 1698, "åıªè§ģ": 1699, "åıªè§ģå¾Ĺ": 1700, "åıªèĥ½": 1701, "åı«": 1702, "åı«å£°": 1703, "åı«åģļ": 1704, "åı¬": 1705, "åı¬åĶ¤": 1706, "åı¯": 1707, "åı¯ä¸į": 1708, "åı¯ä¸įæĺ¯": 1709, "åı¯ä»¥": 1710, "åı¯åį´": 1711, "åı¯æĢķ": 1712, "åı¯æĢķçļĦ": 1713, "åı¯æĥľ": 1714, "åı¯æĺ¯": 1715, "åı¯è§ģ": 1716, "åı¯èĥ½": 1717, "åı°": 1718, "åı°ä¸Ĭ": 1719, "åı³": 1720, "åı¶": 1721, "åı¶å®¶": 1722, "åı¶éĩį": 1723, "åı·": 1724, "åı¹": 1725, "åı¹äºĨä¸Ģåı£æ°Ķ": 1726, "åı¹æģ¯": 1727, "åı¹éģĵ": 1728, "åıĤ": 1729, "åıĤåĬł": 1730, "åıĪ": 1731, "åıĪæĺ¯": 1732, "åıĬ": 1733, "åıĭ": 1734, "åıĮ": 1735, "åıĮæīĭ": 1736, "åıĮæİĮ": 1737, "åıĮæĸ¹": 1738, "åıĮç¿¼": 1739, "åıĮçľ¸": 1740, "åıĮçľ¼": 1741, "åıį": 1742, "åıįåºĶ": 1743, "åıįèĢĮ": 1744, "åıįèĢĮæĺ¯": 1745, "åıĳ": 1746, "åıĳåĩº": 1747, "åıĳçİ°": 1748, "åıĳçĶŁ": 1749, "åıĸ": 1750, "åıĸå¾Ĺ": 1751, "åıĸåĩº": 1752, "åıĹ": 1753, "åıĹåĪ°": 1754, "åıĺ": 1755, "åıĺå¹»": 1756, "åıĺå¾Ĺ": 1757, "åıĺåĮĸ": 1758, "åıĺæĪĲ": 1759, "åıĺæķħ": 1760, "åĲ": 1761, "åĲ¦": 1762, "åĲ¦åĪĻ": 1763, "åĲ§": 1764, "åĲ«": 1765, "åĲ¬": 1766, "åĲ¬å¾Ĺ": 1767, "åĲ¬è§ģ": 1768, "åĲ¬è¯´è¿ĩ": 1769, "åĲ¯": 1770, "åĲ±": 1771, "åĲ´": 1772, "åĲ´æĺĬ": 1773, "åĲ¸": 1774, "åĲ¸äºĨä¸Ģåı£": 1775, "åĲ¸å¼ķ": 1776, "åĲ¸åĬĽ": 1777, "åĲ¸æĶ¶": 1778, "åĲ¹": 1779, "åĲ¼": 1780, "åĲ¼å£°": 1781, "åĲĥ": 1782, "åĲĦ": 1783, "åĲĦä½į": 1784, "åĲĦç§į": 1785, "åĲĦèĩª": 1786, "åĲĪ": 1787, "åĲĮ": 1788, "åĲĮæĹ¶": 1789, "åĲĮæł·": 1790, "åĲĮæł·æĺ¯": 1791, "åĲį": 1792, "åĲįä¸º": 1793, "åĲįåŃĹ": 1794, "åĲİ": 1795, "åĲİæĸ¹": 1796, "åĲİæĿ¥": 1797, "åĲİèĢħ": 1798, "åĲİéĢĢ": 1799, "åĲİéĿ¢": 1800, "åĲĲ": 1801, "åĲĲäºĨä¸Ģåı£æ°Ķ": 1802, "åĲĳ": 1803, "åĲĳèĲ§çĤİ": 1804, "åĲŀ": 1805, "åĲŀå¤©": 1806, "åĲŀå¤©èŁĴ": 1807, "åĲŀåĻ¬": 1808, "åĲŀçĤİ": 1809, "åĲŁ": 1810, "åĲŁåĲŁ": 1811, "åĳ": 1812, "åĳ¢": 1813, "åĳ¨": 1814, "åĳ¨åĽ´": 1815, "åĳ¨åĽ´çļĦ": 1816, "åĳ¨èº«": 1817, "åĳ¨éģŃ": 1818, "åĳ³": 1819, "åĳ³éģĵ": 1820, "åĳµ": 1821, "åĳµåĳµ": 1822, "åĳ¼": 1823, "åĳ¼åĲ¸": 1824, "åĳ¼åķ¸": 1825, "åĳ½": 1826, "åĳĥ": 1827, "åĳĨ": 1828, "åĳĨæ»ŀ": 1829, "åĳĪ": 1830, "åĳĬ": 1831, "åĳĬè¯ī": 1832, "åĳĺ": 1833, "åĳľ": 1834, "åĴ": 1835, "åĴ§": 1836, "åĴ¬": 1837, "åĴ¬çīĻ": 1838, "åĴ¬çĿĢ": 1839, "åĴ³": 1840, "åĴ»": 1841, "åĴ½": 1842, "åĴĤ": 1843, "åĴĨ": 1844, "åĴĨåĵ®": 1845, "åĴĮ": 1846, "åĴĲ": 1847, "åĴĶ": 1848, "åĴķ": 1849, "åĴĻ": 1850, "åĵ": 1851, "åĵ¥": 1852, "åĵ¥åĵ¥": 1853, "åĵ¦": 1854, "åĵª": 1855, "åĵªéĩĮ": 1856, "åĵ®": 1857, "åĵ¼": 1858, "åĵģ": 1859, "åĵģä¸¹èį¯": 1860, "åĵģçĤ¼èį¯å¸Ī": 1861, "åĵĪ": 1862, "åĵĪåĵĪ": 1863, "åĵį": 1864, "åĵįå½»": 1865, "åĵįå½»èĢĮèµ·": 1866, "åĵįèµ·": 1867, "åĵĳ": 1868, "åĵĹ": 1869, "åĶ": 1870, "åĶ¤": 1871, "åĶ¯": 1872, "åĶ¯ä¸Ģ": 1873, "åĶ¯æľī": 1874, "åĶ¾": 1875, "åĶ¾æ²«": 1876, "åĶĩ": 1877, "åĶī": 1878, "åĶĲ": 1879, "åĶĲéľĩ": 1880, "åķ": 1881, "åķ¦": 1882, "åķ§": 1883, "åķ§åķ§": 1884, "åķ¸": 1885, "åķĨ": 1886, "åķĬ": 1887, "åĸ": 1888, "åĸ§": 1889, "åĸ·": 1890, "åĸ·åĩº": 1891, "åĸĥ": 1892, "åĸĥåĸĥ": 1893, "åĸĥåĸĥéģĵ": 1894, "åĸĦ": 1895, "åĸī": 1896, "åĸīåĴĻ": 1897, "åĸĬ": 1898, "åĸľ": 1899, "åĸľæ¬¢": 1900, "åĸĿ": 1901, "åĸĿå£°": 1902, "åĸĿéģĵ": 1903, "åĹ": 1904, "åĹ¤": 1905, "åĹ¤åĹ¤": 1906, "åĹ¯": 1907, "åĺ": 1908, "åĺ²": 1909, "åĺ²è®½": 1910, "åĺ´": 1911, "åĺ´ä¸Ń": 1912, "åĺ´å·´": 1913, "åĺ´åĶĩ": 1914, "åĺ´è§Ĵ": 1915, "åĺ¶": 1916, "åĺ¶åĵĳ": 1917, "åĺ¿": 1918, "åĺ¿åĺ¿": 1919, "åĺĢ": 1920, "åĺī": 1921, "åĺŃ": 1922, "åĻ": 1923, "åĻ¨": 1924, "åĻ¬": 1925, "åĻĹ": 1926, "åĻĹåĹ¤": 1927, "åĻĻçĿĢ": 1928, "åļ": 1929, "åļ£": 1930, "åļ£å¼ł": 1931, "åļĵ": 1932, "åĽ": 1933, "åĽ¢": 1934, "åĽ°éļ¾": 1935, "åĽ´": 1936, "åĽº": 1937, "åĽ½": 1938, "åĽ¾": 1939, "åĽĽ": 1940, "åĽĽäºº": 1941, "åĽĽå¤Ħ": 1942, "åĽĽåįģ": 1943, "åĽĽåĳ¨": 1944, "åĽĽç«ł": 1945, "åĽĽçĻ¾": 1946, "åĽŀ": 1947, "åĽŀå¤į": 1948, "åĽŀåİ»": 1949, "åĽŀæĿ¥": 1950, "åĽŀè¿ĩ": 1951, "åĽŀè¿ĩç¥ŀ": 1952, "åĽŀè¿ĩç¥ŀæĿ¥": 1953, "åĽŀèį¡": 1954, "åĽł": 1955, "åĽłä¸º": 1956, "åĽłæŃ¤": 1957, "åľ": 1958, "åľ£": 1959, "åľ¨": 1960, "åľ¨ä¸Ģ": 1961, "åľ¨ä¸Ģèµ·": 1962, "åľ¨ä¸Ńå·ŀ": 1963, "åľ¨äºĨ": 1964, "åľ¨äºĨä¸Ģ": 1965, "åľ¨ä»ĸ": 1966, "åľ¨ä»ĸä»¬": 1967, "åľ¨å¿ĥä¸Ń": 1968, "åľ¨åħ¶": 1969, "åľ¨åħ¶ä¸Ń": 1970, "åľ¨åĨħéĻ¢": 1971, "åľ¨åľº": 1972, "åľ¨æĪĳ": 1973, "åľ¨æŃ¤åĪ»": 1974, "åľ¨è¿Ļ": 1975, "åľ¨è¿Ļä¸ª": 1976, "åľ¨è¿Ļä¸Ģ": 1977, "åľ¨è¿Ļç§į": 1978, "åľ¨è¿Ļçīĩ": 1979, "åľ¨è¿ĻéĩĮ": 1980, "åľ¨èĲ§çĤİ": 1981, "åľ¨éĤ£": 1982, "åľ°": 1983, "åľ°å¦ĸåĤĢ": 1984, "åľ°å¿ĥ": 1985, "åľ°å¿ĥçģ«": 1986, "åľ°åĽ¾": 1987, "åľ°æĸ¹": 1988, "åľ°æŃ¥": 1989, "åľ°éĿ¢": 1990, "åľ°éĿ¢ä¸Ĭ": 1991, "åľ°éŃĶèĢģé¬¼": 1992, "åľº": 1993, "åľºä¸Ń": 1994, "åľĨ": 1995, "åľĪ": 1996, "åľŁ": 1997, "åľŁè±Ĩ": 1998, "åĿ": 1999, "åĿ¦": 2000, "åĿ¦åŁİ": 2001, "åĿĬ": 2002, "åĿı": 2003, "åĿĲ": 2004, "åĿĲäºİ": 2005, "åĿĲåľ¨": 2006, "åĿĳ": 2007, "åĿĹ": 2008, "åĿļ": 2009, "åĿļæĮģ": 2010, "åĿļç¡¬": 2011, "åŀ": 2012, "åŀĤ": 2013, "åŀĭ": 2014, "åŁ": 2015, "åŁº": 2016, "åŁºæľ¬": 2017, "åŁİ": 2018, "åŁİå¸Ĥ": 2019, "åŁŁ": 2020, "åł": 2021, "åłª": 2022, "åłĤ": 2023, "åłĨ": 2024, "åŃ": 2025, "åŃ¦": 2026, "åŃ¦åĳĺ": 2027, "åŃ¦éĻ¢": 2028, "åŃ©": 2029, "åŃĲ": 2030, "åŃĶ": 2031, "åŃĹ": 2032, "åŃĺ": 2033, "åŃĺåľ¨": 2034, "æ": 2035, "æ¡": 2036, "æ¡Ģ": 2037, "æ¡Į": 2038, "æ¢": 2039, "æ¢¯": 2040, "æ¢Ń": 2041, "æ£": 2042, "æ£®": 2043, "æ£®åĨ·": 2044, "æ£®æŀĹ": 2045, "æ£®çĦ¶": 2046, "æ£®çĻ½": 2047, "æ£±": 2048, "æ¤": 2049, "æ¤ħ": 2050, "æ¥": 2051, "æ¥¼": 2052, "æ¥ļ": 2053, "æ¦": 2054, "æ¦ľ": 2055, "æ¨": 2056, "æ¨¡": 2057, "æ¨¡æł·": 2058, "æ¨¡ç³Ĭ": 2059, "æ¨ª": 2060, "æ¬": 2061, "æ¬¡": 2062, "æ¬¢": 2063, "æ¬¢è¿İ": 2064, "æ¬¢è¿İæĶ¶èĹı": 2065, "æ¬¢è¿İæĶ¶èĹıè®¢éĺħ": 2066, "æ¬£": 2067, "æ¬£èĵĿ": 2068, "æ¬²": 2069, "æ®": 2070, "æ®µ": 2071, "æ®µæĹ¶éĹ´": 2072, "æ®¿": 2073, "æ®¿ä¸»": 2074, "æ®Ĭ": 2075, "æ®ĭ": 2076, "æ®ĭå½±": 2077, "æ¯": 2078, "æ¯«": 2079, "æ¯«ä¸į": 2080, "æ¯«æĹł": 2081, "æ¯ģ": 2082, "æ¯ģçģŃ": 2083, "æ¯ı": 2084, "æ¯ıä¸Ģæ¬¡": 2085, "æ¯Ĵ": 2086, "æ¯Ĵå®Ĺ": 2087, "æ¯Ķ": 2088, "æ¯Ķä¸įä¸Ĭ": 2089, "æ¯Ķè¯ķ": 2090, "æ¯Ķèµ·": 2091, "æ¯ķ": 2092, "æ¯ķç«Ł": 2093, "æ¯Ľ": 2094, "æ°": 2095, "æ°´": 2096, "æ°¸": 2097, "æ°Ķ": 2098, "æ°Ķå¡Ķ": 2099, "æ°ĶåĬ¿": 2100, "æ°Ķæ°Ľ": 2101, "æ°Ķæģ¯": 2102, "æ°ĶæĹĭ": 2103, "æ°ĶçļĦ": 2104, "æ°Ľ": 2105, "æ±": 2106, "æ±Ĥ": 2107, "æ±ĩ": 2108, "æ±ĩèģļ": 2109, "æ±ī": 2110, "æ±Ĺ": 2111, "æ±ł": 2112, "æ²": 2113, "æ²¡": 2114, "æ²¡äºĭ": 2115, "æ²¡ä»Ģä¹Ī": 2116, "æ²¡æĥ³åĪ°": 2117, "æ²¡æľī": 2118, "æ²¡æľīä¸Ŀæ¯«": 2119, "æ²¡æľīä¸Ŀæ¯«çļĦ": 2120, "æ²¡æľīäºĨ": 2121, "æ²¡æľīä»Ģä¹Ī": 2122, "æ²¡æľīåįĬçĤ¹": 2123, "æ²«": 2124, "æ²³": 2125, "æ²¹": 2126, "æ²¾": 2127, "æ²¿": 2128, "æ²Īäºĳ": 2129, "æ²ī": 2130, "æ²īå£°éģĵ": 2131, "æ²īåĲŁ": 2132, "æ²īåĲŁéģĵ": 2133, "æ²īé»ĺ": 2134, "æ²Ļ": 2135, "æ²Ļæ¼ł": 2136, "æ³": 2137, "æ³¢": 2138, "æ³¢ä¸ľ": 2139, "æ³¢åĬ¨": 2140, "æ³¨": 2141, "æ³¨æĦı": 2142, "æ³¨è§Ĩä¸ĭ": 2143, "æ³½": 2144, "æ³ī": 2145, "æ³ķ": 2146, "æ³ķçĬ¸": 2147, "æ³Ľ": 2148, "æ³ĽçĿĢ": 2149, "æ³Ľèµ·": 2150, "æ´": 2151, "æ´ª": 2152, "æ´»": 2153, "æ´¾": 2154, "æ´Ĵ": 2155, "æ´Ĺ": 2156, "æ´ŀ": 2157, "æµ": 2158, "æµ©": 2159, "æµ©çĢļ": 2160, "æµª": 2161, "æµ®": 2162, "æµ®çİ°": 2163, "æµ®çİ°ä¸ĢæĬ¹": 2164, "æµ®çİ°èĢĮåĩº": 2165, "æµ·": 2166, "æµ·æ³¢ä¸ľ": 2167, "æµģ": 2168, "æµħ": 2169, "æµĨ": 2170, "æµĭ": 2171, "æµĳ": 2172, "æµĳèº«": 2173, "æµĵ": 2174, "æµĵéĥģ": 2175, "æ¶": 2176, "æ¶¦": 2177, "æ¶§": 2178, "æ¶¨": 2179, "æ¶©": 2180, "æ¶²": 2181, "æ¶²ä½ĵ": 2182, "æ¶Ī": 2183, "æ¶Īå¤±": 2184, "æ¶Īå¤±åľ¨": 2185, "æ¶Īæģ¯": 2186, "æ¶Īæķ£": 2187, "æ¶ĪçĤİ": 2188, "æ¶ĪèĢĹ": 2189, "æ¶Į": 2190, "æ¶Įä¸Ĭ": 2191, "æ¶Įä¸Ĭä¸ĢæĬ¹": 2192, "æ¶Įåĩº": 2193, "æ¶ĮåĬ¨": 2194, "æ¶Įçİ°": 2195, "æ¶İ": 2196, "æ¶Łæ¼ª": 2197, "æ·": 2198, "æ·¡": 2199, "æ·¡æ·¡": 2200, "æ·¡æ·¡ä¸Ģç¬ĳ": 2201, "æ·¡æ·¡çļĦ": 2202, "æ·¡æ·¡çļĦéģĵ": 2203, "æ·¡æ¼ł": 2204, "æ·¬": 2205, "æ·±": 2206, "æ·±å¤Ħ": 2207, "æ·±åĲ¸": 2208, "æ·±åĲ¸äºĨä¸Ģåı£æ°Ķ": 2209, "æ·±æ·±": 2210, "æ··": 2211, "æ··ä¹±": 2212, "æ··èĽĭ": 2213, "æ·Į": 2214, "æ¸": 2215, "æ¸©": 2216, "æ¸©åº¦": 2217, "æ¸¸": 2218, "æ¸ħ": 2219, "æ¸ħåĦ¿": 2220, "æ¸ħæ¥ļ": 2221, "æ¸ħæĻ°": 2222, "æ¸ħèĦĨ": 2223, "æ¸Ĳ": 2224, "æ¸Ĺ": 2225, "æ¸ĹéĢı": 2226, "æ¹": 2227, "æ¹®": 2228, "æ¹ĸ": 2229, "æº": 2230, "æº¢": 2231, "æºĥ": 2232, "æºĲ": 2233, "æºĲæºĲ": 2234, "æºĲæºĲä¸įæĸŃçļĦ": 2235, "æ»": 2236, "æ»¡": 2237, "æ»¡æĦı": 2238, "æ»¡èĦ¸": 2239, "æ»´": 2240, "æ»ĳ": 2241, "æ»ļ": 2242, "æ»ŀ": 2243, "æ¼": 2244, "æ¼ª": 2245, "æ¼«": 2246, "æ¼Ĥ": 2247, "æ¼Ĩé»ĳ": 2248, "æ¼Ĩé»ĳçļĦ": 2249, "æ¼ł": 2250, "æ½": 2251, "æ½®": 2252, "æ½ĩ": 2253, "æ½ľ": 2254, "æ½Ń": 2255, "æ¾": 2256, "æ¿Ģ": 2257, "æ¿ĢåĬ¨": 2258, "æĢ": 2259, "æĢ¥": 2260, "æĢ¥å¿Ļ": 2261, "æĢ¥éĢŁ": 2262, "æĢ§": 2263, "æĢ¨": 2264, "æĢª": 2265, "æĢ»": 2266, "æĢ»æĺ¯": 2267, "æĢĢ": 2268, "æĢĢä¸Ń": 2269, "æĢģ": 2270, "æĢİ": 2271, "æĢİä¹Ī": 2272, "æĢİä¹Īåı¯èĥ½": 2273, "æĢİæł·": 2274, "æĢĴ": 2275, "æĢĶ": 2276, "æĢķ": 2277, "æĢķæĺ¯": 2278, "æĢĸ": 2279, "æĢĿ": 2280, "æģ": 2281, "æģ¢å¤į": 2282, "æģ¨": 2283, "æģ©": 2284, "æģ¯": 2285, "æģ¶": 2286, "æģį": 2287, "æģĲ": 2288, "æģĲæĢķ": 2289, "æģĲæĢĸ": 2290, "æģĲæĢĸçļĦ": 2291, "æģĲæĥ§": 2292, "æģŃ": 2293, "æģŃæķ¬": 2294, "æĤ": 2295, "æĤ¨": 2296, "æĤ¬": 2297, "æĤ¬æµ®": 2298, "æĤ¬æµ®åľ¨": 2299, "æĤĦ": 2300, "æĤĦæĤĦ": 2301, "æĤĦçĦ¶": 2302, "æĤī": 2303, "æĤį": 2304, "æĤł": 2305, "æĥ": 2306, "æĥ§": 2307, "æĥ¨": 2308, "æĥ®": 2309, "æĥ³": 2310, "æĥ³å¿ħ": 2311, "æĥ³åĪ°": 2312, "æĥ³è¦ģ": 2313, "æĥ³è±¡": 2314, "æĥ³èµ·": 2315, "æĥ¹": 2316, "æĥħ": 2317, "æĥħåĨµ": 2318, "æĥħç»ª": 2319, "æĥĬ": 2320, "æĥĬå¤©": 2321, "æĥĬå¼Ĥ": 2322, "æĥĬåı¹": 2323, "æĥĬåĸľ": 2324, "æĥĬæĦķ": 2325, "æĥĬè®¶": 2326, "æĥĬéªĩ": 2327, "æĥĳ": 2328, "æĥľ": 2329, "æĦ": 2330, "æĦ£": 2331, "æĦ¤": 2332, "æĦ¤æĢĴ": 2333, "æĦ¿": 2334, "æĦı": 2335, "æĦıå¤ĸ": 2336, "æĦķ": 2337, "æĦķçĦ¶": 2338, "æĦŁ": 2339, "æĦŁåºĶ": 2340, "æĦŁåºĶåĪ°": 2341, "æĦŁåĪ°": 2342, "æĦŁåıĹ": 2343, "æĦŁåıĹåĪ°": 2344, "æĦŁåıĹçĿĢ": 2345, "æĦŁçŁ¥": 2346, "æĦŁè§ī": 2347, "æĦŁè§īåĪ°": 2348, "æħ": 2349, "æħ¢": 2350, "æħ°": 2351, "æħĮ": 2352, "æħİ": 2353, "æħĳ": 2354, "æħķ": 2355, "æħķåħ°": 2356, "æħķéª¨": 2357, "æħķéª¨èĢģäºº": 2358, "æĩ": 2359, "æĩĴ": 2360, "æĪ": 2361, "æĪª": 2362, "æĪ¿": 2363, "æĪ¿éĹ¨": 2364, "æĪ¿éĹ´": 2365, "æĪı": 2366, "æĪĲ": 2367, "æĪĲä¸º": 2368, "æĪĲäºĨ": 2369, "æĪĲå½¢": 2370, "æĪĲåĬŁ": 2371, "æĪĳ": 2372, "æĪĳä¹Ł": 2373, "æĪĳä»¬": 2374, "æĪĳä¼ļ": 2375, "æĪĳæĥ³": 2376, "æĪĳæīĢ": 2377, "æĪĳæĿ¥": 2378, "æĪĳçļĦ": 2379, "æĪĴ": 2380, "æĪĴæĮĩ": 2381, "æĪĸ": 2382, "æĪĸè®¸": 2383, "æĪĸèĢħ": 2384, "æĪĺ": 2385, "æĪĺæĸĹ": 2386, "æī": 2387, "æī§": 2388, "æī©": 2389, "æī©æķ£": 2390, "æī©æķ£èĢĮåĩº": 2391, "æī«": 2392, "æī«äºĨ": 2393, "æī«äºĨæī«": 2394, "æī«è¿ĩ": 2395, "æī¬": 2396, "æī¯": 2397, "æī°": 2398, "æī¹": 2399, "æī¾": 2400, "æī¿": 2401, "æīĢ": 2402, "æīĢä»¥": 2403, "æīĢåľ¨": 2404, "æīĢæľī": 2405, "æīĢæľīäºº": 2406, "æīĢæľīäººéĥ½æĺ¯": 2407, "æīĢè¯´": 2408, "æīĢè°ĵ": 2409, "æīĢè°ĵçļĦ": 2410, "æīĢèķ´åĲ«": 2411, "æīĢéľĢè¦ģ": 2412, "æīĩ": 2413, "æīĭ": 2414, "æīĭä¸Ń": 2415, "æīĭä¸ŃçļĦ": 2416, "æīĭåį°": 2417, "æīĭæ®µ": 2418, "æīĭæĮĩ": 2419, "æīĭæİĮ": 2420, "æīĭæİĮä¸Ģ": 2421, "æīĭæİĮä¸ĢæĮ¥": 2422, "æīĭèĩĤ": 2423, "æīį": 2424, "æīįæĺ¯": 2425, "æīįèĥ½": 2426, "æīİ": 2427, "æīĳ": 2428, "æīĵ": 2429, "æīĵç®Ĺ": 2430, "æīĵçł´": 2431, "æīĵè´¥": 2432, "æīĺ": 2433, "æīŃ": 2434, "æīŃæĽ²": 2435, "æĬ": 2436, "æĬ¢": 2437, "æĬ¤": 2438, "æĬ¤æ³ķ": 2439, "æĬ¥": 2440, "æĬ¬": 2441, "æĬ¬å¤´": 2442, "æĬ¬èµ·": 2443, "æĬ¬èµ·å¤´": 2444, "æĬ¬èµ·å¤´æĿ¥": 2445, "æĬ±": 2446, "æĬ±æŃī": 2447, "æĬ±çĿĢ": 2448, "æĬµ": 2449, "æĬµå¾¡": 2450, "æĬµè¾¾": 2451, "æĬ¹": 2452, "æĬ½": 2453, "æĬ½æĲĲ": 2454, "æĬ¿": 2455, "æĬĢ": 2456, "æĬĬ": 2457, "æĬĳ": 2458, "æĬĵ": 2459, "æĬĵä½ı": 2460, "æĬķ": 2461, "æĬķåĲĳ": 2462, "æĬĸ": 2463, "æĬĹ": 2464, "æĬĹè¡¡": 2465, "æĬĺ": 2466, "æĬļ": 2467, "æĬĽ": 2468, "æĭ": 2469, "æĭ¢": 2470, "æĭ¥": 2471, "æĭ¥æľī": 2472, "æĭ¥æľīçĿĢ": 2473, "æĭ¦": 2474, "æĭ±": 2475, "æĭ±æīĭ": 2476, "æĭ³": 2477, "æĭ³å¤´": 2478, "æĭ¼": 2479, "æĭ¼åĳ½": 2480, "æĭ¾": 2481, "æĭ¿": 2482, "æĭħ": 2483, "æĭħå¿ĥ": 2484, "æĭī": 2485, "æĭį": 2486, "æĭįäºĨæĭį": 2487, "æĭįåįĸ": 2488, "æĭįåįĸä¼ļ": 2489, "æĭįåįĸåľº": 2490, "æĭĴ": 2491, "æĭĶ": 2492, "æĭĸ": 2493, "æĭĽ": 2494, "æĮ": 2495, "æĮ¡": 2496, "æĮ£æīİ": 2497, "æĮ¤": 2498, "æĮ¥": 2499, "æĮ¥äºĨæĮ¥æīĭ": 2500, "æĮ¥æīĭ": 2501, "æĮ¯": 2502, "æĮº": 2503, "æĮģ": 2504, "æĮģç»Ń": 2505, "æĮģç»ŃäºĨ": 2506, "æĮĤ": 2507, "æĮĩ": 2508, "æĮĩå°ĸ": 2509, "æĮī": 2510, "æĮīçħ§": 2511, "æĮĳ": 2512, "æį": 2513, "æį¢": 2514, "æį®": 2515, "æį®è¯´": 2516, "æįı": 2517, "æįķ": 2518, "æįŁ": 2519, "æİ": 2520, "æİ¢": 2521, "æİ¥": 2522, "æİ¥ä¸ĭæĿ¥": 2523, "æİ¥çĿĢ": 2524, "æİ¥è§¦": 2525, "æİ¥è¿ĩ": 2526, "æİ¥è¿ĳ": 2527, "æİ§": 2528, "æİ§åĪ¶": 2529, "æİ¨": 2530, "æİ¨èį": 2531, "æİ¨èįĲä¸Ģæľ¬": 2532, "æİ©": 2533, "æİ©é¥°": 2534, "æİĢ": 2535, "æİī": 2536, "æİĮ": 2537, "æİĮå¿ĥ": 2538, "æİĮå¿ĥä¸Ń": 2539, "æİĴ": 2540, "æİĴåĲį": 2541, "æİł": 2542, "æİłè¿ĩ": 2543, "æİłè¿ĩä¸ĢæĬ¹": 2544, "æı": 2545, "æı¡": 2546, "æı¡çĿĢ": 2547, "æıī": 2548, "æıĲ": 2549, "æıĲåįĩ": 2550, "æıĲçĤ¼": 2551, "æıĲéĨĴ": 2552, "æıĴ": 2553, "æĲ": 2554, "æĲº": 2555, "æĲĲ": 2556, "æĲľ": 2557, "æĲŀ": 2558, "æĳ": 2559, "æĳ§": 2560, "æĳ¸": 2561, "æĳĨ": 2562, "æĳĩ": 2563, "æĳĩäºĨæĳĩå¤´": 2564, "æĳĩå¤´": 2565, "æĳĬ": 2566, "æĳĬæīĭ": 2567, "æĳĺæĺŁèĢģé¬¼": 2568, "æĴ": 2569, "æĴ¤": 2570, "æĴ¼": 2571, "æĴĩ": 2572, "æĴĩåĺ´": 2573, "æĴĳ": 2574, "æĴķ": 2575, "æĴķè£Ĥ": 2576, "æĴŀ": 2577, "æĵ": 2578, "æĵį": 2579, "æĵİ": 2580, "æĵĴ": 2581, "æĶ": 2582, "æĶ¯": 2583, "æĶ¶": 2584, "æĶ¶åħ¥": 2585, "æĶ¶åĽŀ": 2586, "æĶ¶æĭ¾": 2587, "æĶ¶æķĽ": 2588, "æĶ¶èĹı": 2589, "æĶ¹": 2590, "æĶ»": 2591, "æĶ»åĩ»": 2592, "æĶ»åĬ¿": 2593, "æĶ¾": 2594, "æĶ¾å¼ĥ": 2595, "æĶ¾å¿ĥ": 2596, "æĶ¾åľ¨": 2597, "æķ": 2598, "æķ¢": 2599, "æķ£": 2600, "æķ£åıĳ": 2601, "æķ£åıĳçĿĢ": 2602, "æķ¬": 2603, "æķ°": 2604, "æķ°éĩı": 2605, "æķ´": 2606, "æķ´ä¸ª": 2607, "æķħ": 2608, "æķĪ": 2609, "æķĪæŀľ": 2610, "æķĮ": 2611, "æķı": 2612, "æķĳ": 2613, "æķĻ": 2614, "æķĽ": 2615, "æķŀ": 2616, "æĸ": 2617, "æĸ¥": 2618, "æĸ°": 2619, "æĸ°çĶŁ": 2620, "æĸ¹": 2621, "æĸ¹åĲĳ": 2622, "æĸ¹æīį": 2623, "æĸ¹æīįèĥ½å¤Ł": 2624, "æĸ½": 2625, "æĸ½å±ķ": 2626, "æĸĩ": 2627, "æĸĳ": 2628, "æĸĹ": 2629, "æĸĹä¹ĭæ°Ķ": 2630, "æĸĹå®Ĺ": 2631, "æĸĹå®Ĺå¼ºèĢħ": 2632, "æĸĹå°Ĭ": 2633, "æĸĹå°Ĭå¼ºèĢħ": 2634, "æĸĹå¸Ī": 2635, "æĸĹå¸Ŀ": 2636, "æĸĹåľ£": 2637, "æĸĹåľ£å¼ºèĢħ": 2638, "æĸĹæ°Ķ": 2639, "æĸĹæ°Ķå¤§éĻĨ": 2640, "æĸĹæĬĢ": 2641, "æĸĹçģµ": 2642, "æĸĹçİĭ": 2643, "æĸĹçİĭå¼ºèĢħ": 2644, "æĸĹçļĩ": 2645, "æĸĹçļĩå¼ºèĢħ": 2646, "æĸĹçł´": 2647, "æĸĹèĢħ": 2648, "æĸĻ": 2649, "æĸĻåĪ°": 2650, "æĸľ": 2651, "æĸŃ": 2652, "æĹ": 2653, "æĹ¢": 2654, "æĹ¢çĦ¶": 2655, "æĹ¢çĦ¶å¦ĤæŃ¤": 2656, "æĹ¥": 2657, "æĹ¥åħī": 2658, "æĹ¥åĲİ": 2659, "æĹ¦": 2660, "æĹ§": 2661, "æĹ©": 2662, "æĹ©å°±": 2663, "æĹ¶": 2664, "æĹ¶åĢĻ": 2665, "æĹ¶åĪ»": 2666, "æĹ¶éĹ´": 2667, "æĹģ": 2668, "æĹĭ": 2669, "æĹĭåį³": 2670, "æĹĭåį³ä¸Ģéģĵ": 2671, "æĹĭè½¬": 2672, "æĹı": 2673, "æĹıä¸Ń": 2674, "æĹıäºº": 2675, "æĹıéķ¿": 2676, "æĹł": 2677, "æĹłäºº": 2678, "æĹłå£°": 2679, "æĹłå¥Ī": 2680, "æĹłå¥ĪçļĦæĳĩäºĨæĳĩå¤´": 2681, "æĹłå°½": 2682, "æĹłå½¢": 2683, "æĹłå½¢çģ«çĦ°": 2684, "æĹłæ¯Ķ": 2685, "æĹłæ³ķ": 2686, "æĹłæķ°": 2687, "æĹłæķ°äºº": 2688, "æĹłæķ°éģĵ": 2689, "æĹłæķ°éģĵçĽ®åħī": 2690, "æĹłçĸĳ": 2691, "æĹłçĸĳæĺ¯": 2692, "æĺ": 2693, "æĺ¯": 2694, "æĺ¯ä¸Ģ": 2695, "æĺ¯ä¸ĢåĲį": 2696, "æĺ¯ä¸Ģç§į": 2697, "æĺ¯åĲ¦": 2698, "æĺ¯åĽłä¸º": 2699, "æĺ¯åľ¨": 2700, "æĺ¾": 2701, "æĺ¾å¾Ĺ": 2702, "æĺ¾çĦ¶": 2703, "æĺ¾çĦ¶æĺ¯": 2704, "æĺĬ": 2705, "æĺİ": 2706, "æĺİæĺ¾": 2707, "æĺİæĺ¾æĺ¯": 2708, "æĺİçĻ½": 2709, "æĺı": 2710, "æĺĵ": 2711, "æĺŁ": 2712, "æĺŁæĸĹ": 2713, "æĺŁæĸĹå®Ĺ": 2714, "æĺŁæĸĹå°Ĭ": 2715, "æĺŁæĸĹåľ£": 2716, "æĺŁéĻ¨": 2717, "æĺŁéĻ¨éĺģ": 2718, "æĻ": 2719, "æĻ¨": 2720, "æĻ®": 2721, "æĻ®éĢļ": 2722, "æĻ¯": 2723, "æĻ°": 2724, "æĻ¶": 2725, "æĻº": 2726, "æĻĥ": 2727, "æĻĭ": 2728, "æĻĭåħ¥": 2729, "æĻĮ": 2730, "æĻļ": 2731, "æļ": 2732, "æļ´": 2733, "æļ´å°Ħ": 2734, "æļ´å°ĦèĢĮåĩº": 2735, "æļ´æ¶¨": 2736, "æļ´æ¶Į": 2737, "æļ´æ¶ĮèĢĮåĩº": 2738, "æļ´æİł": 2739, "æļ´æİłèĢĮåİ»": 2740, "æļ´éĢĢ": 2741, "æļĤ": 2742, "æļĤæĹ¶": 2743, "æļĸ": 2744, "æļĹ": 2745, "æļĹä¸Ń": 2746, "æĽ": 2747, "æĽ²": 2748, "æĽ´": 2749, "æĽ´åĬł": 2750, "æĽ´æĸ°": 2751, "æĽ´æĺ¯": 2752, "æĽ¹": 2753, "æĽ¹é¢ĸ": 2754, "æĽ¾": 2755, "æĽ¾ç»ı": 2756, "æĽ¿": 2757, "æľ": 2758, "æľ¨": 2759, "æľª": 2760, "æľªæĽ¾": 2761, "æľ«": 2762, "æľ¬": 2763, "æľ¬äºĭ": 2764, "æľ¬ä½ĵ": 2765, "æľ¬å°±": 2766, "æľ¬æºĲ": 2767, "æľ¬æĿ¥": 2768, "æľ¬èº«": 2769, "æľ¯": 2770, "æľµ": 2771, "æľº": 2772, "æľºä¼ļ": 2773, "æľĢ": 2774, "æľĢä¸º": 2775, "æľĢå¥½": 2776, "æľĢåĲİ": 2777, "æľĢåĲİä¸Ģ": 2778, "æľĢåĲİåľ¨": 2779, "æľĢåĲİçļĦ": 2780, "æľĢè¿ĳ": 2781, "æľĪ": 2782, "æľĪåªļ": 2783, "æľĪç¥¨": 2784, "æľī": 2785, "æľīä¸Ŀæ¯«": 2786, "æľīäºº": 2787, "æľīäºĨ": 2788, "æľīäºĽ": 2789, "æľīäºĽä¸į": 2790, "æľīä»Ģä¹Ī": 2791, "æľīæīĢ": 2792, "æľīç§į": 2793, "æľīçĤ¹": 2794, "æľīçĿĢ": 2795, "æľīçĿĢä¸Ģ": 2796, "æľīçĿĢä¸ĢäºĽ": 2797, "æľīçĿĢä¸įå°ĳ": 2798, "æľīè¿ĩ": 2799, "æľĭ": 2800, "æľĭåıĭ": 2801, "æľĭåıĭåı¯ä»¥": 2802, "æľį": 2803, "æľĹ": 2804, "æľĽ": 2805, "æľĽåİ»": 2806, "æľĽåĲĳ": 2807, "æľĽçĿĢ": 2808, "æľĽçĿĢèĲ§çĤİ": 2809, "æľĽçĿĢéĤ£": 2810, "æľĿ": 2811, "æľŁ": 2812, "æĿ": 2813, "æĿ¡": 2814, "æĿ¡ä»¶": 2815, "æĿ¥": 2816, "æĿ¥äºĨ": 2817, "æĿ¥åĪ°": 2818, "æĿ¥çļĦ": 2819, "æĿ¥çľĭ": 2820, "æĿ¥è¯´": 2821, "æĿ¯": 2822, "æĿ¾": 2823, "æĿ¾äºĨä¸Ģåı£æ°Ķ": 2824, "æĿ¿": 2825, "æĿĢ": 2826, "æĿĢäºĨ": 2827, "æĿĢæĦı": 2828, "æĿĤ": 2829, "æĿĤçĿĢ": 2830, "æĿĥ": 2831, "æĿĲ": 2832, "æĿĲæĸĻ": 2833, "æĿľ": 2834, "æĿľèİİ": 2835, "æĿŁ": 2836, "æŀ": 2837, "æŀª": 2838, "æŀ«": 2839, "æŀ¯": 2840, "æŀģ": 2841, "æŀģä¸º": 2842, "æŀģä¸ºçļĦ": 2843, "æŀģåº¦": 2844, "æŀģå¼º": 2845, "æŀģåħ¶": 2846, "æŀģç«¯": 2847, "æŀĹ": 2848, "æŀĹä¿®å´ĸ": 2849, "æŀĹçĦ±": 2850, "æŀļ": 2851, "æŀľ": 2852, "æŀľçĦ¶": 2853, "æŀľçĦ¶æĺ¯": 2854, "æŀŃ": 2855, "æŁ": 2856, "æŁ¥": 2857, "æŁ±": 2858, "æŁ³": 2859, "æŁ³æĵİ": 2860, "æŁ³ç¿İ": 2861, "æŁ³çľī": 2862, "æŁĦ": 2863, "æŁĲ": 2864, "æŁĵ": 2865, "æŁĶ": 2866, "æŁĶåĴĮ": 2867, "æł": 2868, "æłª": 2869, "æł·": 2870, "æł¸": 2871, "æł¹": 2872, "æł¹æľ¬": 2873, "æł¼": 2874, "æł¼å¤ĸ": 2875, "æłĩ": 2876, "æłĳ": 2877, "æŃ": 2878, "æŃ¢": 2879, "æŃ£": 2880, "æŃ£å¥½": 2881, "æŃ£å¸¸": 2882, "æŃ£åľ¨": 2883, "æŃ£æĺ¯": 2884, "æŃ¤": 2885, "æŃ¤äºº": 2886, "æŃ¤äºĭ": 2887, "æŃ¤å¤Ħ": 2888, "æŃ¤åĪ»": 2889, "æŃ¤åĪ»çļĦ": 2890, "æŃ¤æ¬¡": 2891, "æŃ¤æĹ¶": 2892, "æŃ¤è¯Ŀ": 2893, "æŃ¥": 2894, "æŃ¦": 2895, "æŃ¦åĻ¨": 2896, "æŃ»": 2897, "æŃ»äº¡": 2898, "æŃ»æŃ»": 2899, "æŃ»æŃ»çļĦçĽ¯çĿĢ": 2900, "æŃ»çļĦ": 2901, "æŃī": 2902, "ç": 2903, "ç¡": 2904, "ç¡¬": 2905, "ç¡®": 2906, "ç¡ķ": 2907, "ç¢": 2908, "ç¢§ç»¿": 2909, "ç¢§ç»¿çģ«çĦ°": 2910, "ç¢°": 2911, "ç¢°æĴŀ": 2912, "ç¢į": 2913, "ç¢İ": 2914, "ç¢ĳ": 2915, "ç£": 2916, "ç£¨": 2917, "ç£ħç¤´": 2918, "ç£ĲéĹ¨": 2919, "ç¤": 2920, "ç¤´": 2921, "ç¤¼": 2922, "ç¥": 2923, "ç¥¨": 2924, "ç¥¸": 2925, "ç¥ĸ": 2926, "ç¥ŀ": 2927, "ç¥ŀç§ĺ": 2928, "ç¦": 2929, "ç¦»": 2930, "ç¦»å¼Ģ": 2931, "ç¦»åİ»": 2932, "ç§": 2933, "ç§¯": 2934, "ç§°": 2935, "ç§°ä¸º": 2936, "ç§»": 2937, "ç§»åĬ¨": 2938, "ç§Ģ": 2939, "ç§ģ": 2940, "ç§į": 2941, "ç§įæĹı": 2942, "ç§įç§į": 2943, "ç§ĺ": 2944, "ç§ĺæ³ķ": 2945, "ç¨": 2946, "ç¨³": 2947, "ç¨³å®ļ": 2948, "ç¨³å®ļæĽ´æĸ°": 2949, "ç¨Ģ": 2950, "ç¨ĭ": 2951, "ç¨ĭåº¦": 2952, "ç¨į": 2953, "ç©": 2954, "ç©¶": 2955, "ç©¶ç«Ł": 2956, "ç©¶ç«Łæĺ¯": 2957, "ç©º": 2958, "ç©ºæ°Ķ": 2959, "ç©ºéĹ´": 2960, "ç©¿": 2961, "ç©¿æ¢Ń": 2962, "ç©Ĩ": 2963, "ç©ĨèĽĩ": 2964, "çª": 2965, "çªģ": 2966, "çªģå¦Ĥåħ¶": 2967, "çªģå¦Ĥåħ¶æĿ¥çļĦ": 2968, "çªģåħĢ": 2969, "çªģçĦ¶": 2970, "çªģçĦ¶éĹ´": 2971, "çªģçł´": 2972, "çªĥ": 2973, "çªľ": 2974, "ç«": 2975, "ç«¯": 2976, "ç«ĭ": 2977, "ç«ĭåĪ»": 2978, "ç«ĭåľ¨": 2979, "ç«ĸ": 2980, "ç«Ļ": 2981, "ç«Ļåľ¨": 2982, "ç«Ļèµ·èº«": 2983, "ç«Ļèµ·èº«æĿ¥": 2984, "ç«ŀ": 2985, "ç«Ł": 2986, "ç«ŁçĦ¶": 2987, "ç«ŁçĦ¶æĺ¯": 2988, "ç«ł": 2989, "ç«Ń": 2990, "ç¬": 2991, "ç¬¦": 2992, "ç¬¬": 2993, "ç¬¬ä¸Ģ": 2994, "ç¬¬ä¸Ģåįĥ": 2995, "ç¬¬ä¸Ģæ¬¡": 2996, "ç¬¬ä¸ĥ": 2997, "ç¬¬ä¸ī": 2998, "ç¬¬äºĮ": 2999, "ç¬¬äºĶçĻ¾": 3000, "ç¬¬åħŃ": 3001, "ç¬¬åħŃçĻ¾": 3002, "ç¬¼": 3003, "ç¬¼ç½©": 3004, "ç¬ĳ": 3005, "ç¬ĳäºĨ": 3006, "ç¬ĳäºĨä¸Ģå£°": 3007, "ç¬ĳäºĨç¬ĳ": 3008, "ç¬ĳå£°": 3009, "ç¬ĳå®¹": 3010, "ç¬ĳåĲŁåĲŁ": 3011, "ç¬ĳæĦı": 3012, "ç¬ĳçľ¯çľ¯": 3013, "ç¬ĳçĿĢ": 3014, "ç¬ĳçĿĢæĳĩäºĨæĳĩå¤´": 3015, "ç¬ĳçĿĢçĤ¹äºĨçĤ¹å¤´": 3016, "ç¬ĳçĿĢéģĵ": 3017, "ç¬ĳéģĵ": 3018, "ç¬Ķ": 3019, "ç®": 3020, "ç®¡": 3021, "ç®Ģ": 3022, "ç®Ģåįķ": 3023, "ç®ĢçĽ´": 3024, "ç®Ĺ": 3025, "ç®Ĺæĺ¯": 3026, "ç®Ń": 3027, "ç¯": 3028, "ç¯·": 3029, "ç°": 3030, "ç°ĩ": 3031, "ç±": 3032, "ç±³": 3033, "ç±³çī¹å°Ķ": 3034, "ç±³çī¹å°Ķå®¶æĹı": 3035, "ç±»": 3036, "ç±»ä¼¼": 3037, "ç²": 3038, "ç²¾": 3039, "ç²¾ç¥ŀ": 3040, "ç²ī": 3041, "ç²īæľ«": 3042, "ç²Ĺ": 3043, "ç²ĺ": 3044, "ç³": 3045, "ç³»": 3046, "ç³Ĭ": 3047, "ç´": 3048, "ç´¢": 3049, "ç´§": 3050, "ç´§æİ¥çĿĢ": 3051, "ç´§æı¡": 3052, "ç´§ç´§": 3053, "ç´§ç´§çļĦçĽ¯çĿĢ": 3054, "ç´§ç»·": 3055, "ç´§çļ±": 3056, "ç´§éĹŃ": 3057, "ç´«": 3058, "ç´«æĻ¶": 3059, "ç´«çģ«": 3060, "ç´«çłĶ": 3061, "ç´«èī²": 3062, "ç´¯": 3063, "ç´ł": 3064, "çº": 3065, "çº¢": 3066, "çº¢åĶĩ": 3067, "çº¢æ¶¦": 3068, "çº¢çļĦ": 3069, "çº¢èī²": 3070, "çº¤": 3071, "çº¤æīĭ": 3072, "çº¦": 3073, "çº¦èİ«": 3074, "çº§": 3075, "çº§åĪ«": 3076, "çº¯": 3077, "çº³": 3078, "çº³åħ°": 3079, "çº³åħ°å«£çĦ¶": 3080, "çº³åħ°æ¡Ģ": 3081, "çº³æĪĴ": 3082, "çº³æĪĴä¸Ń": 3083, "çº¹": 3084, "çº¿": 3085, "çºł": 3086, "çºłç¼ł": 3087, "ç»": 3088, "ç»§": 3089, "ç»§ç»Ń": 3090, "ç»ª": 3091, "ç»µ": 3092, "ç»·": 3093, "ç»¿": 3094, "ç»¿èī²": 3095, "ç»ĥ": 3096, "ç»Ħ": 3097, "ç»Ĩ": 3098, "ç»Ĩå°ı": 3099, "ç»Ĩå¾®": 3100, "ç»Ĩå¾®çļĦ": 3101, "ç»Ī": 3102, "ç»Īäºİ": 3103, "ç»Īäºİæĺ¯": 3104, "ç»ı": 3105, "ç»ıåİĨ": 3106, "ç»ıè¿ĩ": 3107, "ç»ıèĦī": 3108, "ç»ıéªĮ": 3109, "ç»ĵ": 3110, "ç»ĵæĿŁ": 3111, "ç»ĵæŀľ": 3112, "ç»ķ": 3113, "ç»Ļ": 3114, "ç»ĻäºĪ": 3115, "ç»Ļä½ł": 3116, "ç»ĻæĪĳ": 3117, "ç»Ŀ": 3118, "ç»Ŀå¯¹": 3119, "ç»Ł": 3120, "ç»Łé¢Ĩ": 3121, "ç»Ń": 3122, "ç¼": 3123, "ç¼©": 3124, "ç¼º": 3125, "ç¼ĵ": 3126, "ç¼ĵæŃ¥": 3127, "ç¼ĵç¼ĵ": 3128, "ç¼ĵç¼ĵçļĦ": 3129, "ç¼ĵç¼ĵçļĦéģĵ": 3130, "ç¼ķ": 3131, "ç¼ĺ": 3132, "ç¼ĺæķħ": 3133, "ç¼Ŀ": 3134, "ç¼ł": 3135, "ç¼Ń": 3136, "ç¼Ńç»ķ": 3137, "ç½": 3138, "ç½¢": 3139, "ç½©": 3140, "ç½ª": 3141, "ç½®": 3142, "ç½®ä¿¡": 3143, "ç½ĳ": 3144, "ç½ķ": 3145, "ç½Ĺ": 3146, "ç½Ĺå¸ĥ": 3147, "ç¾": 3148, "ç¾¡": 3149, "ç¾¤": 3150, "ç¾İ": 3151, "ç¾İæĿľèİİ": 3152, "ç¾İæĿľèİİå¥³çİĭ": 3153, "ç¾İçľ¸": 3154, "ç¿": 3155, "ç¿»": 3156, "ç¿»èħ¾": 3157, "ç¿¼": 3158, "ç¿İ": 3159, "ç¿İæ³ī": 3160, "çĢ": 3161, "çĢļ": 3162, "çģ": 3163, "çģ«": 3164, "çģ«çģµ": 3165, "çģ«çĥŃ": 3166, "çģ«çĦ°": 3167, "çģ«èĥ½": 3168, "çģ«èİ²": 3169, "çģ¯": 3170, "çģ°": 3171, "çģ°çĥ¬": 3172, "çģ°è¢į": 3173, "çģ°èī²": 3174, "çģµ": 3175, "çģµä¸¹": 3176, "çģµéŃĤ": 3177, "çģµéŃĤåĬĽéĩı": 3178, "çģµéŃĤæĦŁçŁ¥": 3179, "çģ¼": 3180, "çģĮ": 3181, "çģĮæ³¨": 3182, "çģŃ": 3183, "çĤ": 3184, "çĤ¸": 3185, "çĤ¹": 3186, "çĤ¹äºĨ": 3187, "çĤ¹äºĨçĤ¹å¤´": 3188, "çĤ¹å¤´": 3189, "çĤ¼": 3190, "çĤ¼ä¸¹": 3191, "çĤ¼åĪ¶": 3192, "çĤ¼åĮĸ": 3193, "çĤ¼æ°Ķå¡Ķ": 3194, "çĤ¼èį¯": 3195, "çĤ¼èį¯å¸Ī": 3196, "çĤ¼èį¯å¸Īåħ¬ä¼ļ": 3197, "çĤ¼èį¯æľ¯": 3198, "çĤ½": 3199, "çĤ½çĥŃ": 3200, "çĤİ": 3201, "çĤİçģ«": 3202, "çĤİçĽŁ": 3203, "çĤİè°·": 3204, "çĥ": 3205, "çĥ¤": 3206, "çĥ¦": 3207, "çĥ§": 3208, "çĥ¬": 3209, "çĥģ": 3210, "çĥĪ": 3211, "çĥĽ": 3212, "çĥŁ": 3213, "çĥŃ": 3214, "çĦ": 3215, "çĦ¦": 3216, "çĦ°": 3217, "çĦ±": 3218, "çĦ¶": 3219, "çĦ¶åĲİ": 3220, "çĦ¶åĲİä¾¿æĺ¯": 3221, "çĦ¶æĺ¯": 3222, "çĦ¶èĢĮ": 3223, "çĦļ": 3224, "çĦļåĨ³": 3225, "çĦļçĤİè°·": 3226, "çħ": 3227, "çħ§": 3228, "çħŀ": 3229, "çĨ": 3230, "çĨĬ": 3231, "çĨı": 3232, "çĨŁ": 3233, "çĨŁæĤī": 3234, "çĩ": 3235, "çĩĥ": 3236, "çĪ": 3237, "çĪª": 3238, "çĪ¬": 3239, "çĪ±": 3240, "çĪ¶": 3241, "çĪ¶äº²": 3242, "çĪ·": 3243, "çĪĨ": 3244, "çĪĨåıĳ": 3245, "çĪĨåıĳåĩº": 3246, "çĪĨçĤ¸": 3247, "çĪĨè£Ĥ": 3248, "çī": 3249, "çī¢": 3250, "çī©": 3251, "çīµ": 3252, "çī¹": 3253, "çī¹å°Ķ": 3254, "çī¹åĪ«": 3255, "çī¹åĪ«æĺ¯": 3256, "çī¹æ®Ĭ": 3257, "çīĩ": 3258, "çīĩåĪ»": 3259, "çīĩåĪ»åĲİ": 3260, "çīĮ": 3261, "çīĻ": 3262, "çĬ": 3263, "çĬ¶": 3264, "çĬ¶æĢģ": 3265, "çĬ¸": 3266, "çĬ¹": 3267, "çĬ¹å¦Ĥ": 3268, "çĭ": 3269, "çĭ¬": 3270, "çĭ®": 3271, "çĭ°": 3272, "çĭ°çĭŀ": 3273, "çĭ¼": 3274, "çĭ¼çĭĪ": 3275, "çĭĤ": 3276, "çĭĤåĸľ": 3277, "çĭĤæļ´": 3278, "çĭĤé£İ": 3279, "çĭĪ": 3280, "çĭĹ": 3281, "çĭĹç¥ŀ": 3282, "çĭŀ": 3283, "çĭł": 3284, "çĭłçĭł": 3285, "çĭłçĭłä¸Ģ": 3286, "çĭłçĭłçļĦ": 3287, "çĮ": 3288, "çĮĽ": 3289, "çĮĽçĦ¶": 3290, "çĮĽçĦ¶ä¸Ģ": 3291, "çĮĽçĦ¶éĹ´": 3292, "çĮĽçļĦ": 3293, "çĮĽçļĦä¸Ģ": 3294, "çĮľ": 3295, "çİ": 3296, "çİ©": 3297, "çİ¯": 3298, "çİ°": 3299, "çİ°åľ¨": 3300, "çİ°åľ¨çļĦ": 3301, "çİ°èº«": 3302, "çİ°èĢĮåĩº": 3303, "çİĦ": 3304, "çİĦç©º": 3305, "çİĦç©ºåŃĲ": 3306, "çİĦéĩįå°º": 3307, "çİĦéĺ¶": 3308, "çİĩ": 3309, "çİĩåħĪ": 3310, "çİī": 3311, "çİīæīĭ": 3312, "çİīçĵ¶": 3313, "çİĭ": 3314, "çİĽ": 3315, "çı": 3316, "çıį": 3317, "çıł": 3318, "çĲ": 3319, "çĲ¥": 3320, "çĲ¥åĺī": 3321, "çĲ³": 3322, "çĲĥ": 3323, "çĲĨ": 3324, "çĲĨä¼ļ": 3325, "çĲīçĴĥ": 3326, "çĴ": 3327, "çĴ¨": 3328, "çĴĢçĴ¨": 3329, "çĴĥ": 3330, "çĵ": 3331, "çĵ¶": 3332, "çĶ": 3333, "çĶ¨": 3334, "çĶ©": 3335, "çĶ±": 3336, "çĶ±äºİ": 3337, "çĶ²": 3338, "çĶµ": 3339, "çĶ·": 3340, "çĶ·äºº": 3341, "çĶ·åŃĲ": 3342, "çĶĺ": 3343, "çĶļ": 3344, "çĶļèĩ³": 3345, "çĶŁ": 3346, "çĶŁçĶŁ": 3347, "çĶŁçĶŁçļĦ": 3348, "çķ": 3349, "çķ¥": 3350, "çķ¥ä½ľ": 3351, "çķ¥å¾®": 3352, "çķ¥å¾®æľīäºĽ": 3353, "çķ¥æĺ¾": 3354, "çķ¥æľīäºĽ": 3355, "çķª": 3356, "çķħ": 3357, "çķĮ": 3358, "çķı": 3359, "çķĻ": 3360, "çķĻä¸ĭ": 3361, "çĸ": 3362, "çĸ¯": 3363, "çĸ¯çĭĤ": 3364, "çĸ¯çĭĤçļĦ": 3365, "çĸ²": 3366, "çĸ¼": 3367, "çĸĳ": 3368, "çĸĳæĥĳ": 3369, "çĹ": 3370, "çĹ¨": 3371, "çĹķ": 3372, "çĹķè¿¹": 3373, "çĹĽ": 3374, "çĺ": 3375, "çĺ¦": 3376, "çĻ": 3377, "çĻ½": 3378, "çĻ½å±±": 3379, "çĻ½åıĳ": 3380, "çĻ½ç¨ĭ": 3381, "çĻ½èī²": 3382, "çĻ¾": 3383, "çļ": 3384, "çļ®": 3385, "çļ®èĤ¤": 3386, "çļ±": 3387, "çļ±äºĨ": 3388, "çļ±äºĨçļ±": 3389, "çļ±çľī": 3390, "çļĦ": 3391, "çļĦä¸¹èį¯": 3392, "çļĦä¸»": 3393, "çļĦä¸¾åĬ¨": 3394, "çļĦä¸Ģ": 3395, "çļĦä¸ĢäºĽ": 3396, "çļĦä¸Ģå£°": 3397, "çļĦä¸Ģå¤Ħ": 3398, "çļĦä¸ľè¥¿": 3399, "çļĦäºº": 3400, "çļĦäººå½±": 3401, "çļĦäºĭ": 3402, "çļĦäºĭæĥħ": 3403, "çļĦä»İ": 3404, "çļĦä»ĸ": 3405, "çļĦä¿®çĤ¼": 3406, "çļĦå£°åĵį": 3407, "çļĦå£°éŁ³": 3408, "çļĦå¤§": 3409, "çļĦå¤©": 3410, "çļĦå®¶ä¼Ļ": 3411, "çļĦå®ŀåĬĽ": 3412, "çļĦå¯¹æīĭ": 3413, "çļĦå¯¹çĿĢ": 3414, "çļĦå°Ĩ": 3415, "çļĦå°ı": 3416, "çļĦå°ĳå¹´": 3417, "çļĦå±Ĥæ¬¡": 3418, "çļĦå·¨": 3419, "çļĦå¼ºèĢħ": 3420, "çļĦå¼Ĥçģ«": 3421, "çļĦå¿ĥ": 3422, "çļĦåĨ²": 3423, "çļĦåĩºçİ°": 3424, "çļĦåĬ¿åĬĽ": 3425, "çļĦåĬĽéĩı": 3426, "çļĦåı¯æĢķ": 3427, "çļĦåıĳçİ°": 3428, "çļĦåĲį": 3429, "çļĦåľ¨": 3430, "çļĦåľ°": 3431, "çļĦåľ°æĸ¹": 3432, "çļĦåľ°æŃ¥": 3433, "çļĦåŃĺåľ¨": 3434, "çļĦæ": 3435, "çļĦæ£": 3436, "çļĦæ£®": 3437, "çļĦæ¨": 3438, "çļĦæ¨¡": 3439, "çļĦæ¨¡æł·": 3440, "çļĦæ¬": 3441, "çļĦæ¯": 3442, "çļĦæ¯Ĵ": 3443, "çļĦæ°": 3444, "çļĦæ°´": 3445, "çļĦæ°Ķ": 3446, "çļĦæ°Ķæ°Ľ": 3447, "çļĦæ°Ķæģ¯": 3448, "çļĦæ²": 3449, "çļĦæ³": 3450, "çļĦæ³¢": 3451, "çļĦæ³¢åĬ¨": 3452, "çļĦæ³¨": 3453, "çļĦæ³¨è§Ĩä¸ĭ": 3454, "çļĦæ´": 3455, "çļĦæµ": 3456, "çļĦæµ®": 3457, "çļĦæµ·": 3458, "çļĦæ¶": 3459, "çļĦæ¶Ī": 3460, "çļĦæ¶Īå¤±": 3461, "çļĦæ¶Īæģ¯": 3462, "çļĦæ¶Į": 3463, "çļĦæ·": 3464, "çļĦæ·¡": 3465, "çļĦæ·±": 3466, "çļĦæ¸": 3467, "çļĦæ¸©": 3468, "çļĦæ¸©åº¦": 3469, "çļĦæ¸ħ": 3470, "çļĦæ»": 3471, "çļĦæ¼": 3472, "çļĦæ¼Ĩé»ĳ": 3473, "çļĦæĢ": 3474, "çļĦæĢ§": 3475, "çļĦæĢĴ": 3476, "çļĦæģ": 3477, "çļĦæģĲ": 3478, "çļĦæģĲæĢĸ": 3479, "çļĦæĥ": 3480, "çļĦæĥħ": 3481, "çļĦæĥħåĨµ": 3482, "çļĦæĥĬ": 3483, "çļĦæĦ": 3484, "çļĦæĦı": 3485, "çļĦæĦıæĢĿ": 3486, "çļĦæĦıæĸĻ": 3487, "çļĦæĦŁ": 3488, "çļĦæĦŁè§ī": 3489, "çļĦæĪĲ": 3490, "çļĦæĪĺ": 3491, "çļĦæĪĺæĸĹ": 3492, "çļĦæīĭæİĮ": 3493, "çļĦæĬ": 3494, "çļĦæĭ": 3495, "çļĦæĭ³": 3496, "çļĦæĭ³å¤´": 3497, "çļĦæĭį": 3498, "çļĦæĮ": 3499, "çļĦæİ": 3500, "çļĦæİ¥": 3501, "çļĦæİ§": 3502, "çļĦæİ§åĪ¶": 3503, "çļĦæİĮ": 3504, "çļĦæİł": 3505, "çļĦæı": 3506, "çļĦæıĲ": 3507, "çļĦæĳ": 3508, "çļĦæĳĩ": 3509, "çļĦæĳĩäºĨæĳĩå¤´": 3510, "çļĦæĴ": 3511, "çļĦæĴŀ": 3512, "çļĦæĶ": 3513, "çļĦæĶ¶": 3514, "çļĦæĶ»": 3515, "çļĦæĶ»åĩ»": 3516, "çļĦæķ": 3517, "çļĦæķĪ": 3518, "çļĦæķĪæŀľ": 3519, "çļĦæĸ°": 3520, "çļĦæĸ¹": 3521, "çļĦæĸĹæ°Ķ": 3522, "çļĦæĸĹæĬĢ": 3523, "çļĦæĹ¶åĢĻ": 3524, "çļĦæĹ¶éĹ´": 3525, "çļĦæĺ¯": 3526, "çļĦæĻ": 3527, "çļĦæļ": 3528, "çļĦæļ´": 3529, "çļĦæĽ": 3530, "çļĦæľĢ": 3531, "çļĦæľĽçĿĢ": 3532, "çļĦæľĽçĿĢéĤ£": 3533, "çļĦæĿĢ": 3534, "çļĦæŀ": 3535, "çļĦæŁ": 3536, "çļĦæł": 3537, "çļĦç": 3538, "çļĦç¡®": 3539, "çļĦç¡®æĺ¯": 3540, "çļĦç¢": 3541, "çļĦç£": 3542, "çļĦç¥": 3543, "çļĦç¥ŀ": 3544, "çļĦç©ºéĹ´": 3545, "çļĦçª": 3546, "çļĦç¬ĳå®¹": 3547, "çļĦç¬ĳéģĵ": 3548, "çļĦç²": 3549, "çļĦç²¾": 3550, "çļĦç¼ĺæķħ": 3551, "çļĦç¾İ": 3552, "çļĦç¾İæĿľèİİ": 3553, "çļĦç¿": 3554, "çļĦçģ«": 3555, "çļĦçģ«çĦ°": 3556, "çļĦçģµéŃĤ": 3557, "çļĦçģµéŃĤåĬĽéĩı": 3558, "çļĦçĤ¹äºĨçĤ¹å¤´": 3559, "çļĦçĤ¼èį¯å¸Ī": 3560, "çļĦçĥ": 3561, "çļĦçĪ": 3562, "çļĦçĪĨ": 3563, "çļĦçĬ": 3564, "çļĦçĬ¶": 3565, "çļĦçĶ·åŃĲ": 3566, "çļĦçĸ": 3567, "çļĦçĻ½": 3568, "çļĦçĽ®åħī": 3569, "çļĦçĽ®åħīä¸Ń": 3570, "çļĦçĽ¯çĿĢ": 3571, "çļĦçľĭ": 3572, "çļĦçŀ": 3573, "çļĦçŀ¥": 3574, "çļĦçł": 3575, "çļĦçł´": 3576, "çļĦçł¸": 3577, "çļĦçŃ": 3578, "çļĦçŃī": 3579, "çļĦè¡Ģ": 3580, "çļĦè¯Ŀ": 3581, "çļĦè¯Ŀè¯Ń": 3582, "çļĦèº«ä½ĵ": 3583, "çļĦèº«å½¢": 3584, "çļĦèº«å½±": 3585, "çļĦèĢģ": 3586, "çļĦèĢģèĢħ": 3587, "çļĦèĥ½éĩı": 3588, "çļĦèĦ¸åºŀ": 3589, "çļĦèĦ¸åºŀä¸Ĭ": 3590, "çļĦèĦ¸èī²": 3591, "çļĦèį¯": 3592, "çļĦèį¯æĿĲ": 3593, "çļĦèĲ§çĤİ": 3594, "çļĦé»ĳ": 3595, "çļĦé»ĳè¢į": 3596, "çļĦé»ĳèī²": 3597, "çļĦéĢŁåº¦": 3598, "çļĦéģĵ": 3599, "çļĦéĤ£": 3600, "çļĦéĤ£ä¸Ģ": 3601, "çļĦéĤ£ä¸Ģéľİ": 3602, "çļĦéĤ£äºĽ": 3603, "çļĦéĤ£ç§į": 3604, "çļĦéķ¿èĢģ": 3605, "çļĦéĹ®éģĵ": 3606, "çļĦéľİéĤ£": 3607, "çļĦéĿ¢": 3608, "çļĦéĿĴ": 3609, "çļĦéĿĴå¹´": 3610, "çļĦéŃĶåħ½": 3611, "çļĨ": 3612, "çļĨæĺ¯": 3613, "çļĩ": 3614, "çļĩå®¤": 3615, "çĽ": 3616, "çĽ®": 3617, "çĽ®åħī": 3618, "çĽ®åħīä¸Ń": 3619, "çĽ®åħīåľ¨": 3620, "çĽ®åħīè½¬åĲĳ": 3621, "çĽ®æłĩ": 3622, "çĽ®çļĦ": 3623, "çĽ®çŀª": 3624, "çĽ®çŀªåı£åĳĨ": 3625, "çĽ¯çĿĢ": 3626, "çĽ´": 3627, "çĽ´æİ¥": 3628, "çĽ´æİ¥æĺ¯": 3629, "çĽ¸": 3630, "çĽ¸ä¿¡": 3631, "çĽ¸å½ĵ": 3632, "çĽ¸åĬ©": 3633, "çĽ¸åĲĮ": 3634, "çĽ¸æ¯Ķ": 3635, "çĽĨ": 3636, "çĽĪ": 3637, "çĽĴ": 3638, "çĽĸ": 3639, "çĽĺ": 3640, "çĽĺæĹĭ": 3641, "çĽĺèħ¿": 3642, "çĽĽ": 3643, "çĽŁ": 3644, "çľ": 3645, "çľ¨": 3646, "çľ¨çľ¼": 3647, "çľ¯": 3648, "çľ¯çľ¯": 3649, "çľ¸": 3650, "çľ¸ä¸Ń": 3651, "çľ¸åŃĲ": 3652, "çľ¼": 3653, "çľ¼ä¸Ń": 3654, "çľ¼ä¸Ńä¹Łæĺ¯": 3655, "çľ¼ç¥ŀ": 3656, "çľ¼çľ¸": 3657, "çľ¼çĿ": 3658, "çľ¼çĿĽ": 3659, "çľ¼çŀ³": 3660, "çľ¼è§Ĵ": 3661, "çľģ": 3662, "çľī": 3663, "çľīå¤´": 3664, "çľīå¤´å¾®çļ±": 3665, "çľīå¿ĥ": 3666, "çľĭ": 3667, "çľĭä¸Ģä¸ĭ": 3668, "çľĭä¸Ĭåİ»": 3669, "çľĭäºĨ": 3670, "çľĭäºĨä¸Ģçľ¼": 3671, "çľĭä¼¼": 3672, "çľĭå¾Ĺ": 3673, "çľĭåĩº": 3674, "çľĭåİ»": 3675, "çľĭæĿ¥": 3676, "çľĭçľĭ": 3677, "çľĭçĿĢ": 3678, "çľĭè§ģ": 3679, "çľĭè¿Ļ": 3680, "çľŁ": 3681, "çľŁæĺ¯": 3682, "çľŁæŃ£": 3683, "çľŁæŃ£çļĦ": 3684, "çľŁçļĦ": 3685, "çľŁçļĦæĺ¯": 3686, "çľŁè¦ģ": 3687, "çĿ": 3688, "çĿ¡": 3689, "çĿĢ": 3690, "çĿĢçľīå¤´": 3691, "çĿĢèĲ§çĤİ": 3692, "çĿĢéĤ£": 3693, "çĿģ": 3694, "çĿģå¼Ģ": 3695, "çŀ": 3696, "çŀ¥": 3697, "çŀ¥äºĨä¸Ģçľ¼": 3698, "çŀ§": 3699, "çŀ§å¾Ĺ": 3700, "çŀª": 3701, "çŀ¬": 3702, "çŀ¬éĹ´": 3703, "çŀ¬éĹ´ä¾¿æĺ¯": 3704, "çŀ³": 3705, "çŀŁ": 3706, "çŁ": 3707, "çŁ¥": 3708, "çŁ¥éģĵ": 3709, "çŁ©": 3710, "çŁ³": 3711, "çŁ³åı°": 3712, "çŁ³åı°ä¸Ĭ": 3713, "çŁ³ç¢ĳ": 3714, "çŁŃ": 3715, "çŁŃçŁŃ": 3716, "çł": 3717, "çł°": 3718, "çł´": 3719, "çł¸": 3720, "çłģ": 3721, "çłĶ": 3722, "çŃ": 3723, "çŃī": 3724, "çŃīäºº": 3725, "çŃīäººä¹Łæĺ¯": 3726, "çŃīå¾ħ": 3727, "çŃīçº§": 3728, "çŃīçĿĢ": 3729, "çŃīçŃī": 3730, "çŃĶ": 3731, "çŃĶåºĶ": 3732, "è": 3733, "è¡": 3734, "è¡¡": 3735, "è¡£": 3736, "è¡£è¡«": 3737, "è¡£èĢģèĢħ": 3738, "è¡¥": 3739, "è¡¨": 3740, "è¡¨æĥħ": 3741, "è¡¨çİ°": 3742, "è¡¨éĿ¢": 3743, "è¡«": 3744, "è¡Ģ": 3745, "è¡Ģæ¶²": 3746, "è¡Ģæ½Ń": 3747, "è¡Ģçº¢": 3748, "è¡ĢèĦī": 3749, "è¡Ģèī²": 3750, "è¡Į": 3751, "è¡Įäºº": 3752, "è¡Įåİ»": 3753, "è¡Įèµ°": 3754, "è¡Ĺ": 3755, "è¡Ĺéģĵ": 3756, "è¢": 3757, "è¢«": 3758, "è¢«äºº": 3759, "è¢«ä»ĸ": 3760, "è¢«èĲ§çĤİ": 3761, "è¢ĭ": 3762, "è¢į": 3763, "è¢ĸ": 3764, "è¢ĸè¢į": 3765, "è¢ĸè¢įä¸ĢæĮ¥": 3766, "è¢Ń": 3767, "è£": 3768, "è£¹": 3769, "è£Ĥ": 3770, "è£Ĥç¼Ŀ": 3771, "è£ħ": 3772, "è£Ļ": 3773, "è¤": 3774, "è¤Ĳ": 3775, "è¥¿": 3776, "è¦": 3777, "è¦ģ": 3778, "è¦ģå¡ŀ": 3779, "è¦ģæ±Ĥ": 3780, "è¦Ĩ": 3781, "è¦ĨçĽĸ": 3782, "è§": 3783, "è§£": 3784, "è§£åĨ³": 3785, "è§¦": 3786, "è§ģ": 3787, "è§ģåĪ°": 3788, "è§ģåĪ°èĲ§çĤİ": 3789, "è§ģçĬ¶": 3790, "è§ģè¿ĩ": 3791, "è§Ĥ": 3792, "è§Ħ": 3793, "è§ĦçŁ©": 3794, "è§Ĩ": 3795, "è§Ĩä¸ĭ": 3796, "è§Ĩçº¿": 3797, "è§ĨçĿĢ": 3798, "è§ī": 3799, "è§īå¾Ĺ": 3800, "è§ĳ": 3801, "è§Ĵ": 3802, "è§ĴåŁŁ": 3803, "è¨Ģ": 3804, "è®": 3805, "è®¡": 3806, "è®¢": 3807, "è®¢éĺħ": 3808, "è®¤": 3809, "è®¤ä¸º": 3810, "è®¤è¯Ĩ": 3811, "è®¨": 3812, "è®©": 3813, "è®©äºº": 3814, "è®©ä»ĸ": 3815, "è®©ä½ł": 3816, "è®©å¾Ĺ": 3817, "è®©å¾Ĺäºº": 3818, "è®©å¾Ĺä»ĸ": 3819, "è®©å¾ĹèĲ§çĤİ": 3820, "è®©æĪĳ": 3821, "è®ª": 3822, "è®®": 3823, "è®°": 3824, "è®¶": 3825, "è®¸": 3826, "è®¸ä¹ħ": 3827, "è®¸äºĽ": 3828, "è®¸å¤ļ": 3829, "è®º": 3830, "è®½": 3831, "è®Ń": 3832, "è¯": 3833, "è¯¡": 3834, "è¯¡å¼Ĥ": 3835, "è¯¡å¼ĤçļĦ": 3836, "è¯¥": 3837, "è¯§": 3838, "è¯§å¼Ĥ": 3839, "è¯±": 3840, "è¯±æĥĳ": 3841, "è¯´": 3842, "è¯´ä¸įå®ļ": 3843, "è¯´äºĨ": 3844, "è¯´ä»Ģä¹Ī": 3845, "è¯´æĺ¯": 3846, "è¯´çĿĢ": 3847, "è¯´è¯Ŀ": 3848, "è¯´è¿ĩ": 3849, "è¯·": 3850, "è¯¸": 3851, "è¯¸ä½į": 3852, "è¯¸å¤ļ": 3853, "è¯ģ": 3854, "è¯Ĩ": 3855, "è¯ī": 3856, "è¯ķ": 3857, "è¯ķè¯ķ": 3858, "è¯Ŀ": 3859, "è¯Ŀè¯Ń": 3860, "è¯ĿéŁ³": 3861, "è¯Ń": 3862, "è°": 3863, "è°¢": 3864, "è°¨": 3865, "è°¨æħİ": 3866, "è°·": 3867, "è°ģ": 3868, "è°ģéĥ½": 3869, "è°ĥ": 3870, "è°Ī": 3871, "è°ĵ": 3872, "è±": 3873, "è±¡": 3874, "è±ģçĦ¶": 3875, "è±Ĩ": 3876, "è²": 3877, "è²Į": 3878, "è´": 3879, "è´£": 3880, "è´¥": 3881, "è´§": 3882, "è´¨": 3883, "è´¨éĩı": 3884, "è´¨éĩıè¿ĺä¸įéĶĻ": 3885, "è´ª": 3886, "è´´": 3887, "è´µ": 3888, "è´¹": 3889, "è´¹å¤©": 3890, "è´Ŀ": 3891, "è´Ł": 3892, "èµ": 3893, "èµ¤": 3894, "èµ¤çº¢": 3895, "èµ«": 3896, "èµ«çĦ¶": 3897, "èµ«çĦ¶ä¾¿æĺ¯": 3898, "èµ°": 3899, "èµ°åĩº": 3900, "èµ°åĲ§": 3901, "èµ°è¿Ľ": 3902, "èµ¶": 3903, "èµ¶å¿Ļ": 3904, "èµ¶ç´§": 3905, "èµ·": 3906, "èµ·ä¸ĢæĬ¹": 3907, "èµ·äºĨ": 3908, "èµ·æĿ¥": 3909, "èµ·èº«": 3910, "èµĦ": 3911, "èµĦæł¼": 3912, "èµĭ": 3913, "èµĽ": 3914, "èµŀ": 3915, "è¶": 3916, "è¶£": 3917, "è¶³": 3918, "è¶³ä»¥": 3919, "è¶³å¤Ł": 3920, "è¶³æľī": 3921, "è¶³è¶³": 3922, "è¶ħ": 3923, "è¶ħè¿ĩ": 3924, "è¶Ĭ": 3925, "è¶ĬåĬł": 3926, "è¶Ĭåıĳ": 3927, "è¶ĬæĿ¥": 3928, "è¶ĬæĿ¥è¶Ĭ": 3929, "è·": 3930, "è·¯": 3931, "è·¯çº¿": 3932, "è·³": 3933, "è·º": 3934, "è·ĥ": 3935, "è·ĳ": 3936, "è·Ŀ": 3937, "è·Ŀç¦»": 3938, "è·Ł": 3939, "è·Łä¸Ĭ": 3940, "è·ŁçĿĢ": 3941, "è¸": 3942, "è¸ª": 3943, "è¸ı": 3944, "è¹": 3945, "è¹¬": 3946, "èº": 3947, "èº«": 3948, "èº«ä¸º": 3949, "èº«ä¸Ĭ": 3950, "èº«ä»½": 3951, "èº«ä½ĵ": 3952, "èº«ä½ĵä¸Ĭ": 3953, "èº«ä½ĵä¹ĭä¸Ĭ": 3954, "èº«å½¢": 3955, "èº«å½¢ä¸ĢåĬ¨": 3956, "èº«å½±": 3957, "èº«åīį": 3958, "èº«åĲİ": 3959, "èº«åŃĲ": 3960, "èº«æĹģ": 3961, "èº«æĹģçļĦ": 3962, "èº«æĿ¥": 3963, "èº«çĿĢ": 3964, "èº«èº¯": 3965, "èº¯": 3966, "èº¯ä½ĵ": 3967, "èº²": 3968, "èº²éģ¿": 3969, "èºģ": 3970, "è½": 3971, "è½¦": 3972, "è½©": 3973, "è½¬": 3974, "è½¬å¤´": 3975, "è½¬åĲĳ": 3976, "è½¬ç§»": 3977, "è½¬èº«": 3978, "è½¬è¿ĩ": 3979, "è½¬è¿ĩå¤´": 3980, "è½®": 3981, "è½¯": 3982, "è½°": 3983, "è½°åĩ»": 3984, "è½°çĦ¶": 3985, "è½°éļĨ": 3986, "è½´": 3987, "è½»": 3988, "è½»å£°": 3989, "è½»å£°éģĵ": 3990, "è½»åı¹": 3991, "è½»åı¹äºĨä¸Ģåı£æ°Ķ": 3992, "è½»æĺĵ": 3993, "è½»æĿ¾": 3994, "è½»ç¬ĳéģĵ": 3995, "è½»è½»": 3996, "è½»è½»çļĦ": 3997, "è¾": 3998, "è¾£": 3999, "è¾°": 4000, "è¾¹": 4001, "è¾¾": 4002, "è¾¾åĪ°": 4003, "è¾¾åĪ°äºĨ": 4004, "è¾ĥ": 4005, "è¾Ī": 4006, "è¾ĵ": 4007, "è¿": 4008, "è¿¦": 4009, "è¿¦åįĹåŃ¦éĻ¢": 4010, "è¿«": 4011, "è¿·": 4012, "è¿¹": 4013, "è¿½": 4014, "è¿½æĿĢ": 4015, "è¿ħ": 4016, "è¿ħéĢŁ": 4017, "è¿ħéĢŁçļĦ": 4018, "è¿ĩ": 4019, "è¿ĩä¸ĢæĬ¹": 4020, "è¿ĩå¤´": 4021, "è¿ĩåİ»": 4022, "è¿ĩæĿ¥": 4023, "è¿İ": 4024, "è¿Ĳ": 4025, "è¿Ĳè½¬": 4026, "è¿ĳ": 4027, "è¿ĳä¹İ": 4028, "è¿ĺ": 4029, "è¿ĺä¸į": 4030, "è¿ĺä¸įéĶĻ": 4031, "è¿ĺä¼ļ": 4032, "è¿ĺå¥½": 4033, "è¿ĺæ²¡": 4034, "è¿ĺæĺ¯": 4035, "è¿ĺæľª": 4036, "è¿ĺæľī": 4037, "è¿ĺæľīçĿĢ": 4038, "è¿ĺçľŁ": 4039, "è¿ĺçľŁæĺ¯": 4040, "è¿ĺè¦ģ": 4041, "è¿ĺèĥ½": 4042, "è¿Ļ": 4043, "è¿Ļä¸ª": 4044, "è¿Ļä¸ªå®¶ä¼Ļ": 4045, "è¿Ļä¸Ģ": 4046, "è¿Ļä¸Ģå¹ķ": 4047, "è¿Ļä¸Ģæ¬¡": 4048, "è¿Ļä¸ĢçĤ¹": 4049, "è¿Ļä¸ľè¥¿": 4050, "è¿Ļä¹Ī": 4051, "è¿Ļä¹Īå¤ļ": 4052, "è¿Ļä¹Īå¤ļå¹´": 4053, "è¿Ļäºĭ": 4054, "è¿ĻäºĽ": 4055, "è¿ĻäºĽäºº": 4056, "è¿ĻäºĽå®¶ä¼Ļ": 4057, "è¿ĻäºĽå¹´": 4058, "è¿Ļä½į": 4059, "è¿Ļä¾¿æĺ¯": 4060, "è¿Ļå®¶ä¼Ļ": 4061, "è¿Ļå°ıåŃĲ": 4062, "è¿Ļåľº": 4063, "è¿Ļæ¬¡": 4064, "è¿Ļæ®µæĹ¶éĹ´": 4065, "è¿Ļæīį": 4066, "è¿Ļæĺ¯": 4067, "è¿Ļæł·": 4068, "è¿Ļç§į": 4069, "è¿Ļç§įæĹ¶åĢĻ": 4070, "è¿Ļçīĩ": 4071, "è¿Ļçķª": 4072, "è¿ĻçŃī": 4073, "è¿Ļè¯Ŀ": 4074, "è¿Ļè¾¹": 4075, "è¿ĻèĢģå®¶ä¼Ļ": 4076, "è¿ĻèĤ¡": 4077, "è¿ĻèĪ¬": 4078, "è¿Ļéģĵ": 4079, "è¿ĻéĩĮ": 4080, "è¿Ľ": 4081, "è¿ĽäºĨ": 4082, "è¿Ľåħ¥": 4083, "è¿ĽåĮĸ": 4084, "è¿Ľåİ»": 4085, "è¿ĽæĿ¥": 4086, "è¿Ľè¡Į": 4087, "è¿ľ": 4088, "è¿ľå¤Ħ": 4089, "è¿ľåı¤": 4090, "è¿ľè¿ľ": 4091, "è¿ŀ": 4092, "è¿ŀå¿Ļ": 4093, "è¿Ł": 4094, "è¿Łçĸĳ": 4095, "è¿ŁçĸĳäºĨä¸Ģä¸ĭ": 4096, "èĢ": 4097, "èĢ³": 4098, "èĢ³è¾¹": 4099, "èĢ¸": 4100, "èĢĢ": 4101, "èĢģ": 4102, "èĢģäºº": 4103, "èĢģå¤«": 4104, "èĢģå¤´": 4105, "èĢģå®¶ä¼Ļ": 4106, "èĢģå¸Ī": 4107, "èĢģåħĪçĶŁ": 4108, "èĢģç¥ĸ": 4109, "èĢģçĶŁ": 4110, "èĢģèĢħ": 4111, "èĢģé¬¼": 4112, "èĢĥ": 4113, "èĢĥæł¸": 4114, "èĢħ": 4115, "èĢĮ": 4116, "èĢĮä¸Ĭ": 4117, "èĢĮä¸ĭ": 4118, "èĢĮä¸Ķ": 4119, "èĢĮå·²": 4120, "èĢĮå¼Ģ": 4121, "èĢĮåħ¶": 4122, "èĢĮåĩº": 4123, "èĢĮåĩºçļĦ": 4124, "èĢĮåİ»": 4125, "èĢĮåľ¨": 4126, "èĢĮåĿĲ": 4127, "èĢĮæĪĲ": 4128, "èĢĮæĺ¯": 4129, "èĢĮæĿ¥": 4130, "èĢĮæĿ¥çļĦ": 4131, "èĢĮç«ĭ": 4132, "èĢĮèµ·": 4133, "èĢĮè¿ĩ": 4134, "èĢĮè¿Ļ": 4135, "èĢĮè¿Ľ": 4136, "èĢĮéĤ£": 4137, "èĢĮéļıçĿĢ": 4138, "èĢĲ": 4139, "èĢĹ": 4140, "èģ": 4141, "èģĶ": 4142, "èģĶæīĭ": 4143, "èģĶçĽŁ": 4144, "èģļ": 4145, "èĤ": 4146, "èĤ¡": 4147, "èĤ¤": 4148, "èĤ©": 4149, "èĤ©èĨĢ": 4150, "èĤ¯": 4151, "èĤ¯å®ļ": 4152, "èĤĥ": 4153, "èĤĨ": 4154, "èĤī": 4155, "èĤļ": 4156, "èĥ": 4157, "èĥ¡": 4158, "èĥ¸": 4159, "èĥ¸åı£": 4160, "èĥ¸èĨĽ": 4161, "èĥ½": 4162, "èĥ½å¤Ł": 4163, "èĥ½å¤Łå°Ĩ": 4164, "èĥ½å¤Łåľ¨": 4165, "èĥ½åĬĽ": 4166, "èĥ½åĲ¦": 4167, "èĥ½éĩı": 4168, "èĥĢ": 4169, "èĥģ": 4170, "èĥĨ": 4171, "èĥĮ": 4172, "èĥĮå½±": 4173, "èĥĮåĲİ": 4174, "èĥľ": 4175, "èĦ": 4176, "èĦ±": 4177, "èĦ¸": 4178, "èĦ¸åºŀ": 4179, "èĦ¸åºŀä¸Ĭ": 4180, "èĦ¸åºŀä¸ĬçļĦ": 4181, "èĦ¸èī²": 4182, "èĦ¸èī²ä¹Łæĺ¯": 4183, "èĦ¸é¢Ĭ": 4184, "èĦ¸é¢Ĭä¸Ĭ": 4185, "èĦĨ": 4186, "èĦī": 4187, "èĦı": 4188, "èĦĳ": 4189, "èĦĳæµ·": 4190, "èĦĳè¢ĭ": 4191, "èĦļ": 4192, "èĦļå°ĸ": 4193, "èĦļæİĮ": 4194, "èĦļæŃ¥": 4195, "èħ": 4196, "èħ¥": 4197, "èħ°": 4198, "èħ¾": 4199, "èħ¿": 4200, "èĨ": 4201, "èĨĢ": 4202, "èĨĽ": 4203, "èĩ": 4204, "èĩª": 4205, "èĩªä»İ": 4206, "èĩªå·±": 4207, "èĩªå·±çļĦ": 4208, "èĩªåħ¶ä½ĵåĨħ": 4209, "èĩªåĬ¨": 4210, "èĩªçĦ¶": 4211, "èĩªçĦ¶ä¹Łæĺ¯": 4212, "èĩªçĦ¶æĺ¯": 4213, "èĩªè¯Ń": 4214, "èĩ³": 4215, "èĩ³äºİ": 4216, "èĩ³å°ĳ": 4217, "èĩ´": 4218, "èĩĤ": 4219, "èĪ": 4220, "èĪ¬": 4221, "èĪ¬çļĦ": 4222, "èĪ¹": 4223, "èĪĮ": 4224, "èĪį": 4225, "èĪĴ": 4226, "èĪĶ": 4227, "èĪŀ": 4228, "èī": 4229, "èī²": 4230, "èī²çģ«çĦ°": 4231, "èī²çļĦ": 4232, "èī²çļĦçģ«çĦ°": 4233, "èī³": 4234, "èĬ": 4235, "èĬ±": 4236, "èĬ±å®Ĺ": 4237, "èĬĤ": 4238, "èĬĴ": 4239, "èĬĿ": 4240, "èĭ": 4241, "èĭ¥": 4242, "èĭ¥æĺ¯": 4243, "èĭ¥æĺ¯æľī": 4244, "èĭ¥æĺ¯èĥ½å¤Ł": 4245, "èĭ¥çİ°": 4246, "èĭ¥çĲ³": 4247, "èĭ¥çĲ³å¯¼å¸Ī": 4248, "èĭ¥éļĲ": 4249, "èĭ¥éļĲèĭ¥çİ°": 4250, "èĭ¥éĿŀ": 4251, "èĭ¥éĿŀæĺ¯": 4252, "èĭ¦": 4253, "èĭ¦ç¬ĳ": 4254, "èĭ¦ç¬ĳäºĨä¸Ģå£°": 4255, "èĭ¦ç¬ĳéģĵ": 4256, "èĭį": 4257, "èĭįçĻ½": 4258, "èĭįèĢģ": 4259, "èĭı": 4260, "èĭıåįĥ": 4261, "èĭĹ": 4262, "èĮ": 4263, "èĮ«": 4264, "èĮ«çĦ¶": 4265, "èĮ¶": 4266, "èĮĥ": 4267, "èĮĥåĽ´": 4268, "èĮĥçĹ¨": 4269, "èį": 4270, "èį¡": 4271, "èį¯": 4272, "èį¯å°ĺ": 4273, "èį¯æĸ¹": 4274, "èį¯æĹı": 4275, "èį¯æĿĲ": 4276, "èį¯èĢģ": 4277, "èį¯é¼İ": 4278, "èį¯é¼İä¹ĭä¸Ń": 4279, "èį¯é¼İä¹ĭåĨħ": 4280, "èįī": 4281, "èįĴ": 4282, "èįĴçļĦ": 4283, "èİ": 4284, "èİ«": 4285, "èİ«å¤©è¡Į": 4286, "èİ«åĲį": 4287, "èİ²": 4288, "èİ²å¿ĥçģ«": 4289, "èİ·": 4290, "èİ½": 4291, "èİİ": 4292, "èı": 4293, "èı©": 4294, "èı©æıĲ": 4295, "èı©æıĲåĮĸ": 4296, "èı©æıĲåĮĸä½ĵ": 4297, "èı©æıĲåĮĸä½ĵæ¶İ": 4298, "èı©æıĲåı¤æłĳ": 4299, "èı²": 4300, "èĲ": 4301, "èĲ¥": 4302, "èĲ§": 4303, "èĲ§å®¶": 4304, "èĲ§å®ģ": 4305, "èĲ§åİī": 4306, "èĲ§æĪĺ": 4307, "èĲ§æĹı": 4308, "èĲ§æĻ¨": 4309, "èĲ§çĤİ": 4310, "èĲ§çĤİä¸İ": 4311, "èĲ§çĤİä¹Ł": 4312, "èĲ§çĤİä¹Łæĺ¯": 4313, "èĲ§çĤİä½ĵåĨħ": 4314, "èĲ§çĤİä¾¿æĺ¯": 4315, "èĲ§çĤİå¿ĥä¸Ń": 4316, "èĲ§çĤİå¿ĥå¤´": 4317, "èĲ§çĤİåį´æĺ¯": 4318, "èĲ§çĤİåĵ¥åĵ¥": 4319, "èĲ§çĤİåľ¨": 4320, "èĲ§çĤİæīĢ": 4321, "èĲ§çĤİæīĭæİĮ": 4322, "èĲ§çĤİç¬ĳäºĨç¬ĳ": 4323, "èĲ§çĤİçļĦ": 4324, "èĲ§çĤİçĽ®åħī": 4325, "èĲ§çĤİçľīå¤´": 4326, "èĲ§çĤİçŃīäºº": 4327, "èĲ§çĤİèº«ä½ĵ": 4328, "èĲ§çĤİè¿Ļæīį": 4329, "èĲ§çĤİèĥ½å¤Ł": 4330, "èĲ§çĤİéĤ£": 4331, "èĲ§çİĦ": 4332, "èĲ§çİī": 4333, "èĲ§é¼İ": 4334, "èĲ§éĹ¨": 4335, "èĲ½": 4336, "èĲ½ä¸ĭ": 4337, "èĲ½åľ¨": 4338, "èĲ½èĢĮä¸ĭ": 4339, "èĳ": 4340, "èĴ": 4341, "èĴĻ": 4342, "èĵ": 4343, "èĵĿ": 4344, "èĵĿèī²": 4345, "èĶ": 4346, "èĶĵ": 4347, "èĶĵå»¶": 4348, "èĶĵå»¶èĢĮåĩº": 4349, "èķ´": 4350, "èķ´åĲ«": 4351, "èķ´åĲ«çĿĢ": 4352, "èĸ": 4353, "èĸ°": 4354, "èĸ°åĦ¿": 4355, "èĸĦ": 4356, "èĹ": 4357, "èĹı": 4358, "èĻ": 4359, "èĻ«": 4360, "èĻ«æ´ŀ": 4361, "èĻ½": 4362, "èĻ½çĦ¶": 4363, "èĻ½è¯´": 4364, "èĻİ": 4365, "èĻļ": 4366, "èĻļå¹»": 4367, "èĻļæĹł": 4368, "èĻļæĹłåĲŀçĤİ": 4369, "èĻļç©º": 4370, "èļ": 4371, "èļĢ": 4372, "èĽ": 4373, "èĽ®": 4374, "èĽĩ": 4375, "èĽĩäºº": 4376, "èĽĩäººæĹı": 4377, "èĽĭ": 4378, "èľ": 4379, "èĿ": 4380, "èĿİ": 4381, "èŀ": 4382, "èŀį": 4383, "èŀįåĲĪ": 4384, "èŁ": 4385, "èŁĴ": 4386, "èł": 4387, "èł¢": 4388, "èłķ": 4389, "èłķåĬ¨": 4390, "èŃ": 4391, "èŃ¦": 4392, "é": 4393, "é¡": 4394, "é¡¶": 4395, "é¡¶å°ĸ": 4396, "é¡º": 4397, "é¡ºåĪ©": 4398, "é¡ºçĿĢ": 4399, "é¡»": 4400, "é¡¾": 4401, "é¡¿": 4402, "é¡¿æĹ¶": 4403, "é¢": 4404, "é¢¤": 4405, "é¢¤æĬĸ": 4406, "é¢Ħ": 4407, "é¢Ĩ": 4408, "é¢Ĩå¤´": 4409, "é¢ĩ": 4410, "é¢ĩä¸º": 4411, "é¢Ĭ": 4412, "é¢ĸ": 4413, "é¢Ĺ": 4414, "é¢ĺ": 4415, "é¢ľ": 4416, "é¢ľèī²": 4417, "é¢Ŀ": 4418, "é¢Ŀå¤´": 4419, "é£": 4420, "é£İ": 4421, "é£İå£°": 4422, "é£İå°ĬèĢħ": 4423, "é£İæļ´": 4424, "é£İéĽ·": 4425, "é£İéĽ·éĺģ": 4426, "é£ĺ": 4427, "é£ŀ": 4428, "é£ŀå¿«": 4429, "é£ŀæİł": 4430, "é£ŀè¡Į": 4431, "é£ŀéĢŁ": 4432, "é¥": 4433, "é¥°": 4434, "é¦": 4435, "é¦ĸ": 4436, "é¦Ļ": 4437, "é©": 4438, "é©¬": 4439, "é©±": 4440, "é©±éĢĲ": 4441, "éª": 4442, "éª¤": 4443, "éª¤çĦ¶": 4444, "éª¨": 4445, "éª¨ç¿¼": 4446, "éª¨çģµ": 4447, "éª¨çģµåĨ·çģ«": 4448, "éª¨éª": 4449, "éª¨éª¸": 4450, "éª¨éª¼": 4451, "éªĤ": 4452, "éªĩ": 4453, "éªĩçĦ¶": 4454, "éªĮ": 4455, "éªļ": 4456, "é«": 4457, "é«ĺ": 4458, "é«ĺæ¸©": 4459, "é«ĺçº§": 4460, "é¬": 4461, "é¬¼": 4462, "é¬¼éŃħ": 4463, "é²": 4464, "é²ľ": 4465, "é²ľè¡Ģ": 4466, "é³": 4467, "é³ŀ": 4468, "é¸": 4469, "é¸£": 4470, "é¸¾": 4471, "é¸Ł": 4472, "é¹": 4473, "é¹°": 4474, "é¹°å±±èĢģäºº": 4475, "é¹ľ": 4476, "é¹ľæĬ¤æ³ķ": 4477, "éº": 4478, "éº»": 4479, "éº»çĥ¦": 4480, "éº»éº»": 4481, "é»": 4482, "é»¯": 4483, "é»Ħ": 4484, "é»Ħæ³ī": 4485, "é»ĳ": 4486, "é»ĳå½±": 4487, "é»ĳæĵİ": 4488, "é»ĳæļĹ": 4489, "é»ĳçļĩ": 4490, "é»ĳè¡£": 4491, "é»ĳè¢į": 4492, "é»ĳè¢įäºº": 4493, "é»ĳè§ĴåŁŁ": 4494, "é»ĳèī²": 4495, "é»ĳéĽ¾": 4496, "é»ĺ": 4497, "é»Ľ": 4498, "é»Ľçľī": 4499, "é¼": 4500, "é¼»": 4501, "é¼İ": 4502, "é¼ł": 4503, "é½": 4504, "é½¿": 4505, "é½Ĳ": 4506, "é¾": 4507, "é¾Ħ": 4508, "é¾Ļ": 4509, "é¾Ļå²Ľ": 4510, "é¾Ļåħ½": 4511, "é¾Ļçİĭ": 4512, "éĢ": 4513, "éĢ¼": 4514, "éĢĢ": 4515, "éĢĢåĲİ": 4516, "éĢģ": 4517, "éĢĤ": 4518, "éĢĥ": 4519, "éĢĥçªľ": 4520, "éĢī": 4521, "éĢīæĭ": 4522, "éĢīæĭ©": 4523, "éĢı": 4524, "éĢıçĿĢ": 4525, "éĢĲ": 4526, "éĢĲæ¸Ĳ": 4527, "éĢĲæ¸ĲçļĦ": 4528, "éĢĴ": 4529, "éĢĶ": 4530, "éĢļ": 4531, "éĢļä½ĵ": 4532, "éĢļè¿ĩ": 4533, "éĢļéģĵ": 4534, "éĢĿ": 4535, "éĢŁ": 4536, "éĢŁåº¦": 4537, "éĢł": 4538, "éĢłæĪĲ": 4539, "éģ": 4540, "éģ¥": 4541, "éģ¥è¿ľ": 4542, "éģ¥éģ¥": 4543, "éģ®": 4544, "éģ®æİ©": 4545, "éģ¿": 4546, "éģĩ": 4547, "éģĩè§ģ": 4548, "éģį": 4549, "éģĵ": 4550, "éģĵèº«å½±": 4551, "éģĹ": 4552, "éģŃ": 4553, "éĤ": 4554, "éĤ£": 4555, "éĤ£ä¸ª": 4556, "éĤ£ä¸Ģ": 4557, "éĤ£ä¹Ī": 4558, "éĤ£äºĽ": 4559, "éĤ£ä½į": 4560, "éĤ£ä¾¿": 4561, "éĤ£ä¾¿æĺ¯": 4562, "éĤ£å®¶ä¼Ļ": 4563, "éĤ£å¯¹": 4564, "éĤ£å¼ł": 4565, "éĤ£åĲį": 4566, "éĤ£æīĢè°ĵçļĦ": 4567, "éĤ£ç§į": 4568, "éĤ£çŃī": 4569, "éĤ£è¢«": 4570, "éĤ£èĤ¡": 4571, "éĤ£èĪ¬": 4572, "éĤ£éģĵ": 4573, "éĤ£éĩĮ": 4574, "éĤª": 4575, "éĥ": 4576, "éĥ¨": 4577, "éĥ¨åĪĨ": 4578, "éĥ½": 4579, "éĥ½ä¸į": 4580, "éĥ½ä¼ļ": 4581, "éĥ½å°Ĩä¼ļ": 4582, "éĥ½æĺ¯": 4583, "éĥ½æĺ¯ä¼ļ": 4584, "éĥ½æĺ¯åľ¨": 4585, "éĥ½æĺ¯æľªæĽ¾": 4586, "éĥ½æĺ¯æľīäºĽ": 4587, "éĥ½æĺ¯è¢«": 4588, "éĥ½æĺ¯èĥ½å¤Ł": 4589, "éĥģ": 4590, "éħ": 4591, "éħį": 4592, "éĨ": 4593, "éĨĴ": 4594, "éĩ": 4595, "éĩĬ": 4596, "éĩĬæĶ¾": 4597, "éĩĮ": 4598, "éĩĮéĿ¢": 4599, "éĩį": 4600, "éĩįä¼¤": 4601, "éĩįå°º": 4602, "éĩįè¦ģ": 4603, "éĩįéĩį": 4604, "éĩįéĩįçļĦ": 4605, "éĩİ": 4606, "éĩı": 4607, "éĩĳ": 4608, "éĩĳåħī": 4609, "éĩĳçŁ³": 4610, "éĩĳèī²": 4611, "éĴ": 4612, "éĴ±": 4613, "éĴ»": 4614, "éĴŁ": 4615, "éĵ": 4616, "éĵ¶": 4617, "éĵ¶èī²": 4618, "éĵº": 4619, "éĵºå¤©çĽĸ": 4620, "éĵºå¤©çĽĸåľ°": 4621, "éĵ¾": 4622, "éĵģ": 4623, "éĵģæĬ¤æ³ķ": 4624, "éĵģéĿĴ": 4625, "éĶ": 4626, "éĶģ": 4627, "éĶģéĵ¾": 4628, "éĶĭ": 4629, "éĶĭåĪ©": 4630, "éĶĲ": 4631, "éĶĻ": 4632, "éĶĻæĦķ": 4633, "éķ": 4634, "éķ¿": 4635, "éķ¿åīĳ": 4636, "éķ¿æŀª": 4637, "éķ¿çļĦ": 4638, "éķ¿èĢģ": 4639, "éķ¿éķ¿çļĦ": 4640, "éķĩ": 4641, "éķľ": 4642, "éĹ": 4643, "éĹ¨": 4644, "éĹ¨åı£": 4645, "éĹª": 4646, "éĹªåĬ¨": 4647, "éĹªæİł": 4648, "éĹªæİłèĢĮåĩº": 4649, "éĹªçĥģ": 4650, "éĹªçĶµ": 4651, "éĹªçĶµèĪ¬": 4652, "éĹªçĶµèĪ¬çļĦ": 4653, "éĹªè¿ĩ": 4654, "éĹªè¿ĩä¸ĢæĬ¹": 4655, "éĹ®": 4656, "éĹ®é¢ĺ": 4657, "éĹ®éģĵ": 4658, "éĹ¯": 4659, "éĹ²": 4660, "éĹ´": 4661, "éĹ´çļĦ": 4662, "éĹ·": 4663, "éĹ¹": 4664, "éĹ¹ä¹¦": 4665, "éĹ¹ä¹¦èįĴçļĦ": 4666, "éĹ¹ä¹¦èįĴçļĦæľĭåıĭåı¯ä»¥": 4667, "éĹ¹ä¹¦èįĴçļĦæľĭåıĭåı¯ä»¥çľĭä¸Ģä¸ĭ": 4668, "éĹ»": 4669, "éĹ»è¨Ģ": 4670, "éĹŃ": 4671, "éĹŃåħ³": 4672, "éĹŃçĽ®": 4673, "éĺ": 4674, "éĺ²": 4675, "éĺ²å¾¡": 4676, "éĺ³": 4677, "éĺ³åħī": 4678, "éĺ´": 4679, "éĺ´å¯Ĵ": 4680, "éĺ´åĨ·": 4681, "éĺ´æ£®": 4682, "éĺ´æ²ī": 4683, "éĺµ": 4684, "éĺµéĺµ": 4685, "éĺ¶": 4686, "éĺ¶åĪ«": 4687, "éĺ¶æĸĹæĬĢ": 4688, "éĺ»": 4689, "éĺ»æĭ¦": 4690, "éĺģ": 4691, "éĺħ": 4692, "éĺĶ": 4693, "éĺŁ": 4694, "éĺŁä¼į": 4695, "éĻ": 4696, "éĻ¡": 4697, "éĻ¡çĦ¶": 4698, "éĻ¢": 4699, "éĻ¤": 4700, "éĻ¤äºĨ": 4701, "éĻ¨": 4702, "éĻ¨èĲ½": 4703, "éĻ¨èĲ½å¿ĥçĤİ": 4704, "éĻ©": 4705, "éĻª": 4706, "éĻ·": 4707, "éĻ·åħ¥": 4708, "éĻĢ": 4709, "éĻĢèĪį": 4710, "éĻĢèĪįåı¤å¸Ŀ": 4711, "éĻĦ": 4712, "éĻħ": 4713, "éĻĨ": 4714, "éĻĮ": 4715, "éĻĮçĶŁ": 4716, "éĻį": 4717, "éĻĲ": 4718, "éļ": 4719, "éļ¾": 4720, "éļ¾ä»¥": 4721, "éļ¾æĢª": 4722, "éļ¾çľĭ": 4723, "éļ¾éģĵ": 4724, "éļĨ": 4725, "éļı": 4726, "éļıæĦı": 4727, "éļıæĹ¶": 4728, "éļıçĿĢ": 4729, "éļĲ": 4730, "éļĲèĹı": 4731, "éļĲéļĲ": 4732, "éļĲéļĲéĹ´": 4733, "éļĶ": 4734, "éļľ": 4735, "éĽ": 4736, "éĽ¨": 4737, "éĽª": 4738, "éĽªçĻ½": 4739, "éĽ¶": 4740, "éĽ·": 4741, "éĽ·å°ĬèĢħ": 4742, "éĽ·é¸£": 4743, "éĽ·éľĨ": 4744, "éĽ¾": 4745, "éĽ¾æ°Ķ": 4746, "éĽģ": 4747, "éĽĦ": 4748, "éĽĦæµĳ": 4749, "éĽħ": 4750, "éĽħå¦ĥ": 4751, "éĽĨ": 4752, "éĽı": 4753, "éĽķ": 4754, "éľ": 4755, "éľ²": 4756, "éľ²åĩº": 4757, "éľ¸": 4758, "éľĢ": 4759, "éľĢè¦ģ": 4760, "éľĨ": 4761, "éľĩ": 4762, "éľĩå¾Ĺ": 4763, "éľĩæĥĬ": 4764, "éľĩæĴ¼": 4765, "éľİ": 4766, "éľİéĤ£": 4767, "éĿ": 4768, "éĿ¢": 4769, "éĿ¢ä¸Ĭ": 4770, "éĿ¢å¯¹çĿĢ": 4771, "éĿ¢åīį": 4772, "éĿ¢åīįçļĦ": 4773, "éĿ¢çļĦ": 4774, "éĿ¢çĽ¸": 4775, "éĿ¢èī²": 4776, "éĿ¢èī²ä¹Łæĺ¯": 4777, "éĿĴ": 4778, "éĿĴå¹´": 4779, "éĿĴèī²": 4780, "éĿĴèī²çģ«çĦ°": 4781, "éĿĴèİ²": 4782, "éĿĴèİ²åľ°å¿ĥçģ«": 4783, "éĿĴé³ŀ": 4784, "éĿĴéĺ³": 4785, "éĿĻ": 4786, "éĿŀ": 4787, "éĿŀå¸¸": 4788, "éĿł": 4789, "éŁ": 4790, "éŁ©": 4791, "éŁ©å®¶": 4792, "éŁ©æľĪ": 4793, "éŁ©æŀ«": 4794, "éŁ©éĽª": 4795, "éŁ³": 4796, "éŁ³æ³¢": 4797, "éŁµ": 4798, "éŃ": 4799, "éŃĤ": 4800, "éŃĤå¤©å¸Ŀ": 4801, "éŃĤå´ĸ": 4802, "éŃĤæ®¿": 4803, "éŃĤæ®¿æ®¿ä¸»": 4804, "éŃĤæĹı": 4805, "éŃĤçİī": 4806, "éŃħ": 4807, "éŃĶ": 4808, "éŃĶåħ½": 4809, "éŃĶåħ½å±±èĦī": 4810, "éŃĶæł¸": 4811, "éŃĶçĤİè°·": 4812, "éŃĶèĢģé¬¼": 4813, "ê": 4814, "ë": 4815, "ì": 4816, "í": 4817, "î": 4818, "îł": 4819, "îł¢": 4820, "ï": 4821, "ï¼": 4822, "ï¼ģ": 4823, "ï¼ģâĢĿ": 4824, "ï¼ģï¼ģ": 4825, "ï¼Ī": 4826, "ï¼ī": 4827, "ï¼Į": 4828, "ï¼Į\"": 4829, "ï¼ĮâĢľ": 4830, "ï¼İ": 4831, "ï¼ļ": 4832, "ï¼ļâĢľ": 4833, "ï¼Ľ": 4834, "ï¼Ł": 4835, "ï¼ŁâĢĿ": 4836, "ï½": 4837, "ð": 4838, "ñ": 4839, "ò": 4840, "ó": 4841, "ô": 4842, "õ": 4843, "ö": 4844, "÷": 4845, "ø": 4846, "ù": 4847, "ú": 4848, "û": 4849, "ü": 4850, "ý": 4851, "þ": 4852, "ÿ": 4853, "Ā": 4854, "ĀĀ": 4855, "ĀĀĀĀ": 4856, "ĀĀĀĀĀĀĀĀ": 4857, "ĀĀĀĀĀĀĀĀĀĀĀĀĀĀĀĀ": 4858, "ĀĀĀĀĀĀĀĀĀĀĀĀĀĀĀĀĀĀĀĀĀĀĀĀĀĀĀĀĀĀĀĀ": 4859, "ĀĀĀĀĀĀĀĀĀĀĀĀĀĀĀĀĀĀĀĀĀĀĀĀĀĀĀĀĀĀĀĀĀĀĀĀĀĀĀĀĀĀĀĀĀĀĀĀĀĀĀĀĀĀĀĀĀĀĀĀĀĀĀĀ": 4860, "ā": 4861, "Ă": 4862, "ă": 4863, "Ą": 4864, "ą": 4865, "Ć": 4866, "ć": 4867, "Ĉ": 4868, "ĉ": 4869, "Ċ": 4870, "ĊĊ": 4871, "ĊĊĠĠĠ": 4872, "ċ": 4873, "Č": 4874, "č": 4875, "Ď": 4876, "ď": 4877, "Đ": 4878, "đ": 4879, "Ē": 4880, "ē": 4881, "Ĕ": 4882, "ĕ": 4883, "Ė": 4884, "ė": 4885, "Ę": 4886, "ę": 4887, "Ě": 4888, "ě": 4889, "Ĝ": 4890, "ĝ": 4891, "Ğ": 4892, "ğ": 4893, "Ġ": 4894, "ĠâĢľ": 4895, "ĠâĢĿ": 4896, "Ġä¸Ģ": 4897, "Ġä¸įè¿ĩ": 4898, "Ġä¼´éļıçĿĢ": 4899, "Ġå¤©ç©ºä¸Ĭ": 4900, "Ġå¯¹äºİ": 4901, "Ġå°±åľ¨": 4902, "Ġå°Ĩ": 4903, "Ġå½ĵ": 4904, "Ġå½ĵçĦ¶": 4905, "Ġå¿ĥä¸Ń": 4906, "ĠåĲ¬": 4907, "ĠåĲ¬å¾Ĺ": 4908, "ĠåĲ¬å¾ĹèĲ§çĤİ": 4909, "Ġåľ¨": 4910, "Ġåľ¨è¿Ļ": 4911, "Ġåľ¨èĲ§çĤİ": 4912, "Ġåľ¨éĤ£": 4913, "ĠæīĭæİĮ": 4914, "Ġæİ¨èįĲä¸Ģæľ¬": 4915, "Ġæİ¨èįĲä¸Ģæľ¬å¥½çľĭ": 4916, "Ġæİ¨èįĲä¸Ģæľ¬å¥½çľĭçļĦæĸ°": 4917, "Ġæİ¨èįĲä¸Ģæľ¬å¥½çľĭçļĦæĸ°ä½ľ": 4918, "ĠæľĽçĿĢ": 4919, "ĠæľĽçĿĢéĤ£": 4920, "ĠçĦ¶èĢĮ": 4921, "ĠçĽ®åħī": 4922, "Ġçŀ§å¾Ĺ": 4923, "Ġè¢«": 4924, "Ġè§ģåĪ°": 4925, "Ġè§ģåĪ°èĲ§çĤİ": 4926, "Ġè§ģçĬ¶": 4927, "Ġè¿Ļ": 4928, "Ġè¿Ļç§į": 4929, "ĠèĢĮ": 4930, "Ġèį¯èĢģ": 4931, "ĠèĲ§çĤİ": 4932, "ĠèĲ§çĤİçĽ®åħī": 4933, "Ġèĸ°åĦ¿": 4934, "ĠèĻ½çĦ¶": 4935, "ĠéĤ£": 4936, "ĠéĹ»è¨Ģ": 4937, "ĠéļıçĿĢ": 4938, "ĠéĿ¢å¯¹çĿĢ": 4939, "Ġï¼Ī": 4940, "ĠĠ": 4941, "ĠĠĠ": 4942, "ġ": 4943, "Ģ": 4944, "ĢçĴ¨": 4945, "ģ": 4946, "ģçĦ¶": 4947, "Ĥ": 4948, "ĥ": 4949, "ĥ½": 4950, "Ħ": 4951, "ħ": 4952, "ħç¤´": 4953, "Ĩ": 4954, "Ĩé»ĳ": 4955, "ĩ": 4956, "Ī": 4957, "Īäºĳ": 4958, "ĪçļĦ": 4959, "ī": 4960, "īçĴĥ": 4961, "Ĭ": 4962, "ĭ": 4963, "Į": 4964, "į": 4965, "İ": 4966, "ı": 4967, "Ĳ": 4968, "Ĳä¸Ģ": 4969, "Ĳä¸Ģæľ¬": 4970, "ĲéĹ¨": 4971, "ĳ": 4972, "Ĵ": 4973, "ĴçļĦ": 4974, "ĵ": 4975, "Ķ": 4976, "ķ": 4977, "ķ´": 4978, "ĸ": 4979, "ĸåŃĲ": 4980, "Ĺ": 4981, "Ĺä¼¤": 4982, "ĺ": 4983, "ĺæĺŁ": 4984, "ĺæĺŁèĢģé¬¼": 4985, "Ļ": 4986, "Ļ½": 4987, "ĻçĿĢ": 4988, "ļ": 4989, "Ľ": 4990, "ľ": 4991, "Ŀ": 4992, "ĿĢ": 4993, "ŀ": 4994, "Ł": 4995, "Łæ¼ª": 4996, "Łè§ī": 4997, "ł": 4998, "Ń": 4999}