{
  "Ġmold": 29561,
  "agrams": 69872,
  "à¸²à¸Ķ": 101521,
  "uci": 43509,
  "math": 10590,
  "appendTo": 47703,
  "ä½": 8687,
  "ĠConway": 60574,
  "Ġjedis": 71527,
  ".espresso": 98242,
  "Ġtissue": 20438,
  "ĠEr": 9939,
  "actic": 24045,
  "å§ĵ": 116122,
  "ĠãĤ±": 125867,
  "_exchange": 60312,
  "Periph": 96465,
  "ĠÐºÐ»Ñĥ": 120971,
  "_vector": 12526,
  "Ġresizing": 87343,
  "ĉtask": 50215,
  "ĠCDC": 40409,
  ".rect": 19293,
  ".ids": 57302,
  "ĠStatusBar": 69123,
  "Sun": 31192,
  "eload": 77997,
  "Ġlush": 58367,
  "(b": 1921,
  "Ġderive": 43530,
  "idle": 48373,
  "candidates": 92445,
  "Ð²Ð°ÑİÑĤ": 110787,
  "ĠDaisy": 71264,
  "Ġsurroundings": 40190,
  "getting": 51210,
  "<|reserved_special_token_206|>": 128211,
  "136": 9795,
  "ErrorMessage": 22060,
  "(un": 18870,
  "Ġsensible": 38761,
  ".ExecuteReader": 39189,
  "Î»ÎµÏħ": 106043,
  "enta": 16985,
  "IconModule": 93656,
  "dÄĽla": 123668,
  "ĠÐ¶Ð¾Ð²": 111255,
  "Ġworkplace": 27465,
  "?t": 69754,
  "Ġaussi": 28463,
  "virtual": 26752,
  "ÑĢÐ¾Ñģ": 42057,
  "ibile": 42517,
  "ighb": 4786,
  "astreet": 62498,
  "ĠReview": 10506,
  "Ä±ÄŁÄ±": 75437,
  "ĠhÃ¬nh": 101157,
  "Ġdispon": 26686,
  "ĠHenry": 18063,
  ",body": 95478,
  "ŃĶ": 115468,
  "ĠFantastic": 58038,
  "layÄ±n": 121581,
  "ĠAmp": 54787,
  "èĥĨ": 124533,
  "kus": 79566,
  "rolley": 75143,
  "ĠPert": 82884,
  "ungs": 29222,
  "olg": 75163,
  "(stock": 68571,
  "intent": 57531,
  "ĠzatÃŃm": 111719,
  "checker": 71055,
  "Ø³ÙĦ": 104823,
  "ëķĮ": 106745,
  "Ø·ÙĬ": 119490,
  "angered": 97409,
  "ĠRealt": 88972,
  "ãĤģãģŁ": 109013,
  "à¸¢à¸²à¸Ļ": 125002,
  "Esta": 60742,
  "ĠGson": 39494,
  "ĠPowers": 46137,
  "èŃ¦": 104970,
  "IALIZED": 89827,
  "à¤": 5619,
  "uffix": 13866,
  "Through": 24798,
  "ĠAjax": 42262,
  "visible": 12887,
  "pr": 652,
  ";čĊ": 464,
  "ergy": 43043,
  ".identifier": 38277,
  "holder": 4346,
  "(Route": 96045,
  "ĉcurr": 56066,
  "Ġscanning": 36201,
  "Ġexpects": 25283,
  "pert": 77468,
  "ropping": 81304,
  "Ġpodem": 63776,
  "#!": 8169,
  "ĠÐ´Ð²": 74254,
  "Ġprep": 22033,
  "Ġtls": 56126,
  "_PRINTF": 71495,
  "Ġkiá»ĩm": 114148,
  "Ġë°ķ": 104293,
  "ĠÐ²Ð¸ÑĢÐ¾Ð±": 105983,
  "_failed": 36160,
  "-yyyy": 76491,
  "ĠÅ¾": 32063,
  "_EDEFAULT": 90048,
  "ĠMIL": 42909,
  "<nav": 55167,
  ".logical": 73516,
  "more": 6518,
  "Tv": 79023,
  "ĠJNI": 71929,
  "ÑĥÐ½": 35297,
  "lesai": 98631,
  "\"><?": 8227,
  "das": 35989,
  "ĠÙħÛĮØªÙĪØ§ÙĨ": 125931,
  "_performance": 85933,
  ".ï¼ı": 119231,
  "ĠEp": 11266,
  "=\".$": 27429,
  "ights": 2866,
  "Ġmmap": 71966,
  "LTR": 67558,
  "ĠVulner": 81211,
  "Retrieve": 88765,
  "Ø¯ÙħØ©": 120038,
  "ifty": 39724,
  "ĠDifferential": 99836,
  "_NAMES": 25872,
  "ĠmÃ¼ÅŁ": 108543,
  "Ġsá»Ńa": 109289,
  "AFP": 47754,
  "ĠOrthodox": 46273,
  ".event": 5892,
  "ĠbaÅŁladÄ±": 106429,
  "ĠÑĩÐµÐ¼Ð¿ÑĸÐ¾Ð½": 125314,
  "Ġ((\"": 90201,
  "ĠâĢŀ": 15179,
  "*/ĊĊ": 6343,
  "íľ´": 117467,
  "xff": 9197,
  "Ġocean": 18435,
  "zure": 51303,
  "inee": 85899,
  "ĠtÃ¤": 51890,
  "<<\"": 7909,
  "vana": 68559,
  "Ġ)]Ċ": 87025,
  "Ġll": 9507,
  "Ġtrab": 18062,
  "Documents": 28242,
  "Ġenzymes": 56067,
  "Ø®ØµØµ": 107721,
  "$input": 78328,
  "Ġhmm": 88601,
  "âĸįâĸį": 102492,
  "ĠThin": 70722,
  "ĠwireType": 90343,
  "ovÃ¡no": 113021,
  "Ġpm": 9012,
  "âĢĻav": 57892,
  "(scores": 64219,
  "ĠspyOn": 67634,
  "ĠåĲįçĦ¡ãģĹ": 127800,
  "Ġrune": 64599,
  "ummings": 83533,
  "ĠtÃ©Å¾": 126312,
  "ï¿": 5681,
  "âķĳ": 64497,
  "ĠReverse": 25263,
  "rng": 70990,
  "ãĤ·ãĥ¼": 120404,
  "ĠKN": 32392,
  "ĠMcCart": 87558,
  "ĠPla": 118945,
  "åıª": 92780,
  "Ġspa": 31493,
  "ĠÎ´Î¹": 105160,
  "Ð½ÐµÐ³Ð¾": 107010,
  ">@": 52656,
  "_connected": 44376,
  ";)": 37274,
  "à¸´à¸Ļà¸Ĺ": 118886,
  "Ġrecently": 6051,
  "asInstanceOf": 50144,
  "ĉcase": 2789,
  "Ġlifes": 49785,
  "Century": 64973,
  "Deleting": 61575,
  "ĠTOR": 71061,
  "ĠÑĪÐ²Ð¸Ð´": 109210,
  "Ġsmlouvy": 116182,
  "ĠÐ½ÐµÐ±Ð¾Ð»ÑĮ": 120229,
  "ãĥ³ãĤ°": 94550,
  "Ġimperial": 35379,
  "ĠpÅĻiv": 122574,
  "Turn": 19952,
  "Johnson": 63760,
  "_mi": 87113,
  "ÃŃd": 87120,
  "à¸µà¸¢à¸ĩ": 102286,
  "Ø¬Ùĩ": 103099,
  "Ġsextreffen": 97935,
  "ĠPW": 59393,
  ".types": 24104,
  "GLuint": 66855,
  "Extra": 11873,
  "ĠICE": 41663,
  "ĠUtah": 23195,
  "Ġspanish": 78132,
  "ĠðĿ": 82350,
  "theory": 94304,
  "Ð¿": 8164,
  "Ġharmful": 28856,
  "ĠFeatures": 20289,
  "Ġfriction": 39676,
  "SMTP": 59298,
  "_SECONDS": 76451,
  "ĠvÃ¡": 58397,
  "ĠGoku": 77136,
  "Ġiii": 63193,
  "ĠImpact": 29680,
  "ĠØ§Ø®Ø¨Ø§Ø±": 121518,
  "According": 11439,
  "Ġsubtitles": 67766,
  "snd": 47495,
  "ëĥ": 103222,
  "_LOCATION": 31302,
  "Wide": 62070,
  "InputStream": 10689,
  "êµŃ": 100654,
  "ĠUBND": 114418,
  "ĠLIB": 31371,
  "Ġbearings": 35553,
  "variants": 55711,
  "337": 17609,
  "ĠÐ²Ð½Ñĥ": 103921,
  "Ġradians": 51884,
  "ĠkrÃ¡t": 113223,
  "Ø±ÙĬØ±": 124470,
  "Ġistiyor": 113808,
  "ĠAuthenticate": 94587,
  "ĠPatty": 89345,
  "ĠÐ¼Ð°Ð»ÑĭÑĪ": 117841,
  "à¤Ķà¤°": 123941,
  "_APP": 16815,
  "Ġplayer": 2851,
  "_RX": 21062,
  "Ġfigures": 12678,
  "<Student": 58854,
  "{}\",": 43451,
  "Î±Î»": 102095,
  "ĠØ¥Ø°Ø§": 111287,
  "Ġgarage": 19833,
  "ĠProcedures": 75111,
  "ĠdoÄŁrudan": 120525,
  "Ġnegligence": 59357,
  "ight": 492,
  "range": 9866,
  "ĠÙħÙħØ§": 120140,
  "outing": 11149,
  "Ð¾Ð·": 20219,
  "Ġime": 75534,
  "_day": 17181,
  "ĠMorris": 30283,
  "<!--": 6499,
  "Ġknowingly": 68113,
  "ivalence": 89890,
  ".class": 3150,
  "ersions": 36379,
  "PÅĻed": 122720,
  "Ø´ÛĮ": 102674,
  "ÙĤØ¨": 127086,
  "Ġlicence": 31073,
  ".prob": 93838,
  "ĠTing": 99632,
  "Ġcompile": 19742,
  "AAD": 82480,
  ".âĢľ": 35147,
  "ÄĲá»ĳi": 121316,
  "Career": 91293,
  "Ġsollen": 82246,
  "ICS": 19645,
  "Soap": 96631,
  "FH": 84414,
  "ÐºÐ¾ÑĢÐ¸ÑģÑĤ": 103642,
  "_RENDER": 46967,
  "ĠÐ²Ð¾Ð¹Ð½Ñĭ": 123304,
  "ÙĪØ§Ø¬": 112967,
  "ĠÏī": 117774,
  "ü": 184,
  "Ã©n": 10610,
  "Ġï»¿": 76880,
  "Ġunveiling": 92588,
  "ĠCategories": 29312,
  "Ġplaint": 24261,
  ".sections": 73272,
  "ÑĩÐµÑģÐºÐ¸Ñħ": 109715,
  "ë¦¬ê°Ģ": 107308,
  "ĠÐ¾Ð±ÐµÑģÐ¿ÐµÑĩÐ¸Ð²Ð°": 124302,
  "Ġenable": 7431,
  "æıı": 110240,
  "(O": 19792,
  "ĠhPa": 111710,
  "DAY": 34212,
  "ĠØ§ÙĦØŃÙĦ": 119181,
  "\"]->": 78198,
  "ĠÄĳá»ģu": 103467,
  "SOAP": 83669,
  "Ġconquest": 62366,
  "ĠTrout": 88638,
  "DateString": 47870,
  "ĠAdam": 15387,
  "ĠTournament": 18877,
  ".NewGuid": 43586,
  "ĠDean": 25028,
  "ĠMediaQuery": 43691,
  "ombat": 78728,
  "Ġeden": 104225,
  "Ġgouver": 85182,
  "ëŀ«": 124689,
  "Ġveut": 76605,
  "ÑĥÐºÑĢÐ°ÑĹÐ½": 125265,
  "Ġtravail": 42775,
  "çĭĤ": 114760,
  "_DIRS": 91660,
  "ĠCelt": 36407,
  "Ġch": 523,
  "ForgeryToken": 51408,
  "Ġoku": 119681,
  "ĠÙĬÙĨØ§ÙĬØ±": 116676,
  "Ġtracks": 14242,
  "ĠXin": 70761,
  "ĠBerk": 51291,
  "Levels": 48091,
  "ĠÄįÃ¡st": 103145,
  "Ã©": 978,
  "Ġeighty": 80679,
  "Ġmaison": 47276,
  ">f": 85494,
  "ddf": 97582,
  "109": 7743,
  "ĠÑĩ": 17756,
  "LK": 94063,
  "ÑĢÐ°ÑģÑĤÐ°": 120238,
  "ĠDealers": 79289,
  "Ġfundra": 27415,
  "ĠMichel": 45506,
  "Ġmappings": 45917,
  "Ġexagger": 39030,
  "Ast": 62152,
  "_RECE": 50916,
  "ï¼ļ": 5232,
  "!',": 39792,
  ".getMap": 85091,
  "_COLUMNS": 73003,
  "ĠMSS": 92749,
  "Ġfright": 30647,
  "ĠChatColor": 80420,
  "phan": 10146,
  "078": 24850,
  "ÏĨÎŃ": 112404,
  ".Imp": 86935,
  "notations": 14632,
  "Ġpetite": 38920,
  "(cfg": 29372,
  "ĠPolymer": 97770,
  "ĠÎ¹ÏĥÏĩ": 120790,
  "-person": 29145,
  "ĠATP": 67656,
  "Ø±ÙĬÙĤØ©": 114620,
  "Ġneuro": 18247,
  "Mer": 27814,
  "ih": 7141,
  "'m": 2846,
  "Parsed": 84059,
  "ĠRoads": 80353,
  "ĠSpiele": 70562,
  "_convert": 36010,
  ".Dimension": 54334,
  "_mc": 44457,
  "ĠBentley": 74520,
  "Ø®Ø±Ø¬": 118614,
  "ĠCompass": 60680,
  "isseur": 74608,
  ".Hour": 74650,
  "pecified": 45140,
  "Ġnurt": 60196,
  "ÂłÐ¯": 114865,
  "ĠÛĮØ§ÙģØªÙĩ": 121090,
  "Ġsafari": 83406,
  "ãĢģãģĤ": 108149,
  "_marks": 75304,
  "stacle": 44698,
  "(['/": 45247,
  "Ġcor": 1867,
  "Ð¾ÑģÑĤÑĸ": 101947,
  ".describe": 43065,
  "axes": 20589,
  "ĠDragon": 16537,
  "_G": 2712,
  "Ġreceptive": 88651,
  "ĠMASS": 93713,
  "parentId": 54648,
  "Ġmanners": 70570,
  ")+(": 42894,
  "-at": 29883,
  "IFO": 27088,
  "Ġadmitting": 55689,
  "_bd": 69599,
  "ienza": 66602,
  "çļĦãģª": 109904,
  "ĠÃ©xito": 81986,
  "ometric": 24264,
  "ĠHEX": 73321,
  "_lv": 56569,
  "ĠTargets": 86047,
  "Ġ}ĊĊĊ": 4555,
  "Ġä½ķ": 119630,
  "chodu": 116970,
  "ĠStep": 15166,
  "Ġtextarea": 53724,
  "\\Middleware": 82272,
  "ĠÃ¨": 11676,
  "ĠÑĸÐ¼": 110519,
  "football": 85436,
  "Ġà¹Ħà¸¡": 104108,
  "ĠØ±Ø¦ÛĮØ³": 116800,
  "_cg": 99453,
  "geometry": 15640,
  "MRI": 79770,
  "æ¤ľ": 111800,
  "_SHADOW": 92043,
  "ĠUniversity": 3907,
  "depart": 33148,
  "_ast": 49119,
  "Ðĸ": 104631,
  "ĉcache": 53780,
  "focused": 63257,
  "_CLAMP": 89409,
  "Swap": 47279,
  "_Utils": 92275,
  "chk": 36996,
  "DataSource": 17616,
  "Ġrpm": 51025,
  "Ġrecognizes": 45799,
  "ĠÎ¸": 101174,
  "à¸´": 31885,
  "Ġnightclub": 70832,
  "ĠkÃª": 108272,
  "Ġhotelu": 127445,
  "elay": 7040,
  "cstdio": 38312,
  "çŁ": 100543,
  "MAN": 23111,
  "IRT": 31621,
  "_sprites": 90729,
  ".help": 46566,
  "Ġperfect": 4832,
  "'];?></": 44777,
  "Ġconceivable": 95883,
  "/right": 74201,
  "Ġdiarr": 58705,
  "Ø¨Ø±": 84927,
  "DISPLAY": 69227,
  "ÑģÑĤÐ²ÐµÐ½Ð½Ð¾": 106626,
  "ĠÃ¤l": 89868,
  "Â»Ċ": 105941,
  "ĠIz": 48923,
  "++;ĊĊ": 22341,
  "Ġskype": 87772,
  "ĠParticip": 44581,
  "ĠHeater": 88528,
  "_KERNEL": 40737,
  "Ġimpaired": 50160,
  "dots": 68916,
  "Ġnakonec": 116524,
  "ÙĪØ§ÙĩØ¯": 117438,
  "Ġjugar": 94360,
  "ĠÚ©Ø±Ø¯ÙĨ": 105372,
  "Ã¢n": 40492,
  "ĠÐ¿ÐµÑĢÐµÑĤ": 115975,
  "_display": 15169,
  "Ġpreserves": 75998,
  "Ġsanitizer": 99196,
  "(EXIT": 39779,
  "ĠØ¨Ø±Ø§ÙĬ": 111522,
  "Ġine": 19661,
  "Cycle": 45920,
  ".=\"<": 90728,
  "ĠCell": 14299,
  "à¸µà¸£": 106662,
  "Ġarreglo": 81681,
  "å¢ŀ": 50285,
  "Ġcalibrated": 86085,
  "Ġreproduced": 55717,
  "Ġelectromagnetic": 66669,
  "(turn": 94992,
  ".Has": 16545,
  "ephy": 97353,
  "ĠBrittany": 89254,
  "ĠìŀĪ": 36439,
  "ustin": 45335,
  "apeutic": 32486,
  "?action": 58887,
  "OURS": 60373,
  "ĠVar": 8909,
  "NASA": 62066,
  "transaction": 13838,
  "ĠæĪĲ": 87646,
  ".\")čĊ": 64273,
  "ksam": 92747,
  "odont": 86815,
  "_real": 15624,
  ".Microsoft": 76825,
  "Ġ}];ĊĊ": 86704,
  "Ġtrá»¥": 117365,
  "ĠÑħÐ°ÑĢÐ°ÐºÑĤÐµÑĢÐ¸ÑģÑĤÐ¸ÐºÐ¸": 125355,
  "<data": 84831,
  "Ð¸Ð½Ñĥ": 101693,
  "ãģ§ãģĤ": 127303,
  "Ġsaga": 47403,
  "Ġendowed": 98728,
  "ĠprogressBar": 48176,
  ".pageX": 74266,
  "_margin": 43744,
  "Ġmuster": 84750,
  "æľĥ": 101835,
  "Restore": 57384,
  "ĠSDL": 14995,
  "phi": 17247,
  "Ġà¸ķà¸³à¸ļà¸¥": 121069,
  "Ġcommittee": 13093,
  "Ġpriorities": 30601,
  ";height": 44141,
  "âĪļ": 110682,
  "ĠBlues": 33425,
  "Ġgerade": 68158,
  ".(*": 42499,
  "Ġtypedef": 13809,
  "ĠSco": 50159,
  "444": 14870,
  "à¤°": 45279,
  "Ġhealth": 2890,
  "ĠRUN": 31860,
  "Ġchuáº©n": 104628,
  "Î»ÏĮÎ³": 120820,
  ".progressBar": 73193,
  "ãģĹãĤĩ": 124304,
  "Ġìĭłìŀħ": 125292,
  "Ġpotassium": 62275,
  "âĶ´": 118008,
  "ĠWELL": 91252,
  "sstream": 39466,
  "Ġsymbols": 18210,
  "ĠÎµÎ¹Ïĥ": 123185,
  "|;Ċ": 35126,
  "ĠAES": 39941,
  "Solar": 72041,
  "æĸ¹æ¡Ī": 112897,
  "Ġthermostat": 75170,
  "ĠAt": 2468,
  "ĠbakÄ±mÄ±ndan": 126969,
  "Ġbers": 59654,
  "ĠSVC": 89312,
  "ĠdespuÃ©s": 50649,
  "orElse": 55188,
  "ĠMAL": 89139,
  "ÃŃcÃŃ": 122703,
  "ë°©": 101482,
  "ãģĪãģªãģĦ": 119841,
  "ĠAndre": 27525,
  "SectionsIn": 96105,
  "**/Ċ": 32829,
  ".Listen": 69434,
  "ĉĉĉĉĉĉĉĠĠĠ": 71157,
  "_shuffle": 74584,
  "OLUMNS": 49870,
  ".debian": 83215,
  "icÃŃch": 112540,
  "ĠOc": 83552,
  "GetName": 50503,
  "Ġairspace": 88282,
  "ĠArr": 18925,
  "INS": 9751,
  "ĠÐ²Ð²Ð°Ð¶Ð°": 121074,
  "angu": 2379,
  "Ġwrist": 33271,
  "CardBody": 95177,
  "ï¼Ĵ": 25963,
  "Cause": 62012,
  "Ġpp": 12086,
  ".Tile": 56783,
  "Ġmasturbation": 57762,
  "_pipeline": 46287,
  "reserved": 52202,
  "([[": 28218,
  "Ġlogits": 61888,
  "à¸Ľà¸£à¸°à¹Ģà¸łà¸Ĺ": 125558,
  "unk": 3200,
  "Ð¾Ð³ÑĢÐ°Ð¼": 69954,
  "arkan": 62986,
  "ARGET": 16880,
  "GOR": 62887,
  "æ¨¡åŀĭ": 123123,
  "ĠalÄ±p": 123821,
  "ÑģÑĤÐ¸Ñĩ": 111786,
  "Ġtiny": 13987,
  "Ø§Ø¦Ùĩ": 107771,
  "(By": 13590,
  "(listener": 41710,
  "âĢĮØ§ÛĮ": 103418,
  "à¤Ŀ": 105603,
  "']))Ċ": 20084,
  "lÄ±klarÄ±": 120454,
  "Ġgorgeous": 24415,
  "ĠÐ¾Ð³": 105380,
  "ĠProviding": 81200,
  "Ġnewcomer": 88405,
  "Ġyaml": 33346,
  "ĠCAST": 62787,
  "_Menu": 55198,
  "cdb": 86401,
  "Ġ****************************************": 62460,
  "Ġubic": 63874,
  "Ġnude": 20637,
  "å¨±ä¹Ĳ": 107822,
  "Ġzlep": 122171,
  "ç¼": 25906,
  "ĠGed": 65577,
  "$LANG": 75479,
  ".questions": 67788,
  "Survey": 69115,
  "Ġmos": 23518,
  "ĠCW": 41135,
  "Ġsalty": 74975,
  "\"Some": 95975,
  "annya": 72198,
  "ĠnháºŃt": 113660,
  "(\":": 19427,
  "Primary": 16352,
  "ĠIndependence": 44177,
  "myp": 87234,
  ",\"\\": 43620,
  "ãģ¦ãģĦãģŁ": 101732,
  "Ġislands": 30100,
  "Ġ:]": 49618,
  "Ġmafia": 90985,
  "ÑĩÑı": 115463,
  "ĠSouthern": 16642,
  "Ġstupid": 18754,
  "ifiable": 23444,
  ".App": 5215,
  "ĠComVisible": 55415,
  ".setAttribute": 13395,
  "ĠBuzzFeed": 72922,
  "ĠSudoku": 95354,
  "Ġbá»¥": 115293,
  "Ġcriteria": 13186,
  "ÎķÎĻ": 107437,
  "à¥ĭà¤¨": 101001,
  "Ġrecognition": 18324,
  "ĠFurious": 93431,
  "Ġdigitally": 68878,
  "ì¹ľ": 108200,
  "ê¸Ģ": 84391,
  "ĠumoÅ¾": 110906,
  "à¥Ģà¤¬": 105909,
  "ĠEntre": 42759,
  "æĶ¹åıĺ": 125992,
  "rez": 23577,
  "ateurs": 36306,
  "-city": 54429,
  "Ġoy": 70448,
  "uild": 1526,
  "calcul": 81730,
  "çĶ¨åĵģ": 117851,
  "ĠKick": 27776,
  "ĉall": 52060,
  "Ġbek": 51033,
  "_dd": 44274,
  "ĠiÅŁ": 55809,
  "èĥŀ": 112506,
  "ĠMong": 44539,
  "_playing": 84957,
  "opacity": 21213,
  "ĠØ§ÙĦØ¯Ø§Ø®": 124673,
  "').Ċ": 42229,
  "ÑĸÐ·": 100722,
  "ĉĉĉ": 573,
  "Ġsnow": 12056,
  "ÂĨ": 122750,
  "ç®±": 74396,
  "hoo": 119820,
  "Â³": 44301,
  "Ġdebated": 59674,
  "Ġbead": 75607,
  "losure": 11915,
  "ĠpiÅŁ": 125074,
  "ĠPlace": 11004,
  "Ġcorrection": 27358,
  "ĠSubjects": 65818,
  "':'": 10192,
  "ircraft": 12902,
  "éĹ»": 110210,
  "<Model": 72889,
  "Ġinde": 5278,
  "Like": 13246,
  "Ľi": 100309,
  "Ġrelying": 39661,
  "ãĥ¶æľĪ": 113746,
  "ĠHod": 52034,
  "íİ¸": 104790,
  "Ġstump": 89712,
  "reek": 10957,
  "ĥ½": 23419,
  "ĠÐ±ÑĥÐ´Ð¸Ð½ÐºÑĥ": 126359,
  "_VERSION": 10907,
  "_Resource": 87446,
  "ãģ§ãģĻãģŃ": 125651,
  "Ġrecalling": 89746,
  "ĠCOL": 26659,
  "ĊĠĠĠĠĠĠĠĠĠĠĠĠĠĠĠĠĠĠĠĠĊ": 60201,
  "-Ð½Ð¸Ð±ÑĥÐ´ÑĮ": 118324,
  "Ġoranges": 85138,
  "à¸Ńà¸«": 125482,
  "imid": 99594,
  "Ġasses": 80140,
  "ĠVerde": 73948,
  "(run": 39872,
  "illon": 43588,
  "Ġayn": 102954,
  "ìľ": 27433,
  "Ġconstructed": 20968,
  ".ny": 83914,
  "/color": 44998,
  "Ġuser": 1217,
  ".getMethod": 67885,
  "Ġspherical": 65251,
  "åĪĬ": 107680,
  "ĠÂ»": 8345,
  "\"http": 78032,
  "Ġlearner": 64060,
  "Hide": 22434,
  "ĠDrawer": 49360,
  "ĠGlas": 38932,
  "ylv": 15095,
  "<script": 7890,
  "ĠImp": 14727,
  ".Insert": 24017,
  "akit": 98501,
  "_versions": 66248,
  "Ġkáº¿": 102442,
  "Ġ-Ċ": 18722,
  "Ġindef": 37527,
  "ĠØ§ÛĮØ´Ø§ÙĨ": 120659,
  "ĠØºØ°Ø§ÛĮÛĮ": 127031,
  "ĠCORPORATION": 89840,
  "Ġupholstery": 96788,
  "Ġtraveler": 63865,
  "ertools": 37416,
  "maktadÄ±r": 101891,
  "Ġaute": 89137,
  "ĠTRACE": 38619,
  "Installing": 63703,
  "_imgs": 61925,
  ")\"},Ċ": 97873,
  "samples": 42218,
  "Insurance": 79854,
  "ĠèĻ": 113851,
  "å¬": 115003,
  "accel": 44988,
  "Ġol": 8492,
  "ĠÑĩÐ¸Ñģ": 41176,
  "ĠØ§Ø·ÙĦØ§Ø¹": 124833,
  "ìĹ°": 101347,
  "ĠÑıÐºÐµ": 114861,
  "Ġmissing": 7554,
  "ĠKaplan": 81237,
  "Ġperception": 21063,
  "Prefab": 73430,
  "Ġble": 12704,
  "elters": 47883,
  "DON": 85741,
  "åĮħæĭ¬": 108399,
  "Ġkapat": 116994,
  "ãģ«ãģĤãĤĭ": 117083,
  "ĠKilled": 44896,
  "à¸Ľà¸£à¸°à¸§": 126630,
  "Ġlessen": 76970,
  "Uint": 22297,
  ".bi": 53602,
  "_assignment": 52991,
  "Ġimposition": 94879,
  ".None": 18982,
  "iere": 19380,
  "Ġequation": 24524,
  "åįĺ": 110904,
  "à¸·à¸Ńà¸Ĥ": 127858,
  "Ġny": 19541,
  "ĠÄįlovÄĽ": 116588,
  "ĠJako": 123397,
  "ĠCommissioner": 30454,
  "ĠSinger": 55770,
  "(dom": 61956,
  "\"E": 78299,
  "ĠFIL": 64435,
  "Ġ'*',": 81274,
  "Ġtalk": 3137,
  "_subs": 83867,
  "ĠMISSING": 99879,
  "ĠresponseObject": 70140,
  "ordin": 6114,
  "ĠÑģÐµÐ±Ñı": 105604,
  "Ġmushrooms": 48251,
  "ĠYaÅŁ": 115580,
  "Creating": 26021,
  "ĠNit": 50616,
  "Ġmeditation": 33862,
  "pawn": 69696,
  "ĠAnders": 48693,
  "_stylesheet": 85824,
  "-years": 57188,
  "ĠÐ¿Ð¾Ð»ÐµÐ·": 112036,
  "ĠDb": 12257,
  "://'": 67839,
  "Ġalerted": 67769,
  "ĠDowning": 84779,
  "Ġà¤¦à¤ķ": 117441,
  "ĠMorrison": 50054,
  "ISTER": 20092,
  "CURRENT": 45790,
  "ĠNSLayoutConstraint": 60682,
  "Four": 28070,
  "Ġgifs": 97013,
  "Ġkafka": 68952,
  "ĠSatoshi": 93252,
  "Ġî¥¤": 110036,
  "subscriptions": 73660,
  "Section": 9817,
  "ucumber": 42012,
  "ĠPOW": 70893,
  "Ġinnoc": 19132,
  ".rightBarButtonItem": 94017,
  "Instrument": 57424,
  "à¥įà¤®à¤ļ": 120411,
  "ĠĠĠĠĠĠĉ": 52470,
  "Ġstarted": 3940,
  "ĠTheatre": 27315,
  "à¸ĩà¸Ħ": 111175,
  "FT": 4082,
  "å¦Ĥ": 30624,
  "ï½Ľ": 125023,
  "/animate": 89383,
  "Ġì§ĢìĹŃ": 109299,
  "Ġsalad": 33566,
  "Ġclay": 37148,
  ".low": 57653,
  "Ġæ¾³": 124198,
  "ĉCC": 77906,
  "ĠMond": 51972,
  "ĠROUND": 77238,
  "kj": 93797,
  "ĠRuntimeException": 21942,
  "ewolf": 77799,
  "Early": 42298,
  "Ġdepend": 6904,
  "ĉĉčĊ": 6336,
  "_piece": 49570,
  "Ġfindings": 14955,
  "(skill": 87315,
  "æŀľ": 28873,
  "ĠITE": 68056,
  "ÑĢÐ°Ð·": 89554,
  "Ġconforms": 96264,
  "Ġscrut": 30017,
  "ĠDateFormatter": 99053,
  "Ġcient": 89097,
  "('.',": 54404,
  "ĠDerived": 68949,
  "ĠMonkey": 58937,
  ".ParseException": 72358,
  "ĠØ³Ø§Ø®ØªÙħØ§ÙĨ": 118692,
  "feedback": 21674,
  "Ð´Ð°Ð»": 42047,
  "Ġcopyrights": 86918,
  "likle": 103088,
  "ĠØ§ÙĪØª": 125762,
  "ĠCrew": 36037,
  ".release": 26642,
  "çºª": 108142,
  "æĵ¦": 125405,
  "Ð¾ÐºÐ¾Ð½": 127566,
  "MV": 67726,
  "ĠĠĠĠĠĠĠĊ": 12586,
  "äº¦": 110987,
  "ĠTax": 15545,
  "ÂłÄĳ": 120455,
  "(sk": 70007,
  "(COLOR": 88511,
  "Ġwildlife": 30405,
  "_PEER": 93842,
  "_dropout": 75705,
  "arÄ±": 68228,
  "ÐµÐ»ÐµÐ½Ð½Ñı": 105057,
  "Ġapa": 61693,
  "Ġoa": 91912,
  "Ġglean": 95116,
  "IENCE": 57782,
  "Ġmulticultural": 75416,
  "ApiKey": 97031,
  "Ø¬Ø§Ùħ": 103297,
  "wrong": 35970,
  ".\"]": 93204,
  "ć": 195,
  "Ġà°": 94355,
  "Campo": 61753,
  "ĠBrazil": 16327,
  "à¥Ī": 100266,
  "ĉQ": 17428,
  "jÅ¡ÃŃ": 101421,
  "Ġë¬¸": 54535,
  "antha": 58969,
  "OGRAPH": 91949,
  "Ġfrontier": 49100,
  "llib": 21408,
  "invoke": 23238,
  "dÄĽji": 107911,
  "Ġbele": 71156,
  "Ġresidue": 49232,
  "(!": 3555,
  "Ġwidespread": 24716,
  "à¸¥à¸³": 114317,
  "ĠnÃ¡klad": 124451,
  "Asia": 39563,
  "ÙĨØ¯ÛĮ": 104095,
  "-ra": 59401,
  "/calendar": 77817,
  ".urlencoded": 53797,
  "591": 24380,
  "Ġettir": 121232,
  "_neighbor": 72988,
  "ĠEXPER": 81181,
  "-educated": 88781,
  "-between": 27049,
  "HR": 17526,
  ".parseDouble": 38235,
  "ibraries": 73716,
  "leads": 99470,
  "ëĵ¤ìĿĺ": 106001,
  "Ġmature": 15196,
  "ĠVers": 25187,
  "å½¼": 103031,
  "à¹ģà¸Ĭà¸¡": 126947,
  "Ġaverage": 5578,
  "Ġbases": 23963,
  "Ġgluc": 30217,
  "Ġíķł": 96102,
  "Ġverschied": 52992,
  "Effective": 68639,
  "à¸Ļà¸Ń": 110802,
  "ãĥ¯ãĥ¼": 124049,
  "Ġindex": 1963,
  "à¹Į,": 113704,
  "ĠXia": 41235,
  "Ticks": 44884,
  "_ne": 14250,
  "_pd": 32422,
  ".Information": 50339,
  "ĺìĿ´": 63718,
  "ĠCla": 57438,
  "èĲ": 81180,
  "kp": 49595,
  "Portable": 97671,
  "ippines": 65006,
  "ÏĦÏį": 122031,
  "Ġlogo": 12708,
  "=open": 54065,
  "_MEMORY": 31148,
  "ĠEddie": 41780,
  "ĠComp": 13620,
  "_favorite": 97844,
  "Ġfoster": 31087,
  "ÎŁÎ¥": 101784,
  "crement": 13785,
  "Ġcnt": 13497,
  "fromJson": 98856,
  "ĠtÄĽchto": 110271,
  "ĠCah": 96110,
  "ms": 1026,
  "oge": 41632,
  "ÏģÎ¯Î¶": 115086,
  "ÂĢÂĢ": 104851,
  "merge": 19590,
  "Ġmpg": 83554,
  "Ð·Ð½Ð°ÑĩÐ°": 106716,
  "ĠÐ²Ð¸Ð·Ð½Ð°Ñĩ": 107996,
  "arya": 73268,
  "Ġimagination": 28899,
  "ĠQC": 43707,
  "[df": 54305,
  "ĠSentinel": 57893,
  "Outputs": 62538,
  "(env": 17409,
  "Ġtomto": 108716,
  "ĠMetropolitan": 45878,
  "Ġwerden": 12931,
  "ĠÐ³Ðµ": 111794,
  "eland": 18615,
  "ĠRevenue": 38493,
  "unication": 40295,
  "ĠCraw": 44766,
  "æĭĴ": 120853,
  "Ġå¼": 53606,
  "\"class": 31508,
  "precated": 20483,
  "qr": 23866,
  "Ġtej": 63080,
  "Anc": 89167,
  "lacaÄŁ": 112210,
  "_staff": 48160,
  "Ġ\";Ċ": 7775,
  "/l": 13631,
  "ĠTurnbull": 68946,
  "ĠSas": 62189,
  "Ã¤hlt": 84149,
  "=\\": 35533,
  "\">ĊĊĊ": 60035,
  "Ġ%{": 64837,
  "_px": 68262,
  "_FAULT": 95764,
  "creasing": 76562,
  "Ġstory": 3446,
  "Ġbá»ĭ": 100947,
  "escape": 13295,
  "<O": 90576,
  "ĉTEST": 55735,
  "(Mod": 73056,
  ".Stdout": 84325,
  "feof": 86770,
  "Ġnearer": 87920,
  "Ġescri": 66871,
  "Î»Ïħ": 108314,
  "ĠisAuthenticated": 72026,
  "Ä°ng": 124798,
  "Ġslashing": 93043,
  ".AppendText": 96813,
  "Ġedge": 6964,
  "ĠKont": 37966,
  "ĠatÃ©": 39583,
  "ĉborder": 35892,
  "INESS": 24221,
  "Ġdivisor": 50209,
  "ĠBoeh": 70297,
  "Ġradicals": 74356,
  "ĠkÃ©m": 120587,
  "âĢĶnot": 63938,
  "(edges": 76189,
  "ĉvolatile": 32219,
  "ĠschvÃ¡l": 124126,
  "ĠDamascus": 58123,
  "ÑĤÐ¾Ð½": 113357,
  "ĠPatrick": 20199,
  "_motion": 66560,
  "onda": 18693,
  "/reference": 66880,
  "Ġbouquet": 92713,
  "()]": 27654,
  "ĠSexe": 46592,
  "Û²Û·": 119006,
  ",'\"": 49982,
  "Ġnichts": 60865,
  "Ġcompetency": 93904,
  "Ġsecretive": 84099,
  "Ġcapacitor": 85525,
  "Ġprocure": 80779,
  ".smtp": 95277,
  "Ġsupposed": 10171,
  "Why": 10445,
  "ç¢ºèªį": 114140,
  "Ġsides": 11314,
  "æĬķèµĦ": 108320,
  "è¯¾ç¨ĭ": 123440,
  "å¸®": 109438,
  "-Dec": 80729,
  "ĠOver": 6193,
  "WK": 69416,
  "'=>$_": 78506,
  "ãĤį": 85791,
  "ĠVit": 29560,
  "UE": 2279,
  "Ġbelirt": 105063,
  "ĉtrace": 66158,
  "à¸±à¸ģà¸Ĺ": 119309,
  "Ġbitte": 68482,
  "Ġunders": 26445,
  "atched": 35344,
  "Ø±Ø¯Ùĩ": 106129,
  "Ġwealthy": 28994,
  "_userdata": 60415,
  "Ġskating": 65504,
  "Ġgra": 28699,
  "AspectRatio": 71610,
  "Ġforums": 25907,
  "gether": 3522,
  "Ġ*)[": 79182,
  "Controller": 2095,
  "Ú©Ø³": 103757,
  "Ø§Ø¯ÙĬ": 103776,
  "Ġnhá»Ľ": 112572,
  "Ġperfection": 39143,
  "ubes": 51725,
  "ellipse": 69104,
  ".placeholder": 32631,
  "ĠÙĨØ®Ø³Øª": 116262,
  "ÙĪÙĦÙĪØ¬": 120364,
  "Î¾ÎµÎ¹": 120565,
  "pathname": 67381,
  "=Value": 89148,
  "setDescription": 64642,
  "Ġhele": 55195,
  "ĠLack": 68502,
  "ĠCust": 73322,
  "ĠÐ³Ð»ÑĥÐ±": 113708,
  "Ġheterosexual": 66408,
  "ĠØŃØ³Ø¨": 117459,
  "lest": 60244,
  "ĠKostenlose": 87884,
  "Ġflawed": 48008,
  "lish": 1706,
  "ĠÑĢÐ°Ð·Ð´ÐµÐ»": 115066,
  ".protobuf": 44479,
  "Ġzip": 10521,
  "Ġpredicates": 81127,
  "(dep": 79872,
  "ices": 1238,
  "Ġsubsection": 23695,
  "Known": 49306,
  "rlen": 70169,
  ".Pay": 96505,
  "ĠQueue": 19267,
  "*t": 15529,
  "Ġcomedy": 23160,
  "Spaces": 72424,
  "_sqrt": 93299,
  "Ġë¶Ļ": 118438,
  "Few": 72204,
  "ĠPsycho": 70276,
  ".pp": 80126,
  "fec": 77626,
  "å¥": 28194,
  "PerPage": 37931,
  "Ġanimation": 10571,
  "ĠVinci": 97866,
  "ĠzemÄĽdÄĽl": 123535,
  "ce": 346,
  "chai": 46181,
  "Ġvac": 9467,
  "Ġserializer": 22508,
  "_recent": 63461,
  "']}'": 97366,
  "ĠVys": 117968,
  "ĉreal": 92974,
  "Ġ//////////": 94255,
  "Connection": 4627,
  "ĠgetState": 40170,
  "Gar": 45030,
  "ÑĥÐ»ÑĮ": 100899,
  "arDown": 60442,
  "Ġcommunicated": 59035,
  "Ð³ÑĸÐ²": 114772,
  "ãģ®ãģ«": 110115,
  "loyd": 26881,
  "ĠØ¯Ø§Ø±Ø¯": 102218,
  "Ġniche": 35149,
  "à¥įà¤·à¤®à¤¤": 125296,
  "Ġclimate": 10182,
  "Yii": 34767,
  ",ev": 82692,
  "/y": 27589,
  "spect": 68182,
  "dsa": 97880,
  "Ġbiking": 67180,
  "_EXTENDED": 97052,
  "ĠÐ¶ÐµÐ»ÐµÐ·": 112042,
  "Ġtur": 13535,
  "Ġunderstood": 16365,
  ".Connection": 17921,
  "ĠBufferedWriter": 64229,
  "ĠOlympia": 96829,
  "Ġsymmetry": 46220,
  "ï¾ı": 119173,
  ":-": 11184,
  "Ġrelatives": 29658,
  "_Collections": 39010,
  "(active": 47029,
  "Ġtrata": 64367,
  "Sus": 78524,
  "Ġrecal": 99783,
  "âĢľHow": 98476,
  "Ð°Ð»ÑĮÐ½ÑĭÐ¼": 114259,
  "à¥įà¤¦à¤°": 127508,
  "Ġseven": 8254,
  "\"],": 8073,
  "Gs": 82252,
  "ãĤ¹ãĥļ": 118347,
  ">-->Ċ": 37460,
  "ĠXm": 68659,
  "ë£¡": 126963,
  "atee": 96780,
  "ulous": 13850,
  "@Override": 6123,
  "roll": 1119,
  "fm": 21796,
  "ĠØ§ÙĦØ®Ø§Øµ": 111326,
  "ĠÑĥÑĢÐ¾Ðº": 127163,
  "ÑĤÐ°ÐºÐ¸": 117259,
  "Ġrobot": 12585,
  "Ġfaint": 38678,
  "Italy": 71603,
  "à¹ĥà¸Ķ": 114285,
  "à¹ĩà¸Ķ": 107927,
  "-f": 2269,
  "ĠIS": 3507,
  "atile": 9187,
  "cth": 92921,
  "ÑĪÐ»Ð¾": 122534,
  "277": 16367,
  "Ġ~~": 78877,
  "Ġchoked": 94743,
  "ĠMahar": 53690,
  "Ġapparel": 55425,
  "is": 285,
  "ĠÐ¿ÐµÑĢÐµÐ²Ð°": 115319,
  "ÙĨÙĩ": 102402,
  "ĠÐŁÐµÑĤ": 107870,
  "Ġforeach": 4133,
  "ULLET": 93434,
  "ĠÐ²ÑĸÐ»ÑĮ": 121822,
  "Publication": 73490,
  "isEnabled": 75552,
  "Ġhorizon": 35174,
  "ĠManuals": 59941,
  "ĠÙĪØ±Ø²": 123490,
  "ĠÐ¼ÑıÑģ": 118748,
  "layouts": 20655,
  "Ins": 15841,
  "Ġnights": 22178,
  "Ġ?>'": 92666,
  "getPlayer": 96072,
  "(cam": 70376,
  "(bb": 69602,
  "ĠObjectType": 79986,
  "_perms": 99143,
  "ĠBigInteger": 35142,
  "Ð°Ð»ÑĮÐ½ÑĥÑİ": 121400,
  "Ġroy": 55342,
  "ĠØ¨Ø®Ø´ÛĮ": 126635,
  "ĠÐ¾Ñĩ": 95912,
  "Ġblowing": 41442,
  "ÑĢÐ³": 93822,
  "bi": 8385,
  "_application": 39821,
  ".ease": 63754,
  "etched": 37880,
  "Ġanalyzer": 55760,
  "\\Routing": 65099,
  "ĠÑģÐ¼Ð¾ÑĤ": 113075,
  "Ġèı²å¾ĭå®¾çĶ³åįļ": 119240,
  "ĠCrit": 34307,
  "ĠModelAndView": 36168,
  "æ¬²": 111654,
  "Ġoccupied": 25366,
  "Ġflavorful": 94631,
  "ĉdst": 53151,
  "ĠinitialValues": 94583,
  "setter": 89579,
  "eman": 16357,
  "ãĥ¼ãĥĪ": 84477,
  "ĠMOCK": 84115,
  "ĠVeg": 91013,
  "ĠÙĨÙħÙĪØ¯": 106913,
  "à¸Ĵ": 104252,
  "ĠAthen": 59652,
  "à¸¨à¸£": 110892,
  "oron": 85950,
  "ĠJerusalem": 26523,
  "ville": 8078,
  "ĠÑĢÑĥÐ±": 104306,
  "Ġ':'": 37404,
  "ĠDos": 58020,
  "ĠALIGN": 64869,
  "ĠCer": 28764,
  "Ġextras": 37375,
  "ï¿½ï¿½": 10178,
  "ĠThat": 3011,
  "Ġwield": 42945,
  "ĠGrimm": 85892,
  "Australia": 49137,
  "ĠtráºŃn": 107728,
  "ĉelem": 69879,
  "ate": 349,
  "Ã¼mÃ¼z": 105862,
  "Ġarchitekt": 126316,
  "ĠPoint": 5236,
  "atab": 2143,
  "ulsive": 58921,
  "ĠCena": 89663,
  "ĠmezinÃ¡": 118377,
  "Ġ(!!": 79080,
  "Ã§Ä±": 106610,
  "Ġchoosing": 19301,
  "Ġoste": 52368,
  "Orden": 75782,
  "zes": 32893,
  "Ġdramatic": 22520,
  "Ġnehmen": 81717,
  "Ð»Ð¸ÑĨ": 67222,
  "ìĬĪ": 108093,
  "izm": 109801,
  ".device": 18861,
  "(add": 26995,
  "onn": 27476,
  "Ġhypert": 48855,
  "Ġleaking": 52929,
  ".getLog": 83864,
  "(local": 18574,
  "ĠMarin": 64477,
  "p": 79,
  "ĠProvide": 40665,
  "ĠReport": 8423,
  "ë§ī": 107725,
  "\"\"\")Ċ": 96423,
  "æŃ¦åĻ¨": 123655,
  "ĠÐĻ": 107685,
  "achel": 15113,
  "getMockBuilder": 92524,
  "ĉjava": 57271,
  "ĠÐ¾ÑĤÐºÐ°Ð·": 117562,
  "ĠÐ¿ÐµÑĢÐµÐ¶": 121176,
  "_SCREEN": 43499,
  "ĠBasis": 70128,
  "ennai": 52024,
  "ĠcatchError": 65034,
  "Control": 3353,
  "(unit": 25116,
  "Ġapprovals": 83923,
  "Ġrac": 9148,
  "Ġç¬": 49940,
  "`()": 68780,
  "#@": 83172,
  "QueryBuilder": 52500,
  "ĠparÃ§": 108021,
  "ĠåĮħ": 123631,
  ".clock": 51646,
  "Ġnovels": 32963,
  "SION": 12480,
  "ĠRegistro": 84737,
  "Ġnucleus": 62607,
  "ĠAdidas": 70989,
  "ÑĨÐ°ÑĤÑĮ": 121776,
  "Ġreviews": 8544,
  "615": 21385,
  "reduce": 27369,
  "Ġnar": 44669,
  "sembled": 26994,
  "erte": 14140,
  "Ġplanes": 25761,
  "ongsTo": 35325,
  "ĠVertex": 24103,
  "REN": 41992,
  "à¥Ģà¤ıà¤®": 111729,
  "ĠgetType": 37681,
  "Ġdeney": 109714,
  "Ġhashtags": 82961,
  ".executeUpdate": 40012,
  ":str": 62396,
  "Ġlao": 106086,
  "ĠschÃ¶n": 75864,
  "ĠAnnouncement": 87930,
  "Ġpresidente": 52485,
  "Ġcommons": 66062,
  "Ġgen": 4173,
  "Ġrecordings": 38140,
  "@Enable": 59743,
  "Ġplatinum": 63327,
  "Ġfelon": 81014,
  "ftype": 81490,
  "Ġwhip": 51176,
  "fac": 22974,
  "ĠngOnInit": 18286,
  "keepers": 56638,
  ")...": 40125,
  "Ġprintk": 59423,
  "lieÃŁlich": 84190,
  "(shell": 94658,
  "Ġtriá»ĩu": 106002,
  "iyim": 126016,
  "_consum": 70970,
  "ustr": 3497,
  "allows": 56967,
  "Ġims": 72303,
  "startIndex": 96411,
  "ĠÙģÙĩØ±Ø³Øª": 113872,
  "ÙħØ²": 114909,
  "Ġear": 2487,
  "ĠMoist": 82804,
  "Ġbpm": 98824,
  "ĠMethods": 19331,
  "Ġobligations": 30255,
  "Descri": 63764,
  "ModelProperty": 41182,
  "adge": 61805,
  "while": 3556,
  "dk": 7737,
  "RITE": 11593,
  "($\"{": 41144,
  "Ġkvinne": 76603,
  "Pu": 77462,
  "listeners": 78050,
  "awl": 88548,
  "ĠMahmoud": 94286,
  "ĠÐ±ÑĸÐ·Ð½ÐµÑģ": 120638,
  "ì§ģ": 102436,
  "Å¯r": 123049,
  "ynes": 84267,
  "ĠÐ¿ÑĢÐ¾Ð¿Ð¾Ð·Ð¸": 124815,
  "Ø·Ø¨ÙĬÙĤ": 111700,
  "ĠGap": 59015,
  "ÑĥÐ¶": 56999,
  "Ġë°ľ": 97096,
  "Ġadditions": 38314,
  "getc": 72403,
  "Ġelapsed": 26401,
  "ĠSDS": 96712,
  "NullPointerException": 84933,
  "ï¼Įå¦Ĥ": 116051,
  "side": 3002,
  "Ġyerel": 121852,
  ".'/": 26635,
  "unit": 3928,
  "ĠExt": 9634,
  "orry": 8635,
  ".gpu": 85189,
  "divider": 51894,
  ".closest": 62958,
  "Ġ});čĊčĊ": 29475,
  "strings": 19107,
  ".Put": 40925,
  ".âĢĿĊĊĊĊ": 35284,
  "Ġspender": 84988,
  "ĠBooth": 64370,
  "Ġintestine": 92234,
  "Ġcritically": 41440,
  "Ġìļ°": 101834,
  "SerializedName": 25479,
  "GORITHM": 75685,
  ".')ĊĊ": 49420,
  "ĉputs": 44127,
  "ĠTrip": 27852,
  "Ġpob": 77822,
  "aÅ¾": 101674,
  "vÃ©d": 126665,
  "(T": 4233,
  "vÃ©": 52274,
  "mensagem": 89941,
  "_MUTEX": 68094,
  "Ġ:],": 95646,
  "ĠHT": 5373,
  "ãĤ¡": 102439,
  "(move": 35181,
  "æĻļ": 107130,
  ":.:": 111898,
  "-data": 14271,
  "Ġimshow": 79699,
  "ITY": 3414,
  "ĉS": 7721,
  "ouncill": 46503,
  "(varargin": 67729,
  "oton": 26934,
  "ĠfullPath": 86944,
  "Ġprefixed": 82595,
  "Ġmail": 8232,
  "asily": 38367,
  "GROUP": 42580,
  "eka": 53413,
  "éļ¾": 105142,
  "Ġkk": 50965,
  ".sc": 7840,
  "terms": 18853,
  "Ġchilly": 81975,
  "Ġcomplied": 84864,
  "ĠFt": 45479,
  "_fac": 42689,
  "grown": 62376,
  "_est": 19095,
  "avou": 127534,
  "ĠLebanese": 69345,
  "Ġ[âĢ¦]...Ċ": 124585,
  "<L": 56670,
  "Ġrobbed": 63354,
  "IFF": 30135,
  "ĠÐ²ÑĸÐ´Ð½Ð¾Ð²": 122643,
  "ĠÐ¿Ð°Ñģ": 113434,
  "High": 12243,
  "Ġjapanese": 54048,
  ".Support": 81090,
  "Ġpresumption": 87945,
  "ĠDÃ¼ny": 125282,
  "?):": 55209,
  "/Layout": 88255,
  "enheim": 92710,
  "Ġpasture": 89355,
  "ĠFellowship": 65742,
  "_hpp": 75377,
  "\":\"'": 72935,
  "Ġerr": 1886,
  "ĠJob": 12280,
  "ĠktÃ³": 22051,
  ".Zoom": 74275,
  "joining": 66305,
  "âĢľIt": 17818,
  "Ġcreating": 6968,
  "[],": 13292,
  "apesh": 79031,
  "_disc": 38845,
  ".er": 97973,
  "ĠÎłÎµÏģÎ¹": 113523,
  "Ġsteht": 55483,
  "Blake": 92138,
  "Edges": 42222,
  "_NOW": 60501,
  "Ġbá»ģ": 118746,
  "(Base": 23017,
  "ĠNina": 64988,
  "_attack": 46797,
  "__);ĊĊ": 65377,
  "Ġempleado": 88040,
  "ĠDivide": 64002,
  "Ġoval": 61137,
  "ĠCalibration": 97395,
  "Ġbaby": 8945,
  "Ġpushes": 41802,
  "ĠÚĺØ§ÙĨÙĪÛĮÙĩ": 122069,
  ".strict": 41799,
  "Ġliable": 35473,
  "GameState": 60169,
  "Ġsomewhere": 15038,
  "260": 11387,
  "zzarella": 96982,
  "END": 4794,
  "Ġhumane": 82126,
  "\\\"\");Ċ": 89485,
  ";'Ċ": 99419,
  "ĠWATER": 76347,
  "Ġrepro": 53823,
  "ĠGunn": 66249,
  "roupon": 48103,
  ".âĢĶ": 35192,
  "_hashes": 92716,
  "Ġchant": 44453,
  "August": 32559,
  ",R": 24412,
  "_construct": 65903,
  "ĢìĿ´": 103618,
  "COVID": 79063,
  "Ġepilepsy": 70655,
  "_coord": 31196,
  "ĠJess": 23908,
  "Ġcsv": 13448,
  ".SetToolTip": 95049,
  "Ġimpulse": 49967,
  "_literals": 50743,
  "æ¬ł": 124490,
  "ĠUnity": 22462,
  "ĠyetiÅŁtir": 124947,
  "-package": 45235,
  "Ġtransforming": 46890,
  "ĠderniÃ¨re": 88818,
  "Ġjoueur": 77049,
  "imu": 79426,
  ".MainActivity": 94637,
  "åĬŁ": 17860,
  "ĠOtherwise": 18715,
  "æľ¬å½ĵãģ«": 126920,
  "Ġ?": 949,
  "adores": 18745,
  "SEA": 93052,
  "Ġsocio": 41589,
  "Beat": 44758,
  "lenmesi": 113154,
  "legant": 59902,
  "ĠĠĠĠĠĠĠĠĠĠĠĠĊ": 3456,
  "ÐºÑĥÐ²Ð°ÑĤÐ¸": 121523,
  "ĺèĽĽ": 114203,
  "ĠUnary": 88051,
  "ĠSage": 54384,
  "Ġcomplexity": 23965,
  "Î¿ÏħÏĤ": 101866,
  "ĠĠĠĠĠĠĠĠĠĠĠĠĠĠĠĠĠĠĠĠĠĠĠĠĠĠĠĠĠĠĠĠĠĠĠĠĠĠĠĠĠĠĠĠĠĠĠĠĠĠĠĠĠĠĠĠĠĠĠĠĠĠĠĠĠĠĠĠĠĠĠĠĠĠĠĠ": 56899,
  "Ġjetzt": 38799,
  "á»Ļng": 102091,
  "Vol": 37461,
  "ĠFour": 13625,
  "_latency": 75932,
  "Ð°Ð±": 38722,
  "áº§": 48055,
  "ĠRidge": 35305,
  "unsafe": 39257,
  "(Document": 61980,
  "ĠØ¨Ø§": 83711,
  "ĠBloody": 94672,
  "å¤§ãģį": 119448,
  "ĠÐ³Ð°ÑĢÐ°Ð½": 123774,
  "Theta": 45414,
  "ĠCooking": 57410,
  "Ġmentor": 36528,
  "ĠCapitol": 32633,
  "-export": 66927,
  "enery": 90333,
  "ĠDiego": 18842,
  "_trim": 71125,
  "ictionaries": 45292,
  "Ġrecover": 11993,
  "Velocity": 25154,
  "ĠØ¨Ø³ÙĬ": 122727,
  "Ġinclination": 77004,
  "ĠLing": 51958,
  "åĤ¨": 115257,
  "udiantes": 69854,
  "Ġnghe": 110580,
  "Ġsender": 4750,
  "ĠëłĪë²¨": 106193,
  "<Member": 99039,
  "Ġattendees": 40285,
  "Ġpunished": 41998,
  "itional": 3079,
  "DownList": 66996,
  "Ġà¤ķà¤ª": 110374,
  "éĳĳ": 124140,
  "idend": 69950,
  "ÙİØŃ": 117096,
  "åĲįç§°": 31091,
  "<|reserved_special_token_44|>": 128049,
  "Internet": 36779,
  "(repository": 51405,
  "Ġ{};Ċ": 9505,
  "ĠëĿ¼": 103959,
  "lÃ©": 69328,
  "research": 61564,
  "anical": 45983,
  "Hang": 58138,
  "Ġbuffalo": 82455,
  "ĠãĢĪ": 109487,
  "(ent": 55793,
  "ĠpresentViewController": 83548,
  "Ġcharts": 27223,
  "_pre": 10659,
  "Ġfolded": 48135,
  "_Printf": 88357,
  "ĠNatural": 18955,
  "xee": 51238,
  "(Dictionary": 81445,
  "Ġit": 433,
  "_sphere": 88073,
  "Ġfuss": 64864,
  "ĠÃ©lect": 98151,
  "SocketAddress": 70555,
  ",X": 30341,
  "ĠÐ¿Ð¾Ð¼Ð¾Ð³": 111525,
  "Ġflyer": 76006,
  "ĠÐµÐ½ÐµÑĢÐ³": 117245,
  "ĠXCT": 16308,
  "_callable": 66040,
  "ĠDancing": 70629,
  "ĠCOLUMN": 40123,
  "ĠLace": 75239,
  "_OPTS": 85115,
  "_z": 6551,
  ".figure": 27602,
  "/****************************************************************************Ċ": 59107,
  "_PRIV": 71725,
  ".onActivityResult": 93588,
  "ĠiÃ§eri": 115724,
  "ĠÐ¿Ð°ÑĨÑĸÑĶÐ½": 121494,
  "alÄ±ÄŁÄ±": 118024,
  "Ġfiring": 23677,
  "ĠØµÙģ": 104477,
  "ĠErk": 126959,
  "ĠÐ¿ÑĢÐ¾Ñģ": 106427,
  "British": 52961,
  "ertz": 59037,
  ".AUTH": 65778,
  "-url": 26521,
  "à¹Ĥà¸£à¸ĩà¹ģà¸£à¸¡": 110604,
  "_menus": 84433,
  "Äĥn": 100955,
  "ORDER": 13715,
  "Ġdá»±a": 113458,
  "Ġjou": 28068,
  "ĠbaÄŁÄ±r": 120302,
  "Ġxe": 83890,
  "Release": 16464,
  "ĠDeaths": 85812,
  "ãģ®ãģ§": 105879,
  "ÎŁÎł": 114393,
  "ĠPablo": 53863,
  "ancell": 14575,
  "ĠBliss": 92670,
  "ĠResist": 79968,
  "ÐµÐ½Ð¸Ñİ": 102385,
  "Ġäºº": 102362,
  "Ġrelieved": 51512,
  "ĠprÅ¯m": 116834,
  "ĠAfghan": 17214,
  "ĠìĿ¼ìłķ": 125274,
  "Ġblackout": 97504,
  "Ġboutique": 53185,
  "Ġæĸĩä»¶": 70694,
  "ĠÙĪÙħÙĨ": 109772,
  "Ġscary": 29565,
  "ĉREQUIRE": 88432,
  "thesize": 27985,
  "Ġà¤¬à¤¦à¤²": 110113,
  "ayers": 5184,
  "Ð¾Ð´Ð°": 87878,
  "-scale": 13230,
  "]=='": 29692,
  "ĠTheta": 69810,
  "daq": 74307,
  "REAM": 16294,
  ".maxLength": 96817,
  "ĠAlso": 7429,
  "Ġbow": 15631,
  "Ġëª°": 113424,
  "è¦§": 111182,
  "<|reserved_special_token_187|>": 128192,
  "ÑģÐ¾Ð²": 101966,
  "à¥ĩà¤¨": 101276,
  "Ġcontar": 89805,
  "ĠElekt": 116714,
  "_sensor": 29999,
  "aura": 22290,
  "Ġinternal": 5419,
  "=max": 45717,
  "ĠNext": 9479,
  "ĠfileId": 92361,
  "Ġquand": 42676,
  "RR": 8268,
  ".isHidden": 38976,
  "Ġtuo": 63258,
  "Ġphá»¥c": 105028,
  "ISM": 47905,
  "ibia": 67337,
  "Dirs": 98484,
  "ĠMonument": 72377,
  "Ġgenerado": 80734,
  "ĠPerth": 50544,
  "Ġdistributions": 43785,
  "Ġpute": 25276,
  "Selectors": 98095,
  "[][]": 17024,
  "âĢ¦ĊĊ": 5551,
  "ĠGarcÃŃa": 85341,
  "Ġmigr": 9971,
  "ole": 1286,
  "\")){Ċ": 22623,
  "_trace": 24489,
  "Ġvitamins": 46192,
  "_UPLOAD": 64136,
  "ĠBeg": 44793,
  "ĠEI": 93911,
  "-man": 21110,
  "c": 66,
  "SEC": 26629,
  "ØºÙĬØ±Ø©": 118980,
  "Ġpesos": 85247,
  "objs": 89427,
  "ĠØŃØ¯": 103832,
  "Ġà¤¹à¤ľ": 114263,
  "ĠtrÃ¡v": 123999,
  "Ġbuff": 11783,
  "abei": 40072,
  "Ġ(\"": 3573,
  ">.</": 40974,
  "Ġmgr": 58997,
  "ĠÐ½Ð¾Ð¼ÐµÑĢ": 75034,
  "ĠWe": 1226,
  "kin": 8148,
  "Ġdecode": 17322,
  "Michigan": 82657,
  "Ġitinerary": 74004,
  "nÄĽjÅ¡ÃŃch": 123130,
  "Ð¸ÑĩÐ½Ð¾": 122564,
  "gel": 29952,
  "ĠÐ½Ð°Ð·Ð²Ð°Ð½Ð¸Ðµ": 124268,
  "Ġrecoil": 74422,
  "ĠkÃ¶n": 42862,
  "Ġinvoke": 20466,
  ".aspect": 67079,
  "Id": 769,
  "ten": 2002,
  "/list": 21609,
  "Ġfanatic": 97899,
  "Ġhorizontal": 16600,
  "ĠKub": 63649,
  "Ġolursa": 119830,
  "Ġformidable": 54829,
  "Ġfil": 1488,
  "ĠFontAwesome": 60011,
  "ders": 12601,
  "Ġrenew": 14195,
  "Rich": 28276,
  "@example": 36587,
  "ĠUl": 16991,
  "Ġà¤Ĩà¤¸": 108992,
  "Ġvoiture": 81645,
  "Ġãģ¾": 125606,
  "ĠSurre": 55166,
  "Ġengr": 51155,
  "Ġsquirrel": 91624,
  "Ġwritings": 43422,
  "Ġarise": 31889,
  "ĠStrategic": 46661,
  "Post": 4226,
  ".render": 8914,
  "à¸¢à¸Ļ": 104298,
  "à¤¿à¤¨à¤Ł": 125784,
  ".substring": 12392,
  "ĠĠĠĠĠĠĠĠĠĠĠĠĠĠĠĠĠĠĠ": 504,
  "Tiny": 86793,
  "abc": 13997,
  "ĠMomentum": 96210,
  "Ø§ÙĨÛĮ": 100819,
  "Ã£ng": 121483,
  "ĠDeletes": 56624,
  "EFA": 124107,
  "Ele": 46439,
  "ĠGIF": 47866,
  "meric": 2165,
  "Opp": 56851,
  "èĭ±": 83947,
  "ĠLeipzig": 87647,
  "ĠIndies": 85318,
  "Ġculprit": 75283,
  "thic": 82664,
  "Head": 12626,
  "Ġvisceral": 89116,
  "iring": 6322,
  "(*(": 40603,
  "Ġupto": 81226,
  "Ġverir": 114095,
  "ìĤ¬ê°Ģ": 114333,
  "Ġruins": 46762,
  "æĸ·": 127787,
  "VK": 53880,
  ".logger": 16465,
  "Cook": 59482,
  "Features": 22043,
  "ĠThreads": 75842,
  "ĠDagger": 83283,
  "Ġofs": 59161,
  ".backend": 38287,
  ".ajax": 45686,
  "Ġdenn": 53039,
  "ĠIQueryable": 62889,
  "uplic": 10047,
  "Ġcuerpo": 63613,
  "Ġdann": 25974,
  "Ġintoxic": 72815,
  "Ġdistributes": 96835,
  "document": 6190,
  "ĠNIC": 65315,
  "Ġgenerous": 28771,
  "Ġoffended": 54221,
  "ivÄĽ": 126368,
  "SingleOrDefault": 88431,
  "ĠWolver": 59618,
  "ĠGrowing": 60780,
  ".source": 15040,
  "Brian": 51188,
  "ĠCENTER": 67092,
  "Ø·": 44735,
  "Ġbinds": 58585,
  "Ġmathematical": 37072,
  "probe": 53429,
  "PATH": 13907,
  ".Tx": 82462,
  "oplast": 92335,
  "ÑĢÐ°Ñĩ": 117993,
  "Ġchir": 71546,
  "Ġoverdue": 73626,
  "arily": 6751,
  ",//": 36575,
  "Ġrude": 47101,
  "Ġìī¬": 126010,
  "vÃ¤": 73150,
  "ĠProfit": 58882,
  "Ġcarr": 48595,
  "ozÅĻejmÄĽ": 114841,
  "rades": 60635,
  "Ġskirt": 38380,
  "Initially": 91084,
  "æĺ¯ä»Ģä¹Ī": 119294,
  "ĠÙħØ¨Ø§ÙĨÛĮ": 127391,
  "ĠlÃłn": 123095,
  "150": 3965,
  "-det": 92004,
  "Ġ'~/": 72504,
  "ĠrÅ¯": 104853,
  "SG": 7939,
  "Symbol": 15440,
  "ĠQuÃ©bec": 80288,
  "ĠÑĦÐ°Ñģ": 127004,
  "ĠMy": 3092,
  "Ġcarp": 39739,
  "Ben": 25584,
  "Ġprotester": 94434,
  "Î²Îµ": 116427,
  "ĠProjekt": 78842,
  ".Button": 6764,
  "Signals": 97759,
  "Ġbiting": 68196,
  "ç¢°": 112217,
  "Ġguides": 28292,
  "éĩįè¤ĩ": 116880,
  "Î±Îº": 121379,
  "ÑĭÑĤ": 105304,
  "(LayoutInflater": 55503,
  "ĠÐ°Ð¿ÑĢ": 115855,
  "Ġ:\"": 35738,
  "Ġyaw": 46772,
  "ĠLore": 54333,
  "Ġuninsured": 82707,
  "Ġæ¾": 119235,
  "Ġ\">Ċ": 24377,
  "Ġsteer": 49715,
  "dataTable": 67869,
  "reece": 90131,
  "åĲĲ": 118328,
  "ĠWIN": 22839,
  "ovable": 33055,
  "ĠDiana": 45509,
  "Ġincred": 9850,
  "ĠAngebot": 82120,
  "Media": 12950,
  "ÙĬÙĥÙĬ": 118281,
  "OLA": 91121,
  "ÑīÑĳ": 114891,
  "Option": 5454,
  "(cat": 54700,
  "SFML": 97123,
  "Ġ//!": 18131,
  "par": 1768,
  "Ġdelight": 18454,
  "ä¸»": 36668,
  "($\"": 18175,
  "Ġtijd": 53790,
  "Ġ'../../../../": 38549,
  "ĠGranted": 73943,
  "Ġclit": 92862,
  "Ġuntreated": 83920,
  "ÃŃr": 103343,
  "ÑĥÐ±Ð»Ð¸": 108687,
  "ĠØ¯ÙĩÙĨØ¯": 119209,
  "meer": 91025,
  "ĠAsyncStorage": 72721,
  ".child": 17990,
  "<|reserved_special_token_60|>": 128065,
  "ĠHarbor": 40282,
  "12": 717,
  "Portal": 50140,
  ";',": 48286,
  "Ð»Ð¾Ðº": 105449,
  "abilidad": 55362,
  "ĠJaneiro": 61423,
  "Ġstanza": 96536,
  "Ġà¸Ļ": 101028,
  "idea": 42877,
  "_pars": 78213,
  "SOR": 40642,
  "ancellation": 50322,
  "å¤ļå°ĳ": 115251,
  "Ġtranslators": 73804,
  "ĠsÃ»r": 97717,
  "tout": 67433,
  "Ġdiverted": 86494,
  "Ġcaz": 96185,
  "TP": 4334,
  "ĠGiuliani": 89150,
  "ĠNumerous": 86915,
  "ĉmv": 65891,
  "ĠPriv": 15801,
  "Ġmaternal": 50150,
  "_STYLE": 42875,
  "Ġdazz": 61018,
  "engin": 114958,
  "Ġghost": 20457,
  "coma": 82945,
  "Ġios": 28631,
  "693": 25298,
  "_cos": 62292,
  "ãģªãģ©": 104309,
  "itÃł": 24892,
  ">--}}Ċ": 44296,
  "xcb": 50491,
  "ĠuLocal": 82468,
  "ĠÐ´Ð¾Ð»Ð³Ð¾": 121134,
  "Ġmain": 1925,
  "ĠÑĢÐ°Ð": 25190,
  "ĠBeng": 26316,
  ".columns": 21838,
  "arResult": 60181,
  "Modes": 71135,
  "Ġinfinitely": 72600,
  "'),'": 53139,
  "(Canvas": 77399,
  "Ġguessing": 47576,
  "\\DB": 51218,
  ".PostMapping": 89640,
  "agh": 34856,
  "ĠMaison": 88983,
  "Ä±mÄ±": 102739,
  "Ġviable": 31528,
  "ĠtakÅ¾e": 112321,
  "Ġstool": 64172,
  "Ġimage": 2217,
  "Ġmisleading": 38309,
  ".FR": 95692,
  "material": 8407,
  "_component": 24297,
  "Arial": 25573,
  "-\",": 75018,
  "):-": 17628,
  "Ġdoi": 36995,
  "ä»ĸãģ®": 127177,
  "à¦°": 73358,
  "Ġbarrels": 42975,
  "_step": 12212,
  "ĠCollections": 26394,
  "--------------------------------------------------------------------------Ċ": 26972,
  "Ġinitiating": 79516,
  "Ġfetisch": 98830,
  "Ġkurum": 107150,
  ".Update": 17103,
  "Ġrules": 5718,
  ".DAY": 63616,
  "ÑģÑĤÐ²ÑĥÐµÑĤ": 117743,
  "cooldown": 91496,
  ".breakpoints": 79776,
  "ĠÐ¿Ð»Ð¾Ð´": 119916,
  "ĠÈĻi": 30434,
  "ĠRadar": 68886,
  "Ġcopyrighted": 59713,
  "ogan": 30636,
  "ĠØ´Ø±": 101087,
  ".Sockets": 93400,
  "ìĻĶëĭ¤": 114881,
  "(),": 1535,
  "Ġfilmpjes": 95430,
  "à¸±à¸ļà¸Ĺ": 110419,
  "ĠLess": 9865,
  "ĠÐ¿ÑĢÐ¾Ð²ÐµÑĢ": 69556,
  "ĠØ¨Ø±Ø®ÙĪØ±Ø¯": 116933,
  "ĠIsa": 29105,
  "Ġdisliked": 99733,
  "ÙĲÙĩ": 112257,
  "iagnostics": 19474,
  "Ðŀ": 20976,
  "ĠBT": 21795,
  "ĠJohannesburg": 86641,
  "................................": 16971,
  "ÑĪÐºÐ°": 120060,
  "Ġsia": 50989,
  "y": 88,
  "alÄ±ÅŁ": 74069,
  "Ġsco": 25661,
  "ĠAmnesty": 78796,
  "ï½ŀĊĊ": 100065,
  "ĠÐ¼ÐµÐ¶Ð´Ñĥ": 104775,
  "è¨İ": 118219,
  "Ġmiserable": 50739,
  "_Store": 93784,
  "ĠSeasons": 68300,
  "ĠsetLoading": 49689,
  "-automatic": 95573,
  "ĠGoing": 35971,
  "#for": 81517,
  "Duration": 13242,
  "Ġæ°ĳ": 114577,
  "ĠÑĤÐ¾Ð»": 109722,
  "ìķĺëĭ¤": 103211,
  "lament": 116550,
  "ĠÏĩÏģÎ®": 111804,
  "sr": 15444,
  "ĠOasis": 88391,
  "Ġproduce": 8356,
  "Ġcircus": 68124,
  "ĠAlonso": 75167,
  "Ġìŀ¡ëĭ´": 119915,
  "Ġsafe": 6220,
  "Ø¹Ùĩ": 101863,
  "ç¢¼": 118715,
  "ĠBurke": 50723,
  "_email": 9351,
  "STRUCTION": 58555,
  "Ġ}]Ċ": 29494,
  "ĠJap": 107158,
  "ĠDear": 43922,
  "æµ©": 116685,
  "Vectorizer": 96211,
  "avir": 113765,
  ".Pool": 90801,
  "Unique": 23657,
  ".writeFile": 71107,
  ".âĢĿĊ": 49216,
  "Ġdum": 63811,
  "ĠDDR": 44860,
  "Ġhospitality": 47609,
  "ĠÐºÐ»": 48446,
  ".webkit": 57720,
  "_Property": 69453,
  "ebe": 109977,
  "Ġsatellites": 47710,
  "ĠappId": 51656,
  "Ġbearer": 70871,
  "Ġmetodo": 59279,
  "ĠÐ¸ÑģÑĤÐ¾Ñĩ": 116301,
  "ãĥĩãĤ£ãĥ¼ãĤ¹": 122299,
  "Ġtabi": 121411,
  "ĠÑģÑĤÐµÐ¿": 110558,
  "/update": 30932,
  "\")))": 39559,
  "à¹Īà¸²à¸ĩà¹Ĩ": 116306,
  "ĠMax": 7639,
  "(()=>": 82385,
  "Ġ}}": 3954,
  "èĪĹ": 124750,
  "Desk": 70621,
  "/YYYY": 82222,
  "Ġ['./": 18701,
  "\\Security": 58492,
  "Ġmanuscript": 47913,
  "GLfloat": 71288,
  "_checks": 76897,
  "Ġdici": 80919,
  "ÏĮÎ´": 119728,
  "à¥ĭà¤ª": 104715,
  "ĠACPI": 71218,
  "Ġkuv": 114301,
  "otp": 49808,
  "æĸŃ": 64889,
  "à¸±à¸¡": 104593,
  "_LAT": 65341,
  "ĠForgotten": 95547,
  "izace": 120312,
  ".owner": 26772,
  "iÃŁ": 38047,
  "ĠDET": 41343,
  "ĠDiv": 8940,
  "ĠNamed": 41559,
  ".Relative": 64563,
  "kili": 118462,
  "<|reserved_special_token_175|>": 128180,
  "Ġrooting": 87438,
  "ĠIMD": 78363,
  "ĠMiner": 91012,
  "åĨħéĥ¨": 123274,
  "QUESTION": 53528,
  "TestClass": 61200,
  "antwort": 70146,
  "ĠØ¨ÙĪØ¯Ùĩ": 105611,
  "uido": 54176,
  "Ġadvis": 9819,
  "ĠÑģÐ»ÐµÐ´ÑĥÑİÑīÐ¸Ðµ": 120306,
  "ÑĩÐ°ÑģÐ½Ð¾": 126314,
  ".gravity": 87784,
  "istringstream": 83516,
  "duplicate": 64926,
  "Games": 36907,
  "Ġdots": 32094,
  "#endregion": 28110,
  "UnderTest": 85762,
  "Ð½ÑĥÑĤ": 112126,
  "à¥ģà¤ļ": 118744,
  "ÑĢÐµÐ¼Ñı": 120130,
  "/$',": 47069,
  "periments": 50732,
  "(start": 10865,
  "Ġanunci": 91933,
  "ĠÄĳÃ³n": 125168,
  ".Root": 46445,
  "Ġà¤¤à¤¹": 110656,
  ".Appearance": 28215,
  "Prince": 69032,
  "Ġlessons": 18872,
  "Jeff": 39727,
  "ĠMurphy": 31053,
  "(png": 96450,
  "ĠActivityCompat": 93544,
  "ĠÙĪØ§ÙĦØŃ": 120594,
  "Ġobserv": 9466,
  "Ġdoma": 122520,
  "@Bean": 90359,
  "ëłĢ": 123403,
  "leDb": 90606,
  "oked": 11059,
  "ĉĉĉĉĉĉĠĠĠĠ": 91175,
  "ĠdoÄŁal": 113034,
  "ĠÐ²Ð¸ÑĢÑĸÑĪ": 113004,
  "ĠstÃ¡tu": 122576,
  "ĠĠĠĠĠĠĠĠĠĠĠĠĠĠĠĠĊĠĠĠĠĠĠĠĠĠĠĠĠĠĠĠĠĊ": 60749,
  "REP": 75736,
  "voie": 88135,
  "<|reserved_special_token_169|>": 128174,
  "Ġscholar": 18640,
  "_transport": 47498,
  "ĠMemphis": 43162,
  "Sell": 69633,
  "à¤¼à¤ķ": 110328,
  "_authenticated": 66013,
  "Ġpalavra": 95747,
  "å»": 25766,
  "Ġsamostat": 119843,
  "ĠÏĢÎ¿Î»Î¹": 113309,
  "Ø¬Ø¹": 117854,
  "ĠRich": 8269,
  "ĠMarker": 40975,
  "ĠdeleteUser": 82156,
  "expectException": 88814,
  "-angle": 35481,
  "ĠAchie": 42224,
  ".vm": 39759,
  "Ġìłķë¶Ģ": 118951,
  "Ġreligion": 13901,
  "errals": 56243,
  "conn": 5259,
  ".clip": 39842,
  "DialogTitle": 97553,
  "ÙĦÙĤ": 104286,
  "Ġfoundation": 16665,
  "åĮ»åŃ¦": 126784,
  "ĠÐ´Ð¾ÑģÐ»ÑĸÐ´": 107947,
  "Ġperk": 66193,
  "_datetime": 30043,
  "ìĿ´ëĿ¼ê³ł": 110917,
  "ulia": 70845,
  "raquo": 86360,
  "abbit": 20544,
  "ĠDbSet": 32250,
  "Ġpleasantly": 82374,
  "listener": 36139,
  "(target": 8807,
  "ĠRico": 34248,
  "Ġjewish": 89238,
  "_RDONLY": 67204,
  "pliant": 60952,
  "ï¾Ł": 107275,
  "hello": 15339,
  "Ġcontributing": 29820,
  "æ³Ĭ": 117856,
  "Ġpress": 3577,
  "ÙĬÙĥ": 101562,
  "_THAT": 92694,
  "ĠWer": 36880,
  "Ġpassions": 58724,
  "ARCHAR": 28472,
  "ëĺĲ": 121509,
  "Events": 8059,
  "ÃºÄįast": 124651,
  "à¥ģà¤ķà¤¸": 127270,
  "Ġ:]Ċ": 67253,
  "ĠCunningham": 74928,
  ".ConnectionStrings": 80211,
  "yecto": 30846,
  "Ġsuburbs": 48013,
  "ICT": 15149,
  "Ġmore": 810,
  "ĠSession": 9343,
  "Services": 11271,
  "Ġbucket": 15994,
  "æľ¬": 22656,
  "ullah": 41897,
  "ĠHK": 43317,
  "ĠHit": 16261,
  "}@": 81828,
  "è¦ĭ": 91774,
  "//------------------------------------------------": 31989,
  ".evaluate": 37136,
  "Ġexotic": 39418,
  "ĠÑģÐ²ÑĸÑĤÑĥ": 115747,
  "ĠDifficulty": 56046,
  "Tá»«": 125330,
  "-billion": 70173,
  "Friends": 45443,
  "ĠVID": 85052,
  "ĠWeinstein": 56682,
  "romo": 99639,
  "ĠUnivers": 15915,
  "ĠStress": 51568,
  "å¦Ĥä½ķ": 109425,
  "éĲĺ": 125930,
  "ois": 30148,
  "implemented": 55171,
  ".Fatalf": 31862,
  "ĠCloth": 84735,
  "kiem": 88250,
  "Ġeiner": 17495,
  "@RequestParam": 95420,
  "DDD": 92461,
  "_gettime": 99321,
  "Ġé¦": 104694,
  "ĠÙĪÙĦØ¯": 118493,
  "Ġamino": 42500,
  ")]ĊĊ": 28871,
  "Ð¶": 17394,
  "ÑĸÑĶ": 114590,
  "à¹Īà¸²à¸ĩà¸Ľà¸£à¸°à¹Ģà¸Ĺà¸¨": 127783,
  "Ġnailed": 75974,
  "Ġtutar": 121097,
  "ĠTIM": 18214,
  "Ġsacrificed": 67904,
  "Ġyouths": 65062,
  "_bh": 91681,
  "(ip": 24338,
  "çĶļ": 110460,
  "amik": 124525,
  "à¥Īà¤ľ": 123114,
  "ĠÐ½Ð°Ð½ÐµÑģ": 126457,
  "Ġparfait": 86966,
  "ropolitan": 31611,
  "nowrap": 56523,
  "Unary": 95645,
  "ĠØªØ£Ø«ÛĮØ±": 122263,
  "')->": 5024,
  "_accel": 53738,
  "(sin": 90483,
  "velte": 98779,
  "ĉkey": 24555,
  "ä¸ľçľģ": 123833,
  "(\",\"": 48603,
  "obbies": 41412,
  "Ġletting": 20806,
  "lÄ±kla": 112564,
  "ĠÐ²ÐµÑī": 112981,
  "ĠÃĤu": 117643,
  "price": 6692,
  "ĠMunicipal": 45340,
  "Ġstaples": 87929,
  "\">${": 48805,
  "\\_": 76838,
  "-manager": 45996,
  "Ġee": 37443,
  "Ġvolupt": 51810,
  "ĠUnters": 92613,
  "¤æĸŃ": 80426,
  ".th": 13991,
  "Ġextensions": 20300,
  "(undefined": 44859,
  "legate": 5096,
  "\"));ĊĊ": 15276,
  "labels": 17298,
  "Ġresto": 63816,
  ".short": 27764,
  "currentTime": 68000,
  "Ġmentors": 76707,
  "'_": 37877,
  "Ġlandlord": 41247,
  ".ylim": 77835,
  "Ġindependents": 97022,
  "Ġreinstall": 92961,
  "olutions": 20813,
  "Ø§Ø²ÙĨØ¯": 127591,
  "ä¸ª": 19483,
  "/s": 2754,
  "Ġlegislation": 13543,
  "Ġshoulder": 17308,
  "(as": 38051,
  "_Count": 51875,
  "ĠAchievement": 66695,
  "Ġsolemn": 64702,
  ".US": 68772,
  "ĠBarclays": 89845,
  "je": 3841,
  "(UI": 55502,
  "Ġgerekir": 108365,
  "çİĭ": 101538,
  "Ġassez": 79380,
  "åı¤å±ĭ": 119906,
  "moduleName": 74440,
  "Ġjournalists": 23348,
  "ĠÃ¶nc": 106758,
  "ĉthis": 2090,
  "angen": 60241,
  "Languages": 60386,
  "to": 998,
  "ĠBulk": 62020,
  "DMETHOD": 33072,
  "Bool": 11482,
  "ĠAntib": 95951,
  ".âĢĿĊĊ": 2950,
  "ĉArrayList": 33358,
  "-economic": 77249,
  "ĠClintons": 93130,
  "¿Ĳ": 112200,
  "çĽĳçĿ£": 125767,
  "ë¯¼êµŃ": 108709,
  ".payment": 43134,
  "ĠAG": 15432,
  "innen": 35811,
  ".Max": 14877,
  ".Time": 16698,
  "ĠØ¨Ø±Ú¯": 107406,
  ">'Ċ": 24324,
  "Permissions": 24791,
  "ĊĠĠĠĠĠĊ": 87927,
  "ĠÐ²ÑĸÐ´Ð±ÑĥÐ²Ð°ÑĶÑĤÑĮÑģÑı": 124619,
  "itic": 49086,
  "ĠcancelButton": 45126,
  "Ġ...ĊĊ": 5585,
  "elf": 491,
  "Ġteplot": 115419,
  "ĠURLWithString": 60679,
  "Esp": 78054,
  "ĠuserManager": 66762,
  "å°º": 110261,
  "Validate": 18409,
  ")-": 7435,
  "All": 2460,
  "æľ¯": 102347,
  "Ø±Ø¶": 102593,
  "ÙĪÙĤÙģ": 126300,
  "Ġì¶": 37430,
  "ĠBerkeley": 33108,
  "ĠNez": 127701,
  "Ġgeometry": 17484,
  "Ġpristine": 66085,
  "WhatsApp": 93521,
  "FR": 10725,
  "_x": 3292,
  "_SERIAL": 55685,
  "forall": 34729,
  "isel": 66394,
  "Ġbuttons": 12706,
  "heiten": 90349,
  "Ġåº": 96622,
  "vÄĽÅĻ": 118386,
  "ĠAirlines": 35230,
  "ĠSect": 95866,
  "iling": 8138,
  "_calls": 46736,
  "ĠMirage": 99242,
  "âĳ¢": 126892,
  "minus": 39465,
  "interfaces": 30065,
  "TJ": 107995,
  ">Add": 54845,
  "ĠAcc": 11683,
  "Invariant": 77721,
  "ĠØªØ±Ø¬Ùħ": 113583,
  "à¹īà¸Ī": 120754,
  "ultural": 44547,
  "ĠDIY": 32558,
  "ĠUncategorized": 82028,
  "Ñĩ": 6148,
  "Ġà¤°à¤¨": 122517,
  "Ġseldom": 56452,
  "Ġpulp": 64188,
  ".storage": 23209,
  "Ġdisse": 34000,
  "abal": 63894,
  "Ġfourn": 81994,
  "à¥įâĢį": 103265,
  "Ġná»ģn": 108342,
  "_only": 18917,
  "Ġintentions": 34334,
  "Ġhx": 54314,
  "ãģĨãģ¡": 117591,
  "ĠDresses": 94617,
  "Ġbaud": 57922,
  "ÙĪØ¯Ø©": 111947,
  "Ġmastur": 79202,
  "ĠÐĳÐ¾Ð»ÑĮÑĪ": 126837,
  "iParam": 71008,
  ".scan": 49049,
  "Ġjanvier": 94811,
  "Ġbraces": 60291,
  "ģµ": 102839,
  "ĠâŁ¨": 43105,
  "Ġhizmet": 103066,
  "except": 11945,
  "ĠØ¨Ø¹Ø¯ÛĮ": 125909,
  ".dist": 39077,
  "_exit": 17305,
  "Rate": 11825,
  "Ġrestarting": 93624,
  "_al": 8584,
  "ĠCommittee": 10554,
  "EINVAL": 36291,
  "Ġtermin": 10415,
  "ĠNome": 59375,
  "Ġaerobic": 91490,
  "{čĊ": 1700,
  "Î¹ÎºÏĮ": 102029,
  "à¹ĩà¸Ńà¸ģ": 119636,
  "Ġunlucky": 89544,
  "ĠdefaultProps": 80397,
  "[K": 54377,
  "è¯¾": 106965,
  "Ð»Ð¸ÑĪ": 110380,
  "-category": 43958,
  "ĠMyApp": 55116,
  "agher": 64674,
  "Ġrival": 21425,
  "getPath": 51274,
  "ĠìľłìłĢ": 107200,
  "Ġexcept": 3734,
  "stants": 7031,
  "Ġpes": 18541,
  "igeria": 64817,
  "RTOS": 91444,
  "jsonData": 92903,
  "SON": 2770,
  "Ġmascot": 85765,
  "MON": 22053,
  "_CURRENT": 34038,
  "Ġmultiprocessing": 58224,
  "793": 24531,
  "ĠdataSnapshot": 65293,
  "']>": 95594,
  "/auth": 17823,
  "Ġká»³": 103475,
  "ĠApprec": 93921,
  "å¸«": 104599,
  "WWW": 46608,
  "ĠJohannes": 55205,
  "Ġpeux": 94297,
  "******čĊ": 74240,
  "Ïİ": 100352,
  "ĠÑĨÐµÐ½ÑĤÑĢÐ°Ð»ÑĮ": 117148,
  "Cap": 13199,
  "Ġproduces": 19159,
  "/lo": 107861,
  "ĠHij": 69090,
  "Ġnerd": 73287,
  "Ġunve": 28847,
  "Ġcol": 1400,
  "ĠEUR": 38188,
  "ĠalÄ±n": 103056,
  "ĠosÃ³b": 94543,
  "izando": 92958,
  "Ġminors": 49640,
  "ĠpotÅĻeb": 105095,
  "ĠKotlin": 93954,
  "evity": 52779,
  "æ³¨æĦı": 61633,
  "_REGS": 84417,
  "åĪ¶": 44416,
  "à¸´à¸Ħ": 110348,
  "ĠMartin": 11826,
  "Ġreckless": 54317,
  "ĠØªØ¬Ùĩ": 117628,
  ":UIControlEventTouchUpInside": 58928,
  "Ġnarrow": 15376,
  "buy": 20369,
  "ĠMexico": 12550,
  "arro": 82301,
  "iteli": 111395,
  "(get": 5550,
  "Patients": 86245,
  "ĠÐķÐ²": 122515,
  "Ġ(?)": 77640,
  "alet": 109149,
  "ĠRi": 52830,
  "ĠobchodnÃŃ": 122361,
  "âĢľOur": 66625,
  "Ġcarbohydrate": 67732,
  "Ø§Ø³Ø§Ø³": 127028,
  "áº·": 66862,
  "Compilation": 65602,
  "ìĿ´ëĤĺ": 106593,
  "<Cell": 99893,
  "Ġsaying": 5605,
  "Txt": 36729,
  "ĠMerc": 25145,
  "Ġà¹ģà¸¥à¸°": 101111,
  "Ġà¤ļà¤°à¤£": 127228,
  "IAM": 74807,
  "dued": 79233,
  "Î´Î¿ÏĤ": 114132,
  "ProducesResponseType": 91720,
  "_Con": 15450,
  "ĠKristen": 77214,
  "ĠØ§ØµÙģÙĩØ§ÙĨ": 120665,
  "ment": 479,
  "ĠØ§Ø¨ÙĪ": 126819,
  "à¹īà¸£": 103379,
  "Ġpleasant": 24729,
  "ikk": 30987,
  "(compact": 92460,
  "Ġdisputes": 42254,
  "Ġlá»": 100602,
  "ĠÐŁÑĢÐ¾ÑĤ": 116640,
  "Ġelectrodes": 80390,
  "Ġmischief": 95046,
  "ĠÙ¾ÛĮØ´ÛĮÙĨÙĩ": 125859,
  "Ġsor": 25551,
  "ines": 1572,
  "OrElse": 53874,
  "Motor": 34677,
  "netinet": 70799,
  "ĠthÆ°á»Ŀng": 102127,
  "iente": 13140,
  "Ġrefuses": 41716,
  "KeyId": 82443,
  "-strip": 32504,
  "PRI": 58442,
  ".WriteByte": 99126,
  "Ġcritics": 23531,
  "dech": 114814,
  "ĠíĮĮ": 56069,
  "Ġbao": 103253,
  "RES": 7157,
  "Û´Û°": 121369,
  "Ġfprintf": 9561,
  "fffffff": 83792,
  "Ġ=>'": 50907,
  "<AudioSource": 84725,
  "ëĤ¬ëĭ¤": 118436,
  "Ġmilitar": 62533,
  "Ġsaint": 36959,
  "posit": 2792,
  "ĠstÃ¸r": 75450,
  "ĠÐºÐ¾Ð»Ð»ÐµÐº": 127481,
  "Ġjog": 31225,
  "AMERA": 89009,
  "AGER": 28750,
  "ĠØ¨Ú¯ÛĮØ±": 119414,
  "íķĢ": 126361,
  "itled": 15621,
  "(parameters": 39059,
  "foobar": 51367,
  "[model": 81038,
  "ĠvÅ¡ichni": 115738,
  "800": 4728,
  "ÙĨÙĬÙĨ": 109795,
  "Ġfellow": 12637,
  "Ġmej": 20947,
  "Ġhitters": 81133,
  "Ġzw": 25398,
  "_dice": 98296,
  "fclose": 79154,
  "ĠKhan": 25273,
  "ÂĲ": 110511,
  "Ġäºĳ": 115765,
  "=['": 14314,
  ".analysis": 59297,
  "backgroundColor": 41089,
  "Ġadjusted": 24257,
  "Ġnoqa": 46721,
  "/Documents": 55830,
  "ĠSmart": 16147,
  "Ġpsik": 118710,
  "Ġabsorption": 44225,
  ".getNext": 55452,
  ".Ċ": 627,
  "abilmek": 122836,
  "ĠGrass": 41046,
  "Ø´Ø§Ùĩ": 110586,
  "_avatar": 52204,
  "file": 1213,
  "Ġcambios": 83362,
  "ĠBernstein": 82415,
  "ink": 771,
  "ĠCOMPUT": 66898,
  "Ġdeadline": 22143,
  "Ġequitable": 77109,
  "Ð¸ÑĤÐµÐ»ÑĮÐ½Ð¾Ðµ": 122955,
  "alen": 36749,
  "Mit": 55470,
  "-founder": 36927,
  "ÑĥÑİÑīÐ¸Ñħ": 119724,
  "ĠLok": 58501,
  "-navigation": 39752,
  "Ġscar": 23087,
  "ISC": 28729,
  "angible": 61186,
  "ĠAlison": 67463,
  "à¸Ļà¸Ħ": 124642,
  "hetto": 77342,
  "Mes": 60158,
  "\"/>": 13424,
  "Ġhabitual": 84820,
  "ĠTaxes": 72837,
  "ltre": 79858,
  "ĠCurtain": 84657,
  "intree": 89683,
  "ãĤĽ": 115528,
  "Ġæİ¥": 124783,
  "Ġevaluator": 70910,
  "Ġpointing": 22364,
  "assadors": 74353,
  "mPid": 84879,
  "ĠÐ´Ð¸Ñģ": 105263,
  "ç´§": 108702,
  "ĠÃĩalÄ±ÅŁ": 116217,
  "ĠÚ¯Ø§Ùĩ": 120555,
  "ĠÐ´ÑĸÑıÐ»ÑĮÐ½Ð¾ÑģÑĤÑĸ": 108747,
  "ĠcurrentPosition": 85518,
  "ĠBST": 44641,
  "Ġoui": 97507,
  "æ¢": 101862,
  "Ġhiding": 26092,
  "ĠÐ´ÐµÑı": 111955,
  "_oid": 60733,
  ".Tipo": 94039,
  "ĠSadly": 57243,
  "Ġrendre": 98054,
  "_DM": 59896,
  "ĠÎºÎ¿Î½": 126022,
  "(timer": 43992,
  "(dest": 28108,
  "Ġpentru": 27314,
  "ĠEconomic": 23362,
  "ĠWalls": 72278,
  "_DOM": 31330,
  "oog": 103062,
  "ĠÑĪÐ°Ñħ": 127560,
  "orbit": 75441,
  "ĠBearings": 65416,
  "Activate": 32342,
  "(history": 57221,
  ".jackson": 26811,
  "naires": 69663,
  "ĠÐ¿Ð¾ÐºÑĢÑĭ": 112067,
  "ĠCPA": 87377,
  "ë§Į": 73653,
  ".addEdge": 66328,
  "uffed": 41673,
  "Ġkiller": 25534,
  "Ġcompress": 25633,
  "ĠnÄĽco": 106576,
  "addin": 98106,
  "ä¼ĺåĬ¿": 120711,
  "à¹Īà¸ĩà¸Ĥ": 105696,
  "432": 16739,
  "licant": 36337,
  "ĠRepresentatives": 40845,
  ");čĊ": 741,
  "Radio": 29303,
  "ĠFunk": 40710,
  "ĠÄĳÃ´i": 112559,
  ".places": 94839,
  "EXAMPLE": 96975,
  "ĠÐ¼ÑĸÑģÑĤÐ°": 113432,
  "crm": 62838,
  "flags": 11409,
  "Ġstoryt": 41106,
  "EMON": 69470,
  "ĠØ¨Ø´": 105367,
  "ĠLud": 46270,
  "à¸Ķà¸²": 127384,
  "ĠShaun": 77371,
  "andÄ±r": 107347,
  "Ġyacc": 48464,
  "Ġtard": 62197,
  "Ġcalam": 80933,
  "åįĵ": 116450,
  "CENTER": 79550,
  "ĠMinister": 9675,
  "ĉconf": 68950,
  "ĠØ¯Ø§Ø±Ø§ÛĮ": 108769,
  "/*čĊ": 16764,
  "Ġconcept": 7434,
  "ĠArkansas": 32790,
  "Ġtofu": 80247,
  "gles": 86709,
  "ĠMetals": 93815,
  "ĠgerÃ§": 101939,
  "ayÄ±n": 105723,
  "Ġbuck": 22786,
  "ĠAX": 41811,
  "ĠRESET": 54315,
  "ÑĤÐ¾Ð³Ð¾": 126864,
  "ĠKadÄ±n": 118989,
  "Ġrab": 31674,
  "æ¬¾": 69253,
  "ÄŁÄ±na": 120341,
  "ĠHas": 11697,
  "UIAlertAction": 57539,
  "Fly": 54100,
  "ONA": 96087,
  "Ð¾ÐºÐ°": 74351,
  "ĠkÃ©o": 112517,
  "ØªÙħØ¹": 117779,
  "Ð³Ðµ": 114289,
  "worked": 71214,
  "Ħ": 226,
  "TransparentColor": 93785,
  "ĠÐ·Ð°ÑıÐ²": 108123,
  "NÄ°": 119805,
  "_TR": 6544,
  ".prof": 93605,
  "_RANK": 71106,
  "_compat": 90702,
  "ĠRabbit": 49431,
  "ĠÐ´Ð¾ÑĢÐ¾Ð¶": 126228,
  "ĠÑĢÐ°Ð·ÑĢÐµÑĪ": 123777,
  "ĠÑĥÑĩÐµÐ±": 127092,
  "Ġindir": 110262,
  "(InputStream": 83922,
  "ĠGus": 82479,
  "Ġseverity": 31020,
  "Ġtheater": 27803,
  "SS": 1242,
  "ĠLeonard": 41954,
  "/al": 53220,
  "Ġgadgets": 54475,
  "ĠÙħÙĦ": 103445,
  "ÑĩÐ½Ð¾": 103766,
  "Ġcollector": 33053,
  "fb": 11032,
  "IDI": 33372,
  "enÃ½ch": 104539,
  "Ġìĸ¸ìłľ": 122545,
  ",omitempty": 21111,
  "CALL": 26502,
  "(Input": 30873,
  "\\helpers": 44208,
  "ERICAN": 90611,
  "ĠMexicans": 97862,
  ".MenuStrip": 84860,
  "ãĢĶ": 118590,
  "allo": 37037,
  "ishi": 39476,
  "Ġcharges": 10405,
  "Ġassorted": 84542,
  "IB": 3336,
  "Advertis": 12123,
  "Ġbidder": 78631,
  "Ġbrakes": 45664,
  "ĠLabs": 41740,
  "íĴĪ": 101696,
  "ĠÐ¶Ð¸ÑĤ": 102979,
  "ĠDbType": 50331,
  "isher": 39672,
  "-ranging": 82105,
  ".MapFrom": 93368,
  "_Remove": 67943,
  "ĠParameters": 13831,
  "Ġauthorize": 37926,
  "Ace": 79795,
  "ĠGPUs": 71503,
  "ĠÙħÙĨØªØ´Ø±": 120399,
  "LP": 12852,
  "leftrightarrow": 82919,
  "_Init": 16018,
  "ĠScar": 30760,
  "Ġmoderated": 87316,
  "%'Ċ": 66961,
  "Ġsher": 35313,
  ".MinValue": 59445,
  "pack": 4853,
  "-On": 67454,
  "Border": 10921,
  "uento": 56388,
  "ĠÑģÑĥÐ´": 102358,
  "105": 6550,
  "Ġkotlinx": 28552,
  "ãĤ°": 41758,
  "Ġpreviews": 57249,
  "/com": 26149,
  "×©": 59511,
  "<|reserved_special_token_54|>": 128059,
  "ĠSAF": 85204,
  "ĠÙĦÙĦØ£": 113361,
  ".VISIBLE": 24171,
  "Ġterrorism": 24020,
  "ìĦł": 101151,
  "urther": 4004,
  "izable": 8499,
  "elite": 71391,
  "ĠIntegration": 41169,
  "Ð¶Ð¸": 108087,
  "/code": 48028,
  "ĠContentView": 95028,
  "Ġblend": 20955,
  "ĠÐ·Ð°Ð²": 93323,
  "Ġprelim": 30713,
  "acÄ±lÄ±k": 113983,
  "HAS": 79330,
  "å·¥ä¸ļ": 116788,
  "ĠÑħÑĥÐ´": 109464,
  "pur": 26047,
  "_ft": 42672,
  "Provides": 50122,
  "Ġë°ĺíĻĺ": 95979,
  "istory": 2644,
  "ĠcanlÄ±": 112742,
  "Ġintegration": 18052,
  "Ġcommas": 77702,
  "Ġenorm": 17748,
  "Ġjpeg": 55666,
  "ĠBundesliga": 85903,
  "erspective": 86191,
  "Lbl": 77909,
  "childs": 87600,
  ".vis": 9654,
  "ĠÐ½ÐµÐ¼Ñĥ": 127355,
  "737": 22039,
  "urrent": 963,
  "ulla": 35178,
  "getOrElse": 92802,
  "Ġvalores": 37252,
  "Âłs": 109403,
  ".'</": 30541,
  "ĠÐ°Ð½Ð°Ð»Ð¸Ð·": 122409,
  "/signup": 69863,
  "Ġnothing": 4400,
  "ĠÐ·Ð°ÐºÑĸÐ½": 116061,
  "ĠEur": 85477,
  "ĠDV": 52344,
  "Ã¤nn": 64068,
  "ĠÐĿÐ°ÑģÐµÐ»ÐµÐ½Ð½Ñı": 117663,
  "owa": 13780,
  "/icon": 30398,
  "prov": 44047,
  "Saudi": 88317,
  "ceu": 82230,
  "Pix": 75791,
  "ĉĉĉĉĉĉĉĉčĊ": 98414,
  "ĠngÃ´n": 119271,
  "Ġactors": 20142,
  "OWNER": 100131,
  ".scrollTop": 49646,
  "ophage": 99054,
  "]:Ċ": 10556,
  "ongs": 13483,
  "_all": 5823,
  "Ġjung": 70010,
  "ĠBigDecimal": 21267,
  "Forget": 88383,
  "Ġ(~": 31857,
  "Ġrichness": 90030,
  "\\\"\"": 58239,
  "rita": 98827,
  "Ġlays": 57622,
  "-strong": 96857,
  "ĠEmployees": 44741,
  "Ġë°ĽìķĦ": 118502,
  "kategori": 68547,
  "FK": 28096,
  "ĉindex": 27424,
  "Ġexplosions": 56506,
  "Ġ{});Ċ": 36411,
  "fade": 17976,
  "Ġlearns": 47310,
  "Ġshear": 65344,
  "mers": 23621,
  "ĠInk": 42183,
  "ÎµÏĤ": 100624,
  "ĠRem": 5031,
  "Ġcoefficients": 37929,
  "('/')[": 95873,
  "Ġcoupling": 59086,
  ".Len": 66919,
  ":true": 18752,
  "ĠìĥģíĻ©": 116492,
  "Ð½Ð¸Ðº": 70959,
  "ĠSydney": 21972,
  "ĠSAP": 37321,
  "icit": 19195,
  "ĠÑĦÐµÐ²ÑĢÐ°Ð»Ñı": 122356,
  "ĠÙħØ¨Øª": 119035,
  "-secondary": 30483,
  "emouth": 87141,
  "ĠëĮĢëĭµ": 126958,
  "å": 161,
  "]]": 5163,
  "ĠArctic": 37518,
  "@\\": 67439,
  "Compatible": 30261,
  ".OnClickListener": 15811,
  "iconductor": 52592,
  "ine": 483,
  "Roman": 62080,
  "sÃ¼z": 126290,
  "Ġdaher": 94428,
  "ĉheight": 31600,
  "ĠDOES": 58363,
  "Ġmá»©c": 104246,
  "Î¿ÏģÎµÎ¹Î¿": 127107,
  "Ġæļ": 113204,
  "rious": 84718,
  "ioso": 59548,
  "ĠSaudi": 18387,
  "åįļ": 102216,
  "è¡Ĺéģĵ": 121185,
  "ÙĲØ¨": 125395,
  "ĠIl": 7695,
  "getX": 52539,
  "jes": 21297,
  "+)": 37297,
  "ÑģÑĤÐ²Ñĸ": 118852,
  "ĠlParam": 52934,
  "Î»ÎŃÎ¿Î½": 125667,
  "à¤ī": 105011,
  "\")ĊĊ": 5240,
  "ĠMLB": 41217,
  "Meal": 81668,
  "ileaks": 85064,
  "ĠtabBar": 77881,
  "KER": 80942,
  "é©¶": 126323,
  "åĽłæŃ¤": 109491,
  "ĠBUG": 69634,
  "ĠMatSnackBar": 99609,
  "ĠWo": 28357,
  "ĠFaith": 34053,
  "ĠCONFIG": 13504,
  "_INST": 50993,
  "à¹Ģà¸Ľ": 100534,
  "íĺĦ": 102335,
  "udiante": 50763,
  "ionÃ¡lnÃŃ": 122607,
  "ĠÑģÐ¼ÐµÑģÑĮ": 123015,
  ".Ðļ": 125569,
  "(&:": 53131,
  "ĠBaseType": 89438,
  "ãĢģä¸Ń": 121270,
  "Death": 40358,
  "_del": 18519,
  "ĠJame": 93188,
  "','\".$": 60675,
  "ĠØ§ÙĬ": 101870,
  "Ġrelacion": 47105,
  "ĠiT": 12668,
  "ĠPokÃ©mon": 27719,
  "Ġinterrogation": 66365,
  "ÑĤÑİ": 125541,
  "SpaceItem": 82748,
  "à¥Ģà¤°": 101815,
  "Î¡": 100619,
  "ĠSTOCK": 83751,
  "Ġunimagin": 87212,
  "ĠRegion": 17593,
  "Ġpupil": 61072,
  "Ġmsm": 59688,
  ".values": 10883,
  "Ġentirely": 11622,
  "Ġam": 1097,
  "cer": 3913,
  "rente": 72823,
  "pecial": 3037,
  "Tai": 79094,
  "ÙĩØ§ÙĬ": 109379,
  "ampilkan": 97413,
  ")';Ċ": 43484,
  "Ġwholly": 42241,
  "'Ñı": 107671,
  ".Dataset": 80456,
  "ÑİÑīÐ¸Ð¼": 113763,
  "Å¡en": 107312,
  "Ġguys": 7752,
  "ĠBrowserModule": 38471,
  "haf": 127733,
  "Ġemissions": 20748,
  "ĠSah": 43059,
  "ĠCollect": 21153,
  "_di": 30577,
  "Contrib": 54084,
  "stdafx": 57406,
  "addle": 20741,
  "))):Ċ": 97300,
  "emit": 19233,
  "rightarrow": 20056,
  "Ġundertaking": 49326,
  ".crypto": 45223,
  "Ġvol": 4499,
  "Ġworry": 11196,
  "Ġreasonable": 13579,
  "/md": 75923,
  "_OVERFLOW": 95493,
  "apor": 21374,
  "CHAPTER": 88539,
  "Ġersten": 49258,
  "Ġmisled": 99525,
  "ĠÑģÑĤÑĢÐ°": 104472,
  "ĠsÃ¼rdÃ¼r": 111682,
  "ÙĲÙħ": 114370,
  "à¸±à¸ļà¸¡": 119306,
  "poÄį": 113406,
  "Ġlie": 10457,
  "_-_": 84200,
  "tif": 85440,
  "----": 381,
  "blem": 10329,
  "ĠQSize": 87357,
  "Ġpayments": 14507,
  "/fa": 88662,
  "Ġlegally": 26267,
  "-efficient": 73916,
  "Ġdeactivated": 84716,
  "Ġproximity": 37843,
  "soc": 58121,
  "ĠComplaint": 68538,
  "Ġdivorced": 50592,
  "æĦŁ": 99750,
  "Ġchronic": 21249,
  "ĠSymptoms": 77417,
  "à¤¹à¤°": 103247,
  "Ġpotion": 61208,
  "ÑĤÐ¾Ð²": 101531,
  "ĠSpring": 12531,
  "ÙĪØ²ÙĬØ¹": 126497,
  "Ġhealthcare": 18985,
  "Ġwatchdog": 48011,
  "tails": 41060,
  "Ä±b": 126547,
  "ĠLeben": 56497,
  "ĠØ·Ø¨ÛĮØ¹ÛĮ": 118379,
  "),": 705,
  "ĠParish": 60347,
  "Ġsezon": 116803,
  "Ġ(**": 77596,
  "xAE": 90828,
  "ĠGul": 59989,
  "JM": 90478,
  ".FileReader": 86832,
  "Ġphoto": 6685,
  "Ġoverthrow": 63331,
  "áº¥t": 52458,
  "èĭĹ": 118416,
  "sms": 42492,
  "Manchester": 75343,
  ".enum": 71283,
  "_traits": 40793,
  "Love": 29351,
  "Ġstatement": 5224,
  "ĠÑĩÐ°ÑģÑĥ": 111940,
  "Ġmanus": 35437,
  "ĠDud": 74267,
  "Ġinjection": 26127,
  "unless": 39870,
  "ĠÐ¿ÐµÑĢÐµÐ²": 105055,
  "lbl": 33098,
  "_Obj": 71772,
  "ĠUncomment": 64958,
  "Ġ[$": 25249,
  "ĠCanadian": 12152,
  "-shadow": 27964,
  "uest": 3121,
  "ĠÑģÐ²ÐµÐ¶": 119589,
  "ertos": 68219,
  "()/": 29964,
  "Ġprograms": 7620,
  "ãĥ¬ãĤ¹": 108744,
  "ï¼ĮåĬł": 125252,
  "rina": 41071,
  "andoned": 91244,
  "ire": 556,
  "utral": 14587,
  "([])Ċ": 43052,
  "essel": 36648,
  "Ġstabilized": 93163,
  "undef": 16527,
  "ĠClassics": 73415,
  "Ġblir": 58537,
  "Ġbakery": 66244,
  "ĉcursor": 57048,
  "ĠOcc": 20522,
  "Representation": 57003,
  "Ġcontingent": 59575,
  "lots": 66876,
  "æıĽ": 109033,
  "Ġginger": 44768,
  "inclu": 122420,
  "airport": 87715,
  "Ġlaundry": 35189,
  ",model": 84288,
  "UUID": 25786,
  "EEE": 33937,
  "Ġswung": 70955,
  "ĠAtkins": 97084,
  "ĠTobacco": 66210,
  "Ġabandonment": 91402,
  "parison": 36642,
  "ĠSCI": 81563,
  "Ġspace": 3634,
  "<|reserved_special_token_193|>": 128198,
  "Advertisements": 40990,
  "ÙİØ§": 104916,
  "Item": 1256,
  "Ġbam": 42404,
  "Ġfk": 63783,
  "ĠSymbol": 20185,
  "ĠRating": 19767,
  "Ly": 48412,
  "omedical": 61860,
  "à¤ľà¤¬": 127659,
  "Intialized": 82836,
  "ĠMobility": 63410,
  "ĠDiagnosis": 95452,
  "getAs": 92446,
  "ĉtb": 63942,
  "ÐºÐ¾Ð¹": 101209,
  "ĠÙĨÙĤØ¯": 119720,
  "Ðļ": 27435,
  "Ġcyber": 21516,
  "modifier": 50842,
  "Ġlubric": 54494,
  "Ġìĭł": 101327,
  "ĠChin": 49335,
  "ÏĥÏĦÎµ": 103734,
  "ãĤīãģĹ": 124949,
  "uit": 3159,
  "çĭ¬": 106063,
  "<byte": 31703,
  "inka": 75222,
  "ÏĮÎ½": 103164,
  "Ġjokes": 32520,
  "ĠDonna": 47863,
  "ĠÙħØ¹ÙĦÙĪÙħØ§Øª": 109212,
  "ìķĺ": 101760,
  "Floating": 86752,
  "ĠÐľÐ°ÐºÑģÐ¸Ð¼": 121424,
  "Ð¸ÑĤÐµÐ»ÑĮ": 56008,
  "_cou": 99863,
  "âĢ¬Ċ": 110412,
  ".But": 53701,
  "ëĿ¼ìĿ¸": 109317,
  "ĠTatto": 61192,
  "Ġaggravated": 63368,
  "340": 13679,
  "bÃŃr": 125827,
  "ĠÐ·Ð°Ð¿ÑĢÐ¾Ñģ": 70183,
  "Ġbaptism": 74927,
  "Ġjournalistic": 94800,
  "Ġguidance": 19351,
  "Ø±ÙĪØª": 119450,
  "kel": 18126,
  "à¸«": 40272,
  "thest": 61943,
  "ĠÑĢÐµÐ·ÑĥÐ»ÑĮÑĤÐ°ÑĤÐµ": 114842,
  "Ġpretrained": 81769,
  "ĠOPP": 95281,
  "ĠÎ£Ïĩ": 123291,
  ";\"></": 34337,
  ".TimeUnit": 56981,
  "_SMS": 88426,
  "Ġcran": 70637,
  "Ġreacting": 74150,
  "/board": 98530,
  "onic": 14338,
  "constitutional": 49674,
  "olumbia": 74170,
  "/power": 87796,
  "_Native": 99333,
  "ÎĻÎĿ": 109003,
  "/about": 43616,
  "prefix": 12113,
  "edis": 42925,
  "ucion": 43377,
  "ĠPlatt": 95778,
  "ĠÐ²Ð¸Ð´Ð½Ð¾": 125386,
  "ï¼ĮâĢĿ": 116249,
  "ĠProposal": 66990,
  "ĠzÃ¡kladÄĽ": 113748,
  "ĉperror": 53175,
  "ĠìĻ¸": 103807,
  "__ĊĊ": 25174,
  "/download": 34730,
  "Ġviruses": 42068,
  "Intel": 50199,
  "ĠÐ¾Ð´Ð½Ð°ÐºÐ¾": 116745,
  "_nr": 37613,
  "Ð°Ð»Ð¾Ð¼": 111145,
  "CHASE": 76259,
  "ĠcÃŃrk": 122838,
  "_MIX": 78399,
  "ĠBra": 26531,
  "Ġfirstname": 49293,
  "PictureBox": 73284,
  "pragma": 6143,
  "ĠSamples": 59450,
  "ĠÐ±Ð»": 91394,
  "Î¼Î±ÏĦÎ¿ÏĤ": 106601,
  "ucky": 10279,
  "Ġprudent": 74978,
  "Ġdcc": 92379,
  "ĠSiri": 76074,
  ">ĊĊĊ": 10586,
  "Ġnamely": 32125,
  "rÃ¡l": 126177,
  "à¸Ńà¸ļ": 101183,
  "light": 4238,
  "Ġthinner": 65355,
  "Ġë©Ķ": 52491,
  "ÐµÑī": 86610,
  "Ġpit": 20428,
  "ĠYears": 23116,
  "-public": 57571,
  "Ġsublime": 71246,
  "ĠHarding": 97593,
  "ĠRootState": 98412,
  "ĠLike": 9086,
  "ĠquÃ¡": 102759,
  "Ã¡tky": 108653,
  "Ġà¤¤à¤¸": 124564,
  "ĠCompanion": 70075,
  "ĠWare": 69834,
  "ÐµÑĨ": 101401,
  "Ġexplained": 11497,
  "ĠAstr": 39616,
  "Ġnemovit": 126616,
  "Tek": 56815,
  "ĠCommun": 57298,
  "<>();ĊĊ": 29489,
  "ookie": 9816,
  "ĠØ£Ø¬": 125896,
  "irect": 1248,
  "ĠNicht": 87517,
  "BOOLEAN": 73210,
  ".closed": 77028,
  "CLASS": 25411,
  "ĠCalcul": 32459,
  "Ġ__________________ĊĊ": 80464,
  "ĠFlam": 97957,
  "Ġaward": 10292,
  "Ã³sito": 99954,
  "Ġappointment": 18101,
  "ĠSERIAL": 71818,
  "å¥¶": 118593,
  "failure": 30039,
  "æ²Ł": 124676,
  "skip": 21247,
  "Ġrin": 54821,
  "Ġgram": 23882,
  "ĠosobnÃŃ": 120082,
  "-self": 42576,
  "ĠPastor": 59766,
  "Ġselectively": 82775,
  "_uid": 26468,
  "ĠÑĪ": 55617,
  "',{Ċ": 73043,
  "recognized": 47167,
  "Ġorden": 39488,
  "ocale": 37411,
  "_RSA": 78094,
  "Ġfavor": 4799,
  "ĠgetUsers": 78669,
  "ĠbuttonText": 88095,
  "ĠkÃ¶": 13338,
  "Ġimmigrant": 37650,
  "eder": 7442,
  "_setopt": 24441,
  "Ġdrei": 58619,
  "à¸²à¸¥": 101474,
  "Granted": 56581,
  "ĠDolphins": 54812,
  "ĠintÃ©": 57110,
  "Ð°ÑĤÑĥ": 103457,
  "executor": 81887,
  "avi": 6321,
  "engers": 15232,
  "ĠOccupation": 99452,
  "Ã¡lie": 126988,
  "osing": 14759,
  "Ó": 143,
  "fft": 30275,
  "doctype": 51239,
  "_created": 28388,
  "_NUMERIC": 85493,
  "à¸¥à¸ĩà¸Ĺ": 126464,
  "ĠÎ´Î·": 105570,
  "immune": 70155,
  "Ġford": 45728,
  "ĠCommonwealth": 38298,
  "st": 267,
  "ÂłÐ½Ð°": 123698,
  "å²Ľ": 110611,
  "Ġcommuters": 82821,
  ":num": 56368,
  "premium": 85694,
  "Ġest": 1826,
  "ancellable": 84703,
  "@register": 83760,
  "\">'+Ċ": 85186,
  "ologia": 39073,
  "cano": 69377,
  "Ð±": 10124,
  "æŃ¦": 103787,
  "Å¡lo": 110859,
  "à¹Ħà¸Ľà¸¢": 127789,
  "ĠÐ½Ð°Ð»Ð¸": 108351,
  "-post": 25414,
  "_IMAGES": 80515,
  "orarily": 97254,
  "ĉsetup": 85671,
  "link": 2125,
  "rak": 104172,
  "Ġethereum": 85622,
  "hangi": 107337,
  "Ġpregnancy": 20209,
  "ilerini": 110744,
  "à¥įà¤¯à¤¤": 113527,
  "ãĥª": 37823,
  "Ø®Ø§Øµ": 116280,
  "Ġpowerhouse": 75214,
  "Set": 1681,
  "Ġabduction": 97224,
  "ĠsÃ©rie": 47528,
  "\"/>ĊĊ": 74430,
  "('//*[@": 95611,
  "ÑģÑĭ": 57319,
  "Ġwildcard": 60204,
  "Ġ[{\"": 62853,
  "Ġformul": 82040,
  "ĠKris": 53102,
  "ÐĿÐĲ": 112869,
  "phen": 15112,
  "ĠapÃ³s": 76181,
  ".Matrix": 61531,
  "unist": 16156,
  "Pool": 10774,
  "major": 37605,
  "-up": 5352,
  "#ad": 68968,
  "caf": 69896,
  "Ġpleaded": 40001,
  "Ġinteractive": 21416,
  "ĠCorpus": 76834,
  "_vc": 74496,
  "_STATUS": 9532,
  "illa": 6374,
  "ĠQuran": 66760,
  "Ġcoordinate": 16580,
  "Ġgeri": 106276,
  "ĠkhÃºc": 126577,
  "early": 22928,
  "Ġì¡°ìĦł": 120244,
  ".SQLite": 98701,
  "Ġabsl": 89402,
  "Ġext": 1327,
  "Ġexpanded": 17626,
  "åĭ": 53508,
  "Ġ/^\\": 82057,
  "ĠResident": 60776,
  "_blue": 36091,
  "ÙĤØ§Øª": 109630,
  "BarButtonItem": 39384,
  "MERCHANTABILITY": 65869,
  "Ġpropulsion": 91228,
  "ĠArticles": 29461,
  "Ġgrandes": 38546,
  "Ġ_)": 28539,
  "ĠKush": 50275,
  "\\Mapping": 66355,
  "ĉĉĊĉĊ": 96187,
  "åģ´": 110366,
  "arga": 18405,
  "Waiting": 43204,
  "ĠDucks": 68882,
  "Ð¾ÑģÐ»Ð°Ð²": 119994,
  "male": 37576,
  "è°ĥçĶ¨": 120108,
  "ĠÐ¿ÑĢÐ¾Ð²ÐµÑģÑĤÐ¸": 123487,
  "èĩªå·±": 102099,
  "èľ": 106007,
  ".goods": 56839,
  "Yu": 90510,
  "Ġtags": 9681,
  "maz": 102705,
  "ĠUIViewController": 21447,
  "ĠLAND": 92956,
  "Ġmidnight": 33433,
  "Ġfails": 14865,
  "Ġsucks": 40199,
  "Ġversatile": 33045,
  "lug": 44313,
  "Ġrein": 15601,
  "Ġtrung": 103498,
  "ĠYani": 116232,
  "ĠÐºÐ¾Ð¼Ð¼Ñĥ": 123351,
  "wargs": 6813,
  "Ġsust": 10446,
  "Ġtbsp": 64975,
  "ĠdifÃŃc": 79965,
  "Ġyay": 98659,
  "Ġgrade": 12239,
  "acin": 40488,
  "Webpack": 54214,
  "Russian": 48807,
  "Ġmud": 27275,
  "fresh": 72408,
  "enschaft": 53128,
  "Ġhomophobic": 93518,
  "ographs": 67132,
  "ìĥĿíĻľ": 124534,
  "ĠPolar": 56996,
  "Ġ+'": 50310,
  "ande": 23775,
  "->{": 10704,
  "EI": 79882,
  "ĠBloss": 89859,
  "ÑĢÐµÐ½Ð¸Ñı": 113769,
  "ĠÑĢÑĸÑĪ": 107561,
  "ĠAppend": 30907,
  "cuador": 50362,
  "agu": 47820,
  "ĠMed": 3344,
  "ĠJas": 86216,
  "Converter": 15267,
  "Ġappreciation": 35996,
  "ĠcolorWithRed": 62280,
  "Ð¸ÐºÐ¾Ð¼": 127613,
  "ĠÐ³Ð¸Ð´": 119088,
  "acionales": 85239,
  "ĠíĨµ": 102681,
  "ĠEVERY": 45974,
  "ĠÐ¿Ð¾Ð´ÐºÐ»ÑİÑĩ": 124657,
  "-sale": 58637,
  "Ġtrh": 126836,
  "allenges": 43470,
  "_Callback": 56202,
  "-grey": 64313,
  "ĠÙĩÙħ": 100550,
  "Ġstored": 9967,
  "ĠEnemies": 61581,
  "Ġliá»ģn": 119103,
  "(itemView": 55073,
  "ĠAlien": 47847,
  ".expires": 94978,
  "Ġrecip": 25455,
  "Ġglory": 27025,
  "mana": 48576,
  "Lady": 76702,
  "Ġhad": 1047,
  "ptron": 95810,
  "$ret": 54427,
  "ĠÎ¼ÎµÎ³": 108003,
  "è¥": 115100,
  "\"};Ċ": 27788,
  "ëĳ¥": 125222,
  "ĠFatal": 66729,
  "ĠLIMIT": 10592,
  "ĠCONSEQUENTIAL": 28515,
  "nÃ©ho": 101928,
  "result": 1407,
  "/write": 65364,
  "Ø±ÙĪØ³": 108997,
  "Ġ'\".": 65150,
  "_Control": 46476,
  "ĠPeyton": 86556,
  "æĮģãģ¡": 110794,
  "ãĥ¼ãĥī": 65575,
  "ĠkrÃ¡s": 115531,
  "Gravity": 39509,
  "à¸¸à¸¢": 124824,
  "Ġbeauty": 13444,
  "Ġassortment": 56395,
  "é¡ĺãģĦ": 124730,
  "\",&": 18313,
  "licated": 14040,
  "Ġosoby": 118863,
  "ĠÙĥÙħ": 109025,
  "æ¯ĶèµĽ": 121253,
  "LayoutConstraint": 46040,
  "htt": 97436,
  "ĉread": 38143,
  "_checker": 63815,
  "Ġvolt": 16798,
  ".GetProperty": 97231,
  "Ġtong": 22076,
  "ĠsignUp": 72130,
  "fern": 79833,
  "***ĊĊ": 46906,
  "ĉargs": 32315,
  "Ġhra": 109826,
  "910": 21056,
  "çģµ": 108298,
  "message": 2037,
  "unde": 29965,
  "Fd": 75576,
  "ĠëĲľëĭ¤": 119068,
  "Î¼Î¬ÏĦÏīÎ½": 109959,
  "((Ċ": 95802,
  "ë¦Ń": 108317,
  "uze": 91311,
  "Ġbesten": 53847,
  "^\\": 25928,
  "è³ŀ": 108363,
  "ì§ĢìĽĲ": 111302,
  "ahy": 127291,
  ":\");Ċ": 25293,
  "Reddit": 61574,
  "ìłľ": 38187,
  "Ġroar": 78724,
  "preferences": 62089,
  "UPDATED": 70842,
  "Ġtrá»¯": 112958,
  "(bp": 64094,
  "Î³Î½Ïī": 117034,
  ".Movie": 64144,
  ":D": 64943,
  ".Verify": 55953,
  "ĠReco": 32562,
  "Ġcelebrity": 31544,
  "Ġviagra": 20273,
  "Ġherald": 65206,
  "igidBody": 70281,
  "Parent": 8553,
  "Ġhandsome": 44877,
  "Ġdecorated": 37109,
  "dac": 83649,
  "Ġì¶ķêµ¬": 122825,
  "Ġguideline": 73545,
  "ÏĦÎ±ÏĥÎ·": 126760,
  "oq": 108268,
  "à¸±à¸įà¸į": 109552,
  ")a": 55208,
  "Ġ${Ċ": 99624,
  "ĠÐ¾Ñī": 113574,
  "Ġjavafx": 17133,
  "Ġhasta": 29626,
  "749": 25541,
  ".getColor": 43353,
  "ĠCout": 72353,
  "ĠjsonObj": 80275,
  "ÐµÐºÑģÑĥ": 124312,
  "ImageButton": 63980,
  "alchemy": 36005,
  "Ġverschill": 92964,
  "Ġnhiá»ĩm": 103562,
  "ĠorgÃ¡n": 113534,
  ".fromLTRB": 78401,
  "ë§ĪíĬ¸": 121455,
  "Ġange": 33275,
  "\\<^": 12045,
  "Ã¤r": 14304,
  "Connecting": 64024,
  "navbarDropdown": 99411,
  "Ø§ÛĮØ´": 102016,
  "Retail": 78006,
  "ĠPeggy": 86652,
  "Ġä¸ľ": 112857,
  "_uploaded": 55511,
  "home": 5227,
  "Ġmembr": 31819,
  "ÏĦÎ·Î³Î¿Ïģ": 108846,
  "ĠÐ¿Ð¾Ð»ÑĮÐ·": 110336,
  "\"For": 57741,
  "ĸìĹĲ": 122226,
  "Ġdru": 120670,
  ",email": 64652,
  "FolderPath": 91697,
  "Ġsincer": 44149,
  "opher": 17370,
  "Âħ": 116360,
  "xaf": 55895,
  "Ġunsub": 80304,
  "Æ¡i": 101548,
  "Ð¿Ð¾ÑĢ": 115345,
  ".Keyword": 62325,
  "-functions": 78530,
  "drawer": 81227,
  ".RelativeLayout": 97758,
  "Ġviolates": 51413,
  "ĠÐ²ÐµÐ½ÑĤÐ¸": 122459,
  "isc": 3510,
  "(area": 56802,
  "Ġdomaine": 96839,
  "ĠCORE": 51283,
  "(car": 43178,
  "Ġcelery": 70121,
  "ĠÏĥ": 48823,
  "Ġeliminating": 40599,
  "definition": 18881,
  "pri": 69708,
  "æī¹": 105856,
  "itemap": 26398,
  "@$": 63160,
  "Ġconfusion": 22047,
  "eci": 76832,
  "ĠÚ©ÙĨØ§Ø±": 117330,
  "ĠValues": 26028,
  "Ġtá»ĳ": 106085,
  "Ġtemporary": 13643,
  "×ķ": 32793,
  "Ġclones": 67007,
  "Ġstrerror": 44773,
  "ĠPayne": 69595,
  "ĠRamos": 69913,
  "(define": 69647,
  "Ġeradicate": 89514,
  "_EDIT": 26162,
  "Ġroman": 48876,
  "Ġtargeted": 17550,
  "Ġdump": 10488,
  "Touchable": 70082,
  "Ġundefeated": 93576,
  "Ġenthusiastically": 99325,
  "Ġprim": 9036,
  "-used": 69621,
  "surname": 52515,
  "å·¥ä½ľ": 102301,
  "Ġdez": 71868,
  "ESSAGES": 55113,
  "Ã¸d": 75820,
  ".getS": 54066,
  "ÃĻ": 123086,
  "++];Ċ": 48957,
  "Î¿Ïħ": 73986,
  "Ġtitular": 81205,
  "(r": 2666,
  "ĠPCA": 62029,
  "124": 8874,
  "ĠisVisible": 72844,
  "ä¸įåĲĮçļĦ": 126644,
  "Ġdefa": 113322,
  "Forge": 59537,
  "ortion": 26973,
  "Ġjaws": 82356,
  "ĠLen": 25234,
  "ooth": 6627,
  "cel": 3757,
  "(message": 7483,
  "ĠArbor": 65639,
  "à¸´à¸įà¸į": 125911,
  "ĠINTERRU": 30182,
  "Ġthriving": 53414,
  "ĠBLL": 89033,
  "ÎĳÎĵ": 117281,
  "ĠINV": 68024,
  "ĠxPos": 76141,
  "neum": 126261,
  "ĠØªÙĥ": 116103,
  "Ġpercussion": 84849,
  "ĠÑģÐ¸Ð»Ð¸": 122668,
  "Ġsemantic": 42833,
  "æķ¦": 121719,
  "itte": 97773,
  "Ġpháº¡m": 105167,
  "Ġplut": 60587,
  "ĠÐ³Ð»Ð¸Ð±": 123262,
  "ĠBravo": 71823,
  "Ġpriced": 33705,
  "entai": 36230,
  "Ġsunk": 68265,
  "Ġlifted": 30831,
  "}/>": 88656,
  "sa": 9258,
  "ngle": 67330,
  "Ġsalesman": 79547,
  "Ġdemise": 58964,
  "Ġcareless": 84834,
  "Ġprefs": 37113,
  "/latest": 34249,
  ".mixin": 94610,
  "Ġpandemic": 28522,
  "éĤ®ç®±": 94668,
  "ĠvlastnÃŃ": 108973,
  "ÑĥÑĪÐºÐ¸": 118709,
  "Ġquirky": 68232,
  "===Ċ": 20168,
  "_NOTIFICATION": 55341,
  "Padding": 22344,
  "Ġfluent": 58868,
  "($)": 84557,
  "oload": 29212,
  "Ġsentenced": 30231,
  "Ġkop": 82904,
  "ĠÐłÐ¾Ñģ": 102198,
  "_SI": 95521,
  "Ð½ÑıÐµÑĤÑģÑı": 116697,
  "âĢĻyi": 122324,
  "_estimate": 79818,
  "CTIONS": 37868,
  ".AddComponent": 68451,
  "such": 21470,
  "IRECTION": 41928,
  "ãģ«ãģ¯": 102052,
  "ovanou": 123257,
  "ĠÐ³Ð¾ÑĢÐ¸Ð·": 127647,
  "ĠISP": 54533,
  "Ġĉĉĉĉĉ": 55812,
  "Ġcorresponding": 12435,
  ".INVALID": 74437,
  "ĉFunction": 88622,
  "_SELF": 39947,
  "Ø§ÛĮØª": 102172,
  "âĢĶan": 85366,
  "boxes": 22995,
  "(',": 14067,
  "ĠJsonConvert": 39967,
  "ĠÎµÎ¹": 125154,
  "Ġtwe": 14887,
  "Whatever": 47916,
  "Ġgrup": 34670,
  "Ð¾Ð¾Ð±ÑĢÐ°Ð·": 127632,
  "ÑıÐ»": 115065,
  "Ġwinding": 54826,
  "Ġridiculously": 73011,
  "âĢĻdan": 112088,
  "mont": 21047,
  "ĠvÄĽdom": 125100,
  "Stay": 39202,
  "Ġ(/": 47325,
  "Ġantidepress": 65211,
  "_buf": 10579,
  "ĠTh": 666,
  "ÏīÎ¼Î¬ÏĦÎ¹Î¿": 121985,
  "Ġticaret": 112423,
  "cedure": 13498,
  "GA": 16519,
  "byter": 72707,
  "Ġobten": 64290,
  "Ġzeit": 78258,
  "Ġ$_[": 75029,
  ".statusText": 75784,
  "Ġredund": 37673,
  "Ġcloser": 12401,
  "ìĽ": 38389,
  "Ø§ÙĤ": 100445,
  "Ge": 9688,
  "å®ŀéĻħ": 115827,
  "Ã¼ml": 125460,
  "Position": 3897,
  "Ġ[|": 82637,
  "Ġabundant": 44611,
  "Ġtell": 3371,
  "ĠitemCount": 56993,
  "Ġamazingly": 63615,
  "istribution": 13408,
  "à¤¾à¤²à¤¤": 117583,
  "Ġtempting": 61299,
  "_ANDROID": 74338,
  "ĠæĿ±": 104932,
  "zM": 66315,
  "un": 359,
  "orderby": 46857,
  "ĠExplos": 85966,
  "=out": 86098,
  "ĠÑģÐ¼ÐµÑĢÑĤÐ¸": 118336,
  "iropr": 56087,
  "ĠLind": 28318,
  "some": 15031,
  "_OWNER": 75423,
  "868": 25862,
  "\\xa": 47496,
  "').'</": 75382,
  "klÃ¤r": 78231,
  "ĠÙĨÚ©": 112918,
  "ÐĻÐĻ": 126612,
  "ressed": 14715,
  "ographers": 79454,
  ".File": 8744,
  "Ġì°¨": 103213,
  "ØµÙģ": 106641,
  "ĠØ¨Ø§Ø¨": 112275,
  "ĠExp": 7943,
  "ĠKag": 77091,
  "ĠGLOBAL": 42387,
  "âĢľ": 2118,
  "Ġweight": 4785,
  "()',": 62513,
  "RAR": 88180,
  "Ġstay": 4822,
  "à¸±à¸ģà¸ĩà¸²à¸Ļ": 110765,
  "Ð»Ð¸Ð²Ð¸Ð¹": 122056,
  "(span": 67192,
  "áº¿t": 52680,
  "ÏĦÎ¹Î½": 116723,
  ".âĢ¦": 84341,
  "libraries": 64149,
  "ĠØ¬ØºØ±Ø§Ùģ": 116480,
  "à¸µà¸Ĺ": 104751,
  "Console": 12653,
  "isRequired": 69642,
  "ĠDRIVER": 49829,
  "-desc": 53647,
  "ĠlÃ²ng": 99270,
  "itimate": 71850,
  "Ġvoyeur": 48572,
  "categories": 15865,
  "ĠkÄ±rmÄ±zÄ±": 125171,
  "Ġvoks": 93513,
  "(embed": 50825,
  "unker": 81029,
  "Ð´ÐµÐºÑģ": 122370,
  "Ġsmoking": 20149,
  "Ġ*__": 38162,
  "ĠVent": 27505,
  "Ġcandidates": 11426,
  "ĠSerum": 94591,
  "Ġnettsteder": 44832,
  "ãģªãģı": 103470,
  "ĠSov": 18348,
  "_testing": 72062,
  "à¥Īà¤ķ": 104572,
  "valor": 25817,
  "LatLng": 66022,
  "ĉupdate": 28274,
  ".TYPE": 27514,
  "`,": 7964,
  "ĠmÃ©thode": 98652,
  "_filter": 8901,
  "ĠRedux": 69111,
  "ĠdalÅ¡ÃŃch": 110539,
  ".getP": 49382,
  "ÐµÐ½Ð¾": 73281,
  "Outcome": 74480,
  "ĠBuckingham": 96011,
  "ĠÑĥ": 14257,
  "Ġcalculating": 38714,
  "Ġslo": 18067,
  "Ġdepreciation": 94189,
  "ĠkÃ¸benhavn": 45180,
  "))/(": 68095,
  "Ġcoral": 53103,
  "Ġdistinctions": 87259,
  "ĠnovÃ©": 110630,
  ".glide": 61206,
  "Attribute": 3994,
  "mÃ¡n": 126050,
  "-family": 17633,
  "ĠÐ¼Ð¾Ð¶Ð»Ð¸Ð²": 108054,
  "ĠÙħÛĮÚ©ÙĨ": 119378,
  "Ð±Ð¾Ð¼": 121476,
  "eax": 41244,
  ")}\"Ċ": 99179,
  "/team": 79115,
  "Amb": 55132,
  "Ġservidor": 58326,
  "Ġcategorie": 96919,
  "_page": 6257,
  "ĠÑĤÐ¾Ð³Ð´Ð°": 112057,
  "(Command": 42522,
  "à¤¾à¤ªà¤¸": 117528,
  "ï¼ģ');Ċ": 85998,
  "Ġnib": 31385,
  "enet": 70436,
  "ĠSPD": 63824,
  "Ġ>>ĊĊ": 58048,
  "ĠvÅ©": 119314,
  "Inlining": 82404,
  "ĠØ§ÙĦÙĪØ²": 121706,
  "ĠBare": 61892,
  "Crystal": 82038,
  "çģ½": 126462,
  "Ġresponses": 14847,
  "ĠØ³Ø§Ø®Øª": 104513,
  "ujemy": 83428,
  "extracomment": 76613,
  "ÙĦÛĮÙĦ": 105700,
  "ĠWalmart": 36867,
  "ucle": 22935,
  "Ġacre": 46323,
  "ĠÚ©ÙĨÙĨØ¯Ùĩ": 108521,
  "_hal": 53680,
  "Ġlikes": 13452,
  "Ġ*/": 642,
  "iales": 33888,
  "Ġà¤¦": 100291,
  "Ġsebep": 110454,
  "Ġflock": 49816,
  "_comparison": 91897,
  "[cur": 39266,
  "Ġdecals": 98785,
  "OnUiThread": 80012,
  "Ġhorrific": 47322,
  "Ġalgunas": 74854,
  "ÐµÐ·Ð´": 113669,
  "_VALIDATE": 65027,
  "Attendance": 88881,
  "yan": 8503,
  "STRACT": 75692,
  "Ġdissent": 47962,
  "|=Ċ": 71734,
  "GF": 37432,
  "ĠÙĪØ£ÙĨ": 127475,
  "strom": 35155,
  "ÐºÐ¾Ð²Ð¸Ñħ": 114778,
  "ĠMor": 8613,
  "PG": 11637,
  ":update": 92909,
  "SetTitle": 75773,
  "Ġneur": 21850,
  "Ġindividually": 32399,
  "=min": 62606,
  "(cursor": 28776,
  "é£¾": 117831,
  "canvas": 20538,
  "Palindrome": 69794,
  "lite": 69178,
  "æĢ": 17486,
  "xBC": 82079,
  "Ġ','.": 98780,
  "ï¼ĮçĦ¶åĲİ": 115252,
  "ĠçĶ³åįļ": 118222,
  "ĠÃ§ocuÄŁ": 124582,
  "Charge": 56463,
  "Dual": 86174,
  "_TP": 77100,
  "Ġcls": 13082,
  "ĠTranscript": 91403,
  ".lot": 98721,
  "çĶ¨çļĦ": 116958,
  "_Settings": 72869,
  "ssue": 84990,
  "ĉexplicit": 95357,
  "ĠsetContent": 69360,
  "Ġupro": 97932,
  "=M": 50782,
  "Ġdebating": 71513,
  "ĠÄĲÃł": 115357,
  ".nlm": 89488,
  ".tool": 21966,
  "tube": 74838,
  "Ø·ÙĦØ¨": 112263,
  "_Tab": 93942,
  "_latitude": 81464,
  "accum": 40031,
  "backup": 32471,
  "Ġ...": 2564,
  "Ð¼ÐµÑĤÑĮ": 116037,
  ".-": 12898,
  "Ġphotographer": 29867,
  "TOT": 66720,
  "ĠWORLD": 51991,
  "\"/": 3193,
  "ĠYÃ¼k": 112148,
  "ĠCOPY": 12528,
  "events": 12670,
  "ĠFlowers": 52645,
  "ĠTIMEOUT": 91946,
  "(\"================": 91304,
  "å°ıæĹ¶": 93636,
  "Ġsmr": 118695,
  "à¹ĩà¸ģà¸Ĭà¸²à¸¢": 123036,
  "formulario": 94593,
  "Ġjack": 26128,
  "Arrow": 27003,
  "/demo": 56260,
  "Ġdistracting": 82398,
  "Ġtercer": 89981,
  "ë¦½": 102365,
  "éĺµ": 113400,
  "BÃłi": 124659,
  "èĢĥè¯ķ": 118660,
  "ividad": 95266,
  "ViewInit": 70149,
  "ĠìłĦêµŃ": 123080,
  "ÅĻÃŃzenÃŃ": 104981,
  "praak": 80186,
  "ĠØ§ÙĤØ¯Ø§Ùħ": 112556,
  "ĠSketch": 39501,
  ".Apply": 37151,
  "ĠØ§ÙĦØ¯ÙĪÙĦ": 108990,
  "ãģŀ": 108422,
  "Ġà¤¨à¤Ī": 117569,
  "submit": 6081,
  "Ġbiáº¿n": 103436,
  "SimpleName": 42757,
  "bab": 48822,
  "ickerView": 77356,
  "ĠREF": 39129,
  "ĠRN": 46916,
  "ĠMarkt": 99417,
  "Ġhem": 17728,
  "Ġmagnitude": 26703,
  "Ġspy": 21930,
  "Ä±yordu": 107102,
  "Ġdownstream": 52452,
  "ĠTakes": 38707,
  ".APP": 55653,
  "ĠØ§Ø²Ø¯ÙĪØ§Ø¬": 118428,
  "Ġcháº·t": 121445,
  "ÐµÐ¸": 125841,
  "bag": 21946,
  "ÂłÐ¼": 122440,
  "Ġhans": 88644,
  "ĠChattanooga": 97943,
  "Ġrun": 1629,
  "ancy": 6709,
  "artial": 21564,
  "Law": 39166,
  "boy": 17627,
  "Connor": 57987,
  "])),": 70168,
  "Ġfever": 34653,
  "Ġjournals": 42780,
  "Ġabras": 59681,
  "ĠÑıÐ¹": 117935,
  "ugas": 58931,
  "_SIGN": 37827,
  "=ax": 72763,
  "<>": 21806,
  "Ġpine": 34697,
  "ĠAppState": 75991,
  "tabla": 58454,
  "ĠLESS": 76048,
  "ĠBlogs": 76336,
  "Ġapopt": 84046,
  "æºª": 117791,
  "\\\\/": 95653,
  "ĠNord": 30281,
  "Ġscreening": 23061,
  "Ġglobe": 24867,
  "Ġfue": 22800,
  "..ĊĊĊĊ": 93955,
  "ĠÐ´ÑĸÑĹ": 117100,
  ")ï¼Į": 70615,
  "isEqualTo": 33751,
  "_entry": 9255,
  "emplace": 94692,
  "Ġfino": 77230,
  "å°±": 81258,
  "Ġunsustainable": 98609,
  "ĠMarcel": 49971,
  "Ġstamped": 65139,
  "broker": 70409,
  "|(": 61116,
  "Ø§ÙĩÛĮ": 112732,
  "<<<<<<<<": 83228,
  "placeholders": 83770,
  "enic": 56989,
  "kovi": 119066,
  "ĠÑĤÑĢÐµÐ±ÑĥÐµÑĤÑģÑı": 121540,
  "ĠEIF": 28795,
  "ĠhÆ¡n": 101194,
  "Ġcollect": 6667,
  "ĠChambers": 65276,
  "âĢĮÚ©": 103569,
  "ĠReact": 3676,
  "åľ": 12554,
  "Ġprobabil": 85193,
  "Ġdonna": 38856,
  "æħĮ": 127933,
  "çĽ®å½ķ": 126878,
  "ĠmA": 99877,
  "Ġrede": 31265,
  "Ġendangered": 52356,
  "ÙĨØ§ÙĨ": 103629,
  "ÑĢÐµÐ¿": 104175,
  "AssignableFrom": 66785,
  "Iterator": 12217,
  "-figure": 100096,
  "Ġà¸«à¸¡": 114761,
  "Ġbrother": 10868,
  "bur": 11490,
  "Ø¢Ø®Ø±": 121941,
  "Ġdictates": 80330,
  "Ġpreco": 84842,
  "à¸´à¹Ģà¸¨à¸©": 112317,
  "ived": 2270,
  "ulled": 92122,
  "loop": 10719,
  "Ġcapture": 12602,
  "Ġìŀ": 16633,
  "288": 15287,
  "ĠFar": 13759,
  "Middle": 45035,
  "ĠRic": 33652,
  "Ġplayful": 57169,
  "ĠÑģÑĢÐ°Ð·Ñĥ": 111082,
  "ĠÑĢÐµÐºÐ¾Ð¼ÐµÐ½Ð´Ð°": 119692,
  ".GetById": 83274,
  "ĠDBNull": 55850,
  "ĠAnita": 76726,
  "Translated": 82116,
  "razione": 64131,
  "ĠÐ²ÐºÑĥÑģ": 112085,
  "ĠBoutique": 91217,
  "goo": 63148,
  "ĠblockIdx": 85379,
  "Ð±Ð¸Ð½Ð°": 125846,
  "Ġknobs": 90185,
  ">(_": 46709,
  "ae": 6043,
  "Ġwisely": 66713,
  "ĠCox": 39760,
  "postcode": 73538,
  "ĠAttach": 49484,
  "ĠByl": 116874,
  "ĠFEC": 93411,
  "Ð°ÑĤÑĮ": 18482,
  "ĠConspiracy": 98252,
  "ĠBhar": 67692,
  "Contain": 47622,
  "Ġå¦Ĥ": 70472,
  "Ġbend": 37920,
  "ĠnÄĽho": 120482,
  "(recv": 90594,
  "ese": 2423,
  "Ġvitality": 75716,
  "IMITIVE": 87557,
  "Ġëª¨": 55170,
  "[];ĊĊ": 42001,
  "Smooth": 84626,
  "ĠSMB": 64758,
  "Ġfayd": 112702,
  "GTK": 43164,
  "Ġelk": 77942,
  "ĉbuttons": 92309,
  "ĠÐ»Ð¾Ð¶": 111079,
  "_future": 60840,
  "Ġtimp": 77745,
  "Ġovercrow": 88204,
  "Ġquests": 50277,
  "ĠCra": 24122,
  "Ġett": 27822,
  ".IM": 49029,
  "Ġerh": 60901,
  "Finite": 77670,
  "_ADV": 75538,
  "Ġstaunch": 82721,
  "ĉEXPECT": 45076,
  "CMD": 39780,
  "oric": 27456,
  "(sid": 86864,
  "capacity": 38487,
  "ĉĠĠĠĠĠĠĠĠĊ": 90001,
  "ompson": 96101,
  "contract": 20871,
  "tiÄŁini": 111998,
  "Ġmeetup": 96257,
  "ĠZika": 82026,
  "Ø§Ø¨ÙĤ": 107146,
  "Ġsupplying": 44413,
  "\"?>Ċ": 87090,
  "ĠÙħØ§Ùĥ": 126132,
  "Searching": 69160,
  "ëıĻ": 58189,
  "ĠROLE": 70776,
  "oggle": 5328,
  "ëĬĲ": 106833,
  "Html": 13905,
  "Ġreader": 6742,
  "ĠValerie": 90357,
  "rops": 3787,
  "Reminder": 96459,
  "Ġgamer": 59018,
  "([$": 64451,
  "-around": 46716,
  "Ġquoi": 75249,
  "Ġ}},Ċ": 65495,
  "push": 9254,
  ":The": 75145,
  "ĠneboÅ¥": 120736,
  "Ġseguir": 58548,
  "kÃ³w": 94557,
  "ĠIt": 1102,
  "Ġoperational": 25605,
  "ĠdÅ¯": 103440,
  "Ø±Ùī": 122164,
  "ĠAtari": 84976,
  "Adventure": 90198,
  "Ġlyric": 69435,
  "Ġcarving": 77791,
  "ĠnÃ¡kup": 123639,
  "_hover": 54545,
  ".Controller": 30212,
  "Ġusers": 3932,
  "åħ¬åı¸": 74318,
  "/Runtime": 83736,
  "ogue": 28523,
  "lÃ¢m": 118554,
  "ĠÑģÑĤÐ°Ð»Ð°": 113486,
  "Ġspecification": 26185,
  "IFIED": 28420,
  "ĠrÃ¡p": 70838,
  "eggies": 56660,
  "Ø§Ø±ÙĬ": 101596,
  "Ġ'::": 98852,
  "ĠØ¨Ø§Ø²Ø¨ÛĮÙĨÛĮ": 116117,
  "[parent": 85309,
  "Ġboiled": 66185,
  "Ġpilot": 18178,
  "power": 13477,
  "Ġincl": 18916,
  "ÏĦÏĥÎ¹": 115642,
  "())čĊčĊ": 80289,
  "ĠyukarÄ±": 116065,
  "Ġattravers": 98407,
  "isEqual": 98986,
  "ĠBurl": 62433,
  "Ġconcerts": 47679,
  "Ġselects": 50243,
  "Ġsino": 52904,
  "ĠnháºŃn": 101627,
  "ĠFamil": 53259,
  "Ġileri": 115650,
  "ERVICE": 72698,
  "Ġtransaction": 7901,
  "_we": 47022,
  "Ġarson": 87850,
  "ĠsÃ¸ker": 93844,
  ".Sup": 39836,
  ".combine": 90390,
  "plevel": 89905,
  "ĠÎķÎ¾": 116276,
  "ĠcurrentTime": 40299,
  "han": 10118,
  "_HANDLE": 24611,
  "********": 601,
  "ĠÑīÐ¾Ð´Ð¾": 106655,
  "ctx": 3858,
  "ÃŃculos": 67111,
  "Ø§Ø¹ÙĬ": 118601,
  "æĺ¯ä¸Ģä¸ª": 122503,
  ",v": 14605,
  "lec": 35853,
  "uffle": 13511,
  "ĠÏĢ": 52845,
  "getVar": 72149,
  "ĠEsther": 84738,
  "ĠMyers": 51323,
  "KeyUp": 81854,
  "<Action": 68524,
  "ĠBurb": 92733,
  "ĠTYPES": 83425,
  "iyan": 116619,
  "Ġtarihinde": 105957,
  ".idea": 96172,
  "(field": 15944,
  "ĠmÃ¡me": 120253,
  "ĠJackets": 86664,
  "[]čĊ": 96355,
  "ĠAlam": 66050,
  "ĠìĿ´ìłľ": 113857,
  "~~~~": 10526,
  "ÂŁ": 111483,
  "Invocation": 38543,
  "LR": 20721,
  "OutOf": 32831,
  "noc": 49091,
  "#w": 16586,
  "_as": 12162,
  "reeNode": 32683,
  "ĠYelp": 86414,
  "Ġhail": 65350,
  "Ġwaivers": 92000,
  "rom": 442,
  "Ġìĭ¤íĸī": 86888,
  "Ġë¹Ħë°Ģê¸Ģ": 112936,
  "ibly": 6623,
  "ç¤¾": 61337,
  "_OscInitStruct": 97299,
  "Ġsnel": 90811,
  "Ð¾Ð»Ð¾Ð³": 100971,
  "ĠLET": 36757,
  "Ġlinger": 40609,
  "Ġprofiling": 56186,
  "à¥Ģà¤²": 103039,
  "ĠyerleÅŁ": 117489,
  "Ġdva": 107890,
  "ĠÑįÑĤÐ¾Ð¼Ñĥ": 121182,
  "ĠJSONObject": 18365,
  "Ã¡d": 100564,
  "(progress": 63579,
  "Ġpermanently": 31859,
  "Ġactivities": 7640,
  "ÏģÎ¹ÏĥÏĦ": 117285,
  "mamasÄ±": 123107,
  "Ġfractions": 65995,
  "Ġbehaving": 87657,
  "ĠMadd": 44637,
  "Ġgáº·p": 108124,
  "println": 34755,
  "ĠâĨĶ": 78750,
  "ĠÙħØ´Ø§ÙĩØ¯Ø©": 127612,
  "Ġperm": 14175,
  "Amount": 10301,
  "fur": 84001,
  "ĠCX": 49583,
  "<|reserved_special_token_16|>": 128021,
  "ĠØ±ÙĪ": 100498,
  "ì¶ķ": 106734,
  "âĢĻll": 4805,
  "åıĬ": 82317,
  "uspendLayout": 15842,
  "mic": 21914,
  "ĠUniversal": 26581,
  "Ġasympt": 97354,
  "Ġéĸ¢": 113853,
  "Benefits": 85423,
  "Ġfits": 18809,
  "Ð½ÑĨÐ¸ÐºÐ»Ð¾Ð¿ÐµÐ´": 125290,
  "Basket": 74749,
  "ĠStarted": 36912,
  "SOFTWARE": 77833,
  "Expose": 41173,
  "Evaluation": 83463,
  "Ġnullable": 13561,
  "Ġhorror": 22169,
  "sted": 24836,
  "ĠBrooks": 39119,
  "_FOREACH": 71851,
  "à¹Ģà¸§à¸Ńà¸£": 114749,
  "_CENTER": 35655,
  "Ġlivest": 42912,
  ".ManyToManyField": 79643,
  ".\",Ċ": 10560,
  "Autor": 64699,
  "ĠÑģÐº": 69471,
  "ĠartÄ±r": 112725,
  "ãĤīãģ®": 120577,
  "Ġpcb": 87340,
  "Ġautumn": 42774,
  ".spawn": 60396,
  "-plugins": 84846,
  "Ġcomputer": 6500,
  "'>$": 66975,
  ".advance": 81989,
  "Ġsitio": 48056,
  "Ġpymongo": 85876,
  "ĠsÃ¶y": 102053,
  "fone": 32441,
  ".SetFloat": 82963,
  "Ġtimedelta": 43355,
  "fps": 44528,
  "Ð¾ÑıÐ½": 108215,
  "nel": 8301,
  "Ġballistic": 60633,
  "Ø§Ø¯Ùĩ": 100715,
  "Ġdysfunction": 32403,
  "Ġthey": 814,
  "ĠgetInstance": 38986,
  "Ġcompr": 13550,
  "ĠgetFile": 63542,
  "oks": 35322,
  "Ġresign": 24509,
  "Ġheavier": 44922,
  ".chdir": 52110,
  "Ġfiercely": 79045,
  "ĠVanderbilt": 84126,
  "Ġaccompanying": 24442,
  "ĠCostume": 64789,
  "ĠGI": 49609,
  "ÑĢÑĥÐ¿Ð¿": 87221,
  "_finished": 57523,
  "ĠZimmer": 41507,
  "ILTER": 15675,
  "ÑģÑĤÐ²ÐµÐ½Ð½ÑĭÐ¹": 112144,
  "Ð¾ÑĢÐ°Ñı": 107124,
  ".crop": 77378,
  "Ġbehavioural": 88979,
  "ĠLOCATION": 66683,
  "Ä±lÄ±m": 106569,
  "ĠConduct": 50935,
  "Ġnutrit": 69714,
  "group": 4166,
  "ĠRENDER": 92888,
  "_MOUNT": 96700,
  "ups": 8772,
  "_invoice": 40325,
  "aggi": 32716,
  "ilians": 26707,
  "ĠMusik": 76510,
  "Ġindicate": 13519,
  "'/": 20788,
  "NodeId": 80306,
  ")\");ĊĊ": 67471,
  "æĪĴ": 120544,
  "ĠnejlepÅ¡ÃŃ": 113855,
  "Composer": 91167,
  "ferred": 5671,
  "Ġaffirm": 33449,
  "ĠAutos": 92652,
  "ĠMá»¹": 106035,
  "Ð°Ð»ÑĮÐ½Ð¸Ð¼": 121290,
  "ĠÃľÃ§": 125207,
  ".--": 33501,
  "Ø¹Øª": 102876,
  "(delete": 60812,
  "Ġperipherals": 91984,
  "agrant": 64587,
  "Î¸ÏħÎ½": 125769,
  "ĠChew": 90965,
  "produk": 89912,
  "ually": 1870,
  "orio": 50931,
  "ĠRec": 4158,
  "è½": 15568,
  ".kind": 37732,
  "Ġpha": 117738,
  "ĠGavin": 64495,
  "ĉhttp": 29180,
  "ĠGibraltar": 99903,
  "ĠStockholm": 53182,
  "Ġstray": 62490,
  "à¥įà¤¤à¤®": 114932,
  "ĠDem": 4829,
  "Ġpec": 31100,
  "ĠCOMMENTS": 95842,
  "Pr": 3617,
  "=UTF": 38105,
  "Ġoci": 95075,
  "ĠTun": 28556,
  "ĠktÃ³ra": 83221,
  "lÃŃd": 113861,
  "(Mock": 67536,
  "ãĥķ": 52591,
  "Core": 5501,
  "='{": 56073,
  "Ġscarcely": 80987,
  "<|reserved_special_token_14|>": 128019,
  "ĠIW": 75636,
  "ĠPaging": 97138,
  "ĠĠĉĉĉĉ": 88828,
  "ar": 277,
  "Ġobsess": 56359,
  "ĠFiat": 70399,
  ":pointer": 72240,
  "ĠYorker": 64874,
  "_pa": 56575,
  "mA": 70365,
  "ĠgÃ¬": 102931,
  "ESIS": 84466,
  "(enable": 94609,
  "Ġadvertiser": 87386,
  "Ġgáº§n": 105798,
  "944": 25687,
  "ĠDemocratic": 11650,
  "Ø¯ÙĬØ¯": 104806,
  "ĠÑĢÐµÐ³ÑĥÐ»Ñİ": 124455,
  "Ġdiversos": 95651,
  "ĠÐłÑĥÑģ": 121258,
  "çĤ¹": 28542,
  "Ġpaed": 95247,
  "ĠNorthwestern": 67363,
  "ĠÑĢÐ°Ð½": 109870,
  "hton": 65812,
  "!!!!!": 70900,
  "ĠmaÃ±ana": 96616,
  "Ġcrane": 74047,
  "Ġpass": 1522,
  "_av": 27265,
  "enaries": 85375,
  "Ġreview": 3477,
  "Ġ'../../": 6490,
  "OMP": 52707,
  "_supported": 58985,
  "äººæ°Ĺ": 126909,
  "teri": 106403,
  "Ġmeasurements": 22323,
  "Bay": 23407,
  "xDE": 80079,
  "Unavailable": 94028,
  "Ġtuition": 39038,
  "(shift": 91378,
  "ĠÅĻed": 114995,
  ".Ab": 26271,
  "Ġbá»Łi": 104458,
  "ÏĩÎµÎ¯": 126296,
  "ĠEXTRA": 66493,
  "acles": 18709,
  "annt": 94439,
  "_products": 30722,
  "SUPER": 91986,
  "ĠÎł": 100468,
  "ĠDJ": 22102,
  "MB": 8578,
  "Ġ>::": 34913,
  "(parse": 28862,
  "è¾¾": 94588,
  "Ġ([]": 36023,
  "Ġforemost": 43780,
  "ÙĬÙĦÙħ": 121670,
  "ĠPictureBox": 80749,
  "porter": 90332,
  "ely": 989,
  "é£İ": 103125,
  "ï¾ĺ": 106305,
  ".property": 25345,
  "Ġincreasingly": 15098,
  "Ġevaluating": 38663,
  ")];čĊ": 72576,
  "ĉButton": 71452,
  "ĠYES": 14410,
  "hev": 81913,
  "renc": 63934,
  "à¥įà¤µ": 100460,
  "Ġinsist": 32262,
  "Ġediyor": 108111,
  "ĠCors": 53618,
  "Ġkontrol": 97134,
  "BIND": 92896,
  "ĠëĲĺìĸ´": 117455,
  "Ġrecycle": 61843,
  "Ġelgg": 96753,
  "ĠMazda": 63042,
  "ĠÐ½ÐµÐ¿": 103439,
  "ĠÑĢÑıÐ´": 107626,
  "appen": 64860,
  "ĉĉĊĉĉĊĉĉĊ": 82148,
  "ibbon": 36180,
  "alloween": 23517,
  "ĠUITableViewDelegate": 83157,
  "__/": 48472,
  "Ġattitudes": 33726,
  "Ġerrmsg": 68145,
  "ĠAttr": 52043,
  "asl": 76466,
  "Ġfilms": 12631,
  "_exclude": 89768,
  ".alias": 64180,
  "âĢĶhe": 76929,
  "Ð¾ÑĩÐºÑĥ": 123324,
  "Ġwallet": 15435,
  "ĠTrees": 59984,
  "à¹Ģà¸Ĺ": 100898,
  "_gpio": 33101,
  "100": 1041,
  "\">ÃĹ</": 87324,
  "ĠThesis": 75097,
  "ĠëıĮìķĦ": 110110,
  "idor": 29856,
  "=?\";Ċ": 90312,
  "aty": 51071,
  "never": 37593,
  "ASCADE": 31813,
  "ĠØªÙĪØ§ÙĨÛĮØ¯": 123066,
  "stras": 59887,
  "Ġstereo": 39052,
  "ĠFail": 40745,
  "/out": 49416,
  "Ġbuffs": 72997,
  "Ġfirst": 1176,
  "Ġgarant": 40192,
  "ĠOnPropertyChanged": 50381,
  "iative": 54679,
  "<M": 34374,
  "heads": 36910,
  "court": 63858,
  "Ġmuestra": 71687,
  "ired": 2757,
  ".height": 5846,
  "amas": 29189,
  "ĠMarvin": 74626,
  "ĠcÃ©l": 84850,
  "Ġrefreshed": 66229,
  "}/#{": 96116,
  "Ġnáº·ng": 115116,
  "608": 19944,
  "doctor": 38083,
  "ĉwx": 56437,
  "ĠPolo": 73871,
  "endars": 88714,
  "ĠÙĪØ¨": 104081,
  "ĠcrÃ©d": 68292,
  "âĢĶĊĊ": 29472,
  "æĦŁãģĺ": 112391,
  "=\"-": 24900,
  "venience": 40647,
  "éªĮ": 42462,
  "RequestId": 62874,
  "ĠGoldman": 48428,
  "Handles": 67028,
  "Ġencrypt": 30725,
  "ĠPromotion": 57204,
  "ĠØ³Ø·ØŃ": 108170,
  "Ġreceiving": 12588,
  "ĠDuo": 74312,
  "ĠColbert": 79747,
  "Ø³Ùħ": 101019,
  "Ð²Ð°Ð´": 114582,
  "à¹Įà¸ŀ": 121573,
  "âĻª": 40620,
  "(piece": 83103,
  "_boundary": 55104,
  "Ġquartz": 52255,
  "ilmington": 75634,
  "pbs": 27106,
  "ĠØ¬ÙħÙĩÙĪØ±ÛĮ": 113815,
  "leo": 82863,
  "setDefault": 93274,
  "uffles": 78553,
  "Ä±ntÄ±": 106216,
  "ĠdÃ©velop": 52895,
  "-Class": 82626,
  "ë³´": 42771,
  "çº": 23043,
  "Pending": 33127,
  "ĠDoc": 22452,
  ".red": 17787,
  "Ġ(?,": 65085,
  "uÅŁtur": 113234,
  "Ġhardcore": 27702,
  "Ġdever": 88481,
  "å²¡": 106344,
  "HX": 61945,
  ".Errors": 62845,
  "ĠÐ½ÐµÐ¾Ð±ÑħÑĸÐ´Ð½Ð¾": 115764,
  "Step": 8468,
  ".tax": 69242,
  "indo": 36099,
  "(cd": 77012,
  "=\\\"%": 76659,
  "âĢĶone": 87671,
  "ĠSaÄŁlÄ±k": 118754,
  "ĠÑĤÐ¾Ð»ÑĮÐºÐ¾": 74726,
  "ĠÐ´ÑĢÐµÐ²": 115523,
  "thed": 79371,
  "/trunk": 79780,
  "ANK": 16395,
  "_BACK": 22778,
  "Ġprm": 83819,
  ".Struct": 52545,
  "_advanced": 84943,
  "REATE": 15856,
  "/value": 58642,
  "ĠManus": 96433,
  "uC": 92111,
  "(QString": 21412,
  "Ġwithin": 2949,
  "Account": 7516,
  "ĠMul": 30451,
  "oker": 10668,
  "poll": 31241,
  "ĠGMO": 67320,
  "_mas": 82741,
  "Ġmarches": 88877,
  "ĠPrescott": 91879,
  "Ġroam": 76067,
  "Ø§Ø³Øª": 100706,
  "Ġtravel": 5944,
  "ĠIMapper": 91599,
  "ĠStock": 12937,
  "hint": 47225,
  "inds": 8843,
  "Relationship": 51922,
  "Ġlá»įc": 114110,
  "Ġgiveaway": 61064,
  "ĠWard": 27738,
  "ĠMyClass": 84926,
  "Ġdzi": 52126,
  ".TABLE": 54703,
  "etÃł": 95971,
  "Ġexec": 3969,
  "Ver": 10351,
  "<|begin_of_text|>": 128000,
  "rcode": 55896,
  "Ġplaque": 61464,
  "(ag": 93837,
  "ĠØ´ÙĩØ±ÙĩØ§ÛĮ": 121431,
  "ĉĉĠĠĠĠĠĠ": 29766,
  "à¸±à¸ªà¸Ķ": 119657,
  "imports": 63988,
  "alic": 32613,
  "issional": 90680,
  "_VLAN": 94589,
  "ANTITY": 74392,
  "Ġflushing": 91632,
  "ÎŃÎ½": 104547,
  "ĠAgency": 16784,
  "Ġvibrant": 34076,
  "ÄįnÄĽ": 106034,
  "glyph": 66581,
  "(guess": 99402,
  "_MIDDLE": 87852,
  "âĩ": 127587,
  "Months": 60284,
  "ĠHaupt": 91031,
  "(CType": 35087,
  "Ġsynonyms": 86506,
  "jing": 99268,
  "ÑĦÐ¾ÑĢ": 101505,
  "Ġpersec": 38568,
  "ĠRusya": 114464,
  "ĠÐ¿ÑĢÑıÐ¼Ð¾": 116488,
  "Ġlaw": 2383,
  "(ByVal": 24437,
  "://": 1129,
  "(Mouse": 39564,
  "Bitcoin": 49387,
  "ĠFreeze": 79692,
  "Plus": 22560,
  "ĠTemplates": 19820,
  "ĠTableCell": 85470,
  ".getPassword": 53878,
  "ãĥ©ãĥ³ãĤ¹": 119930,
  "_found": 22200,
  "ìĿ´ìĹĪëĭ¤": 107675,
  "ĠÐ²ÑģÐµÐ¹": 121467,
  "Ġbh": 44089,
  "Ġquest": 2271,
  "OF": 12766,
  "POL": 50403,
  "(hash": 28680,
  "ÙħÙĪÙĦ": 107862,
  "Rod": 60207,
  "ĠRoyals": 70631,
  "699": 23459,
  "Ġpa": 7251,
  "Ġconstr": 19477,
  "Ġdelet": 19825,
  "_Server": 63420,
  "_vid": 69485,
  "Ġcondi": 87556,
  "ial": 532,
  "KL": 54083,
  "<tr": 11526,
  ".auto": 24533,
  ".TODO": 92088,
  "AVAILABLE": 74178,
  "Ġpreliminary": 33269,
  "(elements": 55746,
  ".Color": 6808,
  "Ã¢y": 100520,
  "ĉnull": 61374,
  "DIR": 12530,
  "ç´¹": 115620,
  "Ġexert": 43844,
  "Ġå¯¹": 70262,
  "INTER": 16321,
  "ĠBackend": 56360,
  "Î³ÏģÎ±": 103105,
  "iÅ¡tÄĽ": 120373,
  "DATABASE": 47599,
  "anja": 95051,
  "ĠeBooks": 95721,
  "?#": 111838,
  "<|reserved_special_token_139|>": 128144,
  "Ġstraps": 49349,
  "Ð¾Ð½Ð¸": 102221,
  "tes": 2392,
  "ĉtemp": 16679,
  "ĠÐºÑĢÐ¸ÑĤ": 117954,
  "add": 723,
  "naire": 29583,
  "_pot": 59052,
  "ÎŃÏĤ": 101040,
  "à¸Ńà¹Ģà¸¡à¸£": 119274,
  "ĠbaÄŁÄ±msÄ±z": 119333,
  "Ġshrimp": 56626,
  "Ġanatomy": 62690,
  "Ġbreed": 28875,
  "keydown": 45291,
  "Ġbullying": 45647,
  "ĠØ¢ÙĩÙĨÚ¯": 116193,
  "ĠpÃ¡r": 112820,
  "ĠØ´ÛĮÙħÛĮ": 124189,
  "(P": 5417,
  "Ġlamb": 39406,
  "Ġconnections": 13537,
  "è§¦": 109835,
  "èµĦäº§": 114637,
  "Ġjsi": 115366,
  "Ġappl": 17537,
  "_mode": 7450,
  "_TEXTURE": 17651,
  "Ġtand": 54667,
  "Ġbreathtaking": 57192,
  "ĠÐ±Ð»Ð¾Ðº": 113279,
  "connect": 6595,
  "Manager": 2087,
  "ĠConfigure": 22958,
  "=${": 12866,
  "blink": 55416,
  "].'": 96395,
  "ĠnÃ©cessaire": 100243,
  "ÑīÑĸ": 109079,
  "eliac": 95705,
  "<|reserved_special_token_149|>": 128154,
  "Ð¾ÑĢÑĥ": 108060,
  "[%": 26170,
  "Ġmagma": 64605,
  "ĠBEGIN": 22994,
  "Received": 24141,
  "STER": 39023,
  "\"default": 87291,
  "fecha": 20395,
  "ãĤ¿ãĤ¤ãĥĹ": 117809,
  "ĠTas": 45787,
  "=post": 83250,
  "{text": 84121,
  "inventory": 32193,
  "âĢĮØ§ÙĨØ¯": 107526,
  "Resolved": 66494,
  "ë¡Ģ": 109065,
  "Ġvans": 77124,
  "Collapse": 60264,
  "é©¾": 122338,
  "erring": 14782,
  ".blog": 31168,
  "lerden": 104550,
  "Î¸": 89638,
  "Ġà¹ģà¸ļà¸ļ": 122713,
  "Ð¸Ð±Ð»Ð¸": 127533,
  "Ġstruck": 17948,
  "Ġ[],Ċ": 10450,
  "ĠConsidering": 56877,
  "Vent": 77632,
  "_logged": 48433,
  "[attr": 67562,
  "ĠrequestCode": 56474,
  "IRA": 61656,
  "Ġtrous": 61128,
  "HV": 79296,
  "_Pin": 36553,
  "Ġseminal": 90773,
  "+='<": 93257,
  "ÛĮØ´ÙĨ": 125539,
  "iÐ²": 127872,
  "ĠDIC": 98860,
  "ĠDum": 65082,
  "),'": 23847,
  "Ġexcluded": 28544,
  "--+": 86994,
  "ithe": 83856,
  "ĠmÃ¡r": 81079,
  "(pm": 79877,
  "ĠÐ·Ð°ÑħÐ¾Ð´ÑĸÐ²": 123392,
  "021": 11592,
  "éª¨": 110135,
  "Ġteasing": 71463,
  "&oacute": 84383,
  "ĠtÃ©mÄĽÅĻ": 113105,
  "reno": 55983,
  "[]": 1318,
  "inerary": 52653,
  "Ġdude": 36157,
  "Ġåģ": 108837,
  "Ã¡tico": 67649,
  "ĠÐ·Ð±ÐµÑĢÑĸÐ³": 124878,
  "Ġupgrades": 32714,
  "ëĭĪìĬ¤": 123479,
  "ĉoptions": 36600,
  "à¤Ĥà¤ļ": 106433,
  "Ġë¶Ī": 102786,
  "-Ð±": 116735,
  "Ãªt": 49530,
  "ĠIsValid": 71747,
  "Ġoptimism": 54508,
  "VID": 7635,
  "Ġconspicuous": 97985,
  "chlor": 72967,
  "Ġà¤Ĭ": 107903,
  "ÎĻÎļÎĹÎ£": 121650,
  ".gb": 78362,
  "Ġpersecution": 56529,
  "Ġ\\": 1144,
  ".persistent": 97145,
  "Ġviolations": 27655,
  "ĠÐ¿ÑĢÐ¸Ð²ÐµÑģÑĤÐ¸": 124144,
  "__$": 42189,
  "linkedin": 77270,
  "ĠItemType": 74181,
  "ittal": 83223,
  "Ġmounted": 22563,
  "bih": 41216,
  "à¤¿à¤¯à¤®": 107300,
  "warm": 83697,
  "_socket": 20125,
  "Ġnorthern": 18671,
  "ĠCreate": 4324,
  "ned": 19212,
  "ĠBX": 64375,
  "ì¤": 59269,
  "Ø®Ø±": 101206,
  "ĠsetLocation": 89432,
  "à¤¹à¤®": 111195,
  "imeo": 51988,
  "\",__": 79527,
  "Nevertheless": 70788,
  "'))ĊĊ": 25863,
  "Mill": 12608,
  "Ġmad": 13088,
  "ĠBTC": 37145,
  "Ġsingled": 79973,
  ".isfile": 40047,
  "ĠDMA": 26528,
  "Ġpazar": 112565,
  "Ġlibs": 65074,
  "ĉloop": 90905,
  "Ġsit": 2503,
  "ĠÐ¡ÑĤÐµÐ¿": 124278,
  "æ°Ķ": 102146,
  "æĿ¾": 104500,
  "ĠHp": 88933,
  "ĠãĤ¨": 107748,
  "aimassage": 57050,
  "-controller": 68345,
  "input": 1379,
  "ĠâľĶ": 58256,
  "Variant": 21409,
  "Ġenlarged": 74117,
  "Ġdecimals": 59428,
  "ç¥ĸ": 111656,
  "Ġgymn": 70221,
  "istrov": 114082,
  "(CG": 58936,
  ".getLocation": 52328,
  "è´¨": 103706,
  "Ġmagnificent": 41792,
  "ĠzvÃ½": 110627,
  ".loading": 25908,
  "ÑĸÑģÑĤÑĮ": 102125,
  "Ġdonne": 21559,
  "ĠÑģÐ°Ð¼Ð¸": 111266,
  "pose": 2972,
  "_child": 17716,
  "Extras": 49282,
  ".credit": 86528,
  ".Imaging": 53962,
  "áº": 6655,
  "gravity": 71891,
  "realloc": 82690,
  "Ġlogging": 8558,
  ".Qt": 38340,
  "Ġdyst": 69110,
  "Clazz": 97515,
  "ĠØ±Ø´ØªÙĩ": 113998,
  "Ġplaces": 7634,
  "ĠHa": 14433,
  "ushi": 38174,
  "BM": 30042,
  "ĠCss": 80314,
  "cede": 95974,
  "ï½Į": 103375,
  "ĠWalton": 71509,
  "ĠĠĠĠĠĠĠĠĠĠĠĠ": 1835,
  "Ġphoenix": 90815,
  "atching": 33024,
  "(trim": 41689,
  "Ġnuma": 93194,
  "epam": 90029,
  "åıĤæķ°": 33765,
  "785": 22539,
  "(keys": 37231,
  "Ġcascade": 43118,
  "LOGIN": 54179,
  "Artifact": 86678,
  "%d": 15185,
  ",['": 67176,
  "ĠĠĠĠĠĠĠĠĠĠĠĠĠ": 1078,
  "ĠORD": 70369,
  "ĠGomez": 63398,
  "ĠLove": 10919,
  "]bool": 97536,
  "Ġarm": 6916,
  "Ġsiblings": 37783,
  "ĠÐ¢Ð¸Ð¿": 125392,
  "(Code": 80421,
  ".exec": 16153,
  "ÑĥÑīÐµÑģÑĤÐ²": 86630,
  "à¸Īà¸°à¹Ħà¸Ķ": 123091,
  ".Photo": 73199,
  "alarÄ±ndan": 125771,
  "(ch": 7672,
  "(obs": 53814,
  "ĠAMD": 25300,
  "Ġliner": 54088,
  ".JLabel": 17630,
  "ammu": 88139,
  "odom": 85867,
  "ĠEbay": 92416,
  ".\"\\": 44043,
  "rais": 41098,
  "stk": 76409,
  ".o": 14778,
  "Ġ={": 73242,
  "edia": 4596,
  "732": 24289,
  "ĠnÃ©cess": 63846,
  "ĠAbed": 99364,
  "dÃ¼k": 116042,
  "_face": 32085,
  "ĠnewPath": 97137,
  "tl": 11805,
  "(stypy": 98100,
  ".GetFileName": 64666,
  "yn": 1910,
  "_TestCase": 88829,
  "-ste": 97426,
  "esus": 43493,
  "ãĤ¢ãĥĥãĥĹ": 122060,
  "ä½©": 118434,
  "invalidate": 91935,
  "dhcp": 97320,
  "Ġrebuild": 32593,
  "-Time": 55585,
  "Ġninth": 43641,
  "Ġort": 64609,
  ",ID": 97858,
  "ĠCup": 11098,
  "ĠbezpeÄį": 109728,
  "âĹı": 45048,
  "Ġcyan": 58988,
  "Ġà¤Ĭà¤ªà¤°": 117146,
  "Ġæľª": 111724,
  "ĠDoug": 32608,
  "ĉCon": 94170,
  "æİ¥çĿĢ": 125980,
  "Ġcof": 69903,
  "section": 2879,
  "Ġextortion": 96480,
  "Ġcorp": 37566,
  ".jsp": 30196,
  "._Ċ": 26546,
  "(nx": 75426,
  "Ġseznam": 95968,
  "ĠÐ¾ÑĤÐ¿": 117695,
  "éĮ¢": 124923,
  "Ã¡ng": 100659,
  "ëłĩê²Į": 107482,
  "ames": 986,
  "Ġmediocre": 68480,
  "Ġvida": 25994,
  "illard": 67359,
  "chia": 90646,
  "_matching": 71863,
  "onal": 25180,
  "Ġfwd": 92104,
  "Ġcybersecurity": 62542,
  "pain": 92724,
  "Ð¾ÑĩÐ°ÑĤÐºÑĥ": 125549,
  "ç¨³": 113171,
  "ĠkterÃ½": 101590,
  "ìĪĺë¡ľ": 127045,
  "Ġapartheid": 93059,
  "ĠNurse": 49876,
  "ĠdÃ¹": 108116,
  "Putin": 68786,
  "Ġdwell": 44935,
  "Ġbody": 2547,
  "ÏģÎ¹Ïĥ": 107178,
  "Als": 77968,
  "ĠØ§ÙĦÙħØ¬": 108875,
  "Ð·Ð¼": 112530,
  "Ġtrue": 837,
  "present": 29844,
  "Ġchampionship": 22279,
  "(A": 4444,
  "imir": 31204,
  "Serial": 6040,
  "ertainment": 11454,
  "ĠÑĥÑģÑĤÑĢÐ°": 124872,
  "ê°ķ": 102296,
  "SEQ": 38694,
  "ĠEffective": 48023,
  "Vals": 53552,
  "Ġmomento": 31221,
  "_mult": 27386,
  "Ġsynt": 84287,
  "ĠpÅĻesvÄĽd": 123007,
  "Ġaisle": 60779,
  "rection": 31466,
  "ĠVE": 61988,
  "Ġmelted": 50459,
  "Ġpsychosis": 98147,
  "ëŀĮ": 101856,
  "obs": 5598,
  "Placeholder": 49405,
  ".Serialize": 33959,
  "stell": 42237,
  "ĠglUniform": 77210,
  "-Free": 63990,
  "ĠLafayette": 78281,
  "Ġconfess": 48466,
  "ìĪł": 102835,
  "Ġchooser": 95353,
  "Ġchoose": 5268,
  "ĠÐ²Ð»Ð°Ñģ": 105619,
  "Ġpresumed": 62357,
  "rod": 24409,
  "ĉĉĉĉĉĠĠĠ": 31517,
  "ĠÐ¿Ð¾Ð²ÑĸÐ´Ð¾Ð¼": 113874,
  "uitka": 59940,
  "ĠWarning": 27956,
  "Ġlze": 107282,
  "Ġà¤¬à¤¡": 105222,
  "NSArray": 25322,
  "Ġzombies": 48173,
  "-screen": 30360,
  "Includes": 56934,
  "Ġsuppl": 82113,
  "Ġazt": 98994,
  "ĠmÃŃstnÃŃ": 124203,
  "Ġdrank": 54244,
  "Ġtutor": 26370,
  "ĠEmperor": 35414,
  "_lista": 77486,
  "atedRoute": 28294,
  "ivre": 84595,
  "-context": 64733,
  "ĠkÃ¶ln": 93671,
  "abin": 9068,
  "ĠNavBar": 79766,
  "Ġrau": 118335,
  "=req": 85116,
  "Alter": 75390,
  "ãĤĮãģ°": 104984,
  "ĠÄĳáº£m": 104673,
  "ĠPTS": 97361,
  "ĠSahara": 89078,
  "efully": 74092,
  "Ġweeks": 5672,
  "Ġagregar": 73206,
  "ĠAlcohol": 45396,
  "Ġdischarged": 57191,
  "ummer": 63373,
  "_BIT": 11438,
  "Ġnanop": 76307,
  "ĠÅ¡tÄĽ": 121106,
  "_aliases": 91333,
  "Ġurban": 16036,
  "aters": 11796,
  "->___": 86542,
  "Ġ})ĊĊ": 9763,
  "941": 21322,
  "ĠAuto": 9156,
  "ĠASM": 66676,
  "TypeID": 93081,
  "ï¼¿_": 110662,
  "çĶ¢": 105075,
  "_filepath": 54590,
  "Ġklid": 119674,
  "rega": 39976,
  "Advertisement": 13894,
  "ĠVect": 91256,
  "ĠpraÅ¾": 122819,
  "uce": 10743,
  "Ġsuperv": 15945,
  "âĢĶand": 17223,
  "AndHashCode": 93603,
  "Ġcosta": 99802,
  "Ġkhuáº©n": 123747,
  "Ġå¹³æĸ¹": 124903,
  "Î¼ÎµÎ½": 106731,
  "Ġconditioned": 66731,
  "ĠÐºÐ²Ð°Ð´": 126973,
  "_oper": 26716,
  "ĠÏĥÎµÎ¹": 122254,
  "Ġfunciones": 84512,
  "_flash": 31325,
  "Ġcommerce": 36754,
  "Ġvarargin": 53539,
  ",next": 63729,
  "_|": 36495,
  "Ġyears": 1667,
  "ritis": 38090,
  "ĠobÄĽ": 113741,
  "(Note": 90489,
  "OMETRY": 87142,
  "ë£": 53987,
  "Ġelectronics": 31591,
  "ĉwhile": 5329,
  "ITCH": 26043,
  "ĠATTRIBUTE": 85911,
  "Ġforget": 10894,
  "aney": 82286,
  "/k": 14441,
  "Ġsteril": 66740,
  "SEG": 79859,
  "Ġsuccessful": 6992,
  ".job": 30370,
  "ìĿĢ": 34804,
  "itesse": 87960,
  "ì½ľê±¸": 119296,
  "ussia": 29578,
  "icals": 53703,
  "-wife": 83935,
  "ĠFoot": 15819,
  "Ġcrust": 40712,
  "trs": 86485,
  "ĠíĶĮëłĪìĿ´": 126697,
  "optimized": 99968,
  ".\",": 10684,
  "Ġunfolded": 76782,
  "_Il": 39663,
  "ĠMaint": 43987,
  "dt": 8207,
  "|,Ċ": 51288,
  "ĉon": 25653,
  "Ġoro": 95993,
  "ãģ«ãģĻãĤĭ": 117657,
  ".Clone": 65563,
  "Ġcelib": 78633,
  "itia": 88575,
  "Ġìĭľê°Ħ": 106243,
  ".Ð´": 123040,
  "ÏĦÎ¹ÎºÎ®": 103076,
  "ĠPsychological": 70069,
  "ĠØªÙĪÙĦ": 103677,
  "ÄŁan": 124088,
  "ĠLÃ³pez": 92075,
  "]}>Ċ": 88665,
  "Ġil": 3900,
  "Ġeser": 110318,
  "Ġï¼Ľ": 114443,
  "ĠGutenberg": 52686,
  "Ġsacrificing": 73128,
  "addGap": 24644,
  "_GL": 37800,
  "-sizing": 61451,
  "achu": 66018,
  "Ġlitt": 60642,
  "Gold": 26509,
  "ĠSabbath": 81276,
  "Ġà¸ķà¸²à¸¡": 121946,
  "utex": 9555,
  "ÃŃf": 46602,
  "ĠLunch": 56699,
  "_ROOT": 16594,
  "Ġcaregivers": 74740,
  "_PANEL": 70088,
  "Honestly": 96514,
  "Ġ{[": 46691,
  "Ġkayn": 112778,
  "ĠåĨĨ": 110398,
  "Ġhinted": 67469,
  "Ġrunes": 81018,
  "aaa": 33746,
  "Ġunix": 52966,
  "<t": 63852,
  "_menu": 10620,
  "ĠTalks": 81547,
  "idak": 61489,
  "Ġ@\"Ċ": 99788,
  "ĠâĢĭâĢĭ": 73463,
  "Desc": 11312,
  "Ġhorrend": 93840,
  "Ð²Ð°Ð²": 104165,
  "JUST": 49102,
  "Ġsmelled": 86798,
  "(z": 13476,
  "ĠSm": 4487,
  "ĠÐ¾Ð±ÑĬ": 48440,
  "vasive": 78134,
  "Ġvyu": 105280,
  "()):": 79235,
  "ìŀĲê¸°": 123056,
  "ĠclearTimeout": 54325,
  "ĠLiqu": 69618,
  "BackgroundColor": 30646,
  "apGestureRecognizer": 55714,
  "Ġmornings": 58302,
  "Ġmethyl": 79574,
  "Ġusher": 64260,
  "emies": 11288,
  ".Dev": 78711,
  "Ġvois": 100164,
  "etr": 17820,
  "ëĭĺìĿĺ": 119673,
  "ĠFinally": 17830,
  "Ġformerly": 34833,
  "\"d": 46017,
  "Ġspecify": 14158,
  ".Concat": 68699,
  "_rank": 21048,
  "ĠAwait": 99295,
  ".area": 40591,
  "Sold": 55112,
  "Ð°ÑĢÐ°": 100611,
  "Ġinmate": 67535,
  "Ġmistress": 66194,
  "Ġrejuven": 73484,
  "luÄŁu": 110084,
  "ĠSonuÃ§": 122716,
  "ĠiPhones": 73165,
  "ĠprojectId": 42796,
  "Ġweir": 98086,
  "Ġtransmissions": 92096,
  "ï¼Įä½Ĩæĺ¯": 113673,
  "Backup": 57345,
  "Ġquotient": 75862,
  "Ġtolerance": 25065,
  "ĠÐºÐ°ÑĢ": 102899,
  "_CONTROL": 24607,
  "Ġcompartir": 82846,
  "ĠKuwait": 57111,
  "711": 22375,
  "éº¦": 114452,
  "à¸Ħà¸£à¸Ńà¸ļ": 125614,
  "xls": 60620,
  "Ġtau": 32923,
  "ĠYÃ¶netim": 119362,
  "rror": 1298,
  ",status": 62718,
  "Ġê²ĥëıĦ": 124859,
  "Ġagree": 7655,
  "Ġdread": 36075,
  "ĠÑĤÑĢÐ°Ð½": 104875,
  ".rev": 70473,
  "ĠÑįÐ»ÐµÐºÑĤÑĢÐ¾Ð½": 127472,
  "phon": 52801,
  "Ġoccurrences": 57115,
  "Ġè¦ģ": 113477,
  "BOX": 23892,
  "ancers": 32842,
  "ĠTall": 42202,
  "âĺ": 18107,
  "à¸Ħà¸§à¸²à¸¡": 101059,
  "Ġkhuyáº¿n": 121000,
  "/*ĊĊ": 50860,
  "tip": 13446,
  "ĠOrchard": 84252,
  "/re": 10991,
  "ĠGV": 81900,
  "ĠÐºÑĸÐ»ÑĮÐºÐ¾ÑģÑĤÑĸ": 127717,
  "ÑĤÑĮÑģÑı": 100502,
  "Ult": 44584,
  "devices": 48066,
  "levator": 80300,
  "ĠãĤµ": 106773,
  "ĠÐ½Ð¾ÑĢÐ¼": 104627,
  "$query": 16212,
  "Ġmentality": 49395,
  "vailable": 109494,
  "Ġonwards": 60525,
  "Ġ\\<": 4544,
  "ĠãĢĢãĢĢãĢĢãĢĢãĢĢãĢĢãĢĢ": 110028,
  "ĠRepresentative": 38366,
  "Ġ/////": 65111,
  "tica": 83055,
  "Ġgeld": 43019,
  "race": 42283,
  "ucursal": 83330,
  "ĠHairst": 89415,
  "Ġpassages": 47869,
  "Ġtolerate": 50134,
  "Bow": 87792,
  "Ġ!==": 4475,
  "Ġobtaining": 19546,
  "amarin": 31138,
  "Ġabout": 922,
  "ĠCString": 58056,
  "ĠØ®ØµÙĪØµ": 110199,
  "ĠStap": 63606,
  "ĠÎ»Î±": 115735,
  "atto": 17173,
  "qc": 60933,
  "Ġranked": 21682,
  ",in": 54788,
  "ÙĪÙĨÙĩ": 102631,
  "stitutions": 93778,
  "Ġprohibition": 50967,
  "Ġascending": 36488,
  "voir": 35573,
  "ĠëĬ¥": 122298,
  "ãĥĢ": 99959,
  "_counters": 86732,
  "ĠCancellationToken": 38337,
  "-owned": 29799,
  "Ġfreezes": 94477,
  "ĉbit": 81080,
  "Ġabrasive": 94804,
  "Ð¾Ð»Ð¾ÑĤ": 110069,
  "ìŀ¥ìĿ´": 114784,
  "Ġcoded": 47773,
  ".d": 962,
  "(':')[": 92628,
  "Ġdistur": 26412,
  "affected": 32157,
  "ĠDIST": 37203,
  "Ġevolve": 38680,
  "ĠĊ": 720,
  "ÄŁinden": 113893,
  "ActionCode": 90041,
  "_letter": 47217,
  "Ġfirewall": 50977,
  "Ġjuven": 99545,
  "((_": 70322,
  "á½¸": 112964,
  "Ġsoaring": 69997,
  "Ġsuffered": 16654,
  "ĠÐ±ÑĥÐ»Ð¸": 105387,
  "Ġgit": 16749,
  ",mid": 90867,
  "fire": 11029,
  "(el": 19096,
  ",âĢ¦ĊĊ": 77479,
  "ĠìĹĨìĸ´": 126781,
  "ĉwait": 49850,
  "\":": 794,
  "Ġbriefly": 27851,
  "266": 15999,
  "Ġdumping": 61682,
  "asher": 34867,
  "ptive": 54835,
  "ĠRecent": 35390,
  "Ã¼nÃ¼n": 106580,
  "quete": 61454,
  "Ġì½Ķë¡ľëĤĺ": 124141,
  "dependency": 54790,
  "Ġstretch": 14841,
  "ĠSabha": 87564,
  "passes": 95423,
  "âĢĻelle": 98134,
  "Ġpiece": 6710,
  "Ġseasons": 15956,
  "fram": 92604,
  "illin": 61597,
  "ĠStretch": 61205,
  "äºĮ": 41920,
  "ventory": 7371,
  ".aws": 36266,
  "Ġinteracting": 45830,
  "Ġusually": 6118,
  "erto": 14200,
  "Ø±ÙĪØ²": 107320,
  "ĠÂłÂłÂł": 120368,
  "swers": 9596,
  "-Men": 50559,
  "ĠMis": 33659,
  "ForRow": 97321,
  "ĠDia": 66403,
  "ĠBooks": 18312,
  ".bit": 31199,
  "Ġparticipated": 31408,
  "Spring": 26208,
  "svm": 97351,
  "ĠØ¯Ø§Ø´": 102200,
  "ĠcelÃ©": 113555,
  "å¤¢": 113871,
  "_negative": 54965,
  ")'],Ċ": 87403,
  "_frame": 9106,
  "ĠÐ¤": 67891,
  "ÐµÐ½Ð¸ÑıÐ¼Ð¸": 122319,
  ".Cursor": 31029,
  "ĠFirefox": 27018,
  "Ġarchitectural": 43563,
  "Ġbisher": 97142,
  "menin": 111127,
  "à¤ĩà¤¸à¤ķ": 126701,
  "Henry": 64463,
  "especially": 36046,
  "Ġconfined": 45408,
  "Ġeauto": 51373,
  "ĠCrack": 56045,
  "Ġese": 42918,
  "ĠÐļÐ¸ÑĹÐ²": 112231,
  "é²ģ": 111004,
  "(Member": 89381,
  "ĠonComplete": 56346,
  "allele": 95620,
  "atted": 12400,
  "Ġcontinents": 66959,
  "ĠHawks": 57712,
  "Ġpreempt": 82847,
  "Ã¡z": 60921,
  "ĠKV": 85748,
  "ÙĪØªÛĮ": 111713,
  "Ġznovu": 111780,
  "ĠÏħÏĢÎ¬ÏģÏĩ": 115356,
  "ĠExtra": 26041,
  "})\"Ċ": 93449,
  "ĠØ§ÙĦÙĨØ¸Ø§Ùħ": 123174,
  "ĠBo": 2577,
  "ĠRing": 22249,
  "UCH": 30593,
  "(Messages": 81640,
  "à¥ģà¤®à¤¤": 123620,
  "ĠÐ²Ð¸Ð³Ð¾ÑĤÐ¾Ð²": 127497,
  "Ġdut": 10249,
  "Ġloser": 59991,
  "Ġdiscouraged": 64770,
  "ĠSamuel": 33007,
  ".lin": 65610,
  "ĠSH": 6570,
  "ĠAluminum": 46953,
  "_updates": 58929,
  "]+\\": 67427,
  "ĠDefined": 69946,
  "Ġverwenden": 80651,
  "calc": 27684,
  "ĠSpecifically": 45863,
  "/small": 97916,
  "Ġclimax": 71295,
  "_Abstract": 75472,
  "&id": 43721,
  "ÙĢÙĢÙĢÙĢÙĢÙĢÙĢÙĢ": 115152,
  ".addView": 58188,
  "åłĨ": 125985,
  "ĠMavericks": 87256,
  "ĠFetchType": 78282,
  "ãģĦãģ¦": 102532,
  "(browser": 52920,
  "carry": 74865,
  "Ġlosses": 18151,
  "ĠbÃŃl": 123466,
  "profile": 5478,
  "Ġestablish": 5813,
  "Ġbillions": 33151,
  "ĠFinds": 51730,
  "Dan": 39125,
  "//*": 22132,
  "çĽŁ": 107808,
  "ĠSerialization": 73134,
  "Ġsteel": 9699,
  "NOT": 14394,
  ".uuid": 32247,
  "-cost": 41238,
  ".setContentType": 65709,
  "ï½°": 103118,
  "Ġvested": 79051,
  ".cvtColor": 55639,
  "ĠExecutors": 96193,
  "dr": 3696,
  "multiply": 65748,
  "ElementException": 63838,
  "Ġpowerful": 8147,
  "Ġstrikes": 23170,
  "ĠéŁ³": 119399,
  "ĠFritz": 91083,
  "remainder": 78481,
  "ĠÐ¼Ð°ÑĢ": 104325,
  "point": 2837,
  "Ġcompressed": 31749,
  "ousse": 46651,
  "Ġcoatings": 92025,
  "restrict": 28998,
  "ĠMemories": 87716,
  "-employed": 88984,
  "ĠKer": 36258,
  "-ro": 53034,
  "ategory": 2074,
  "/am": 56517,
  "Ġout": 704,
  "è¾ĥ": 105842,
  "ĠBryce": 84124,
  "President": 27229,
  "æľĢ": 32335,
  "ìĿ¸": 32428,
  "'It": 75750,
  "-Origin": 52736,
  "fragistics": 54725,
  "ĠDETAILS": 78096,
  "Ġability": 5845,
  "oran": 55504,
  "_DAYS": 90356,
  "fasta": 95566,
  "Ġpolling": 31744,
  "ĠNgÃ¢n": 121758,
  "Ġult": 8675,
  "ĠDul": 63715,
  "tings": 2110,
  "'}}>": 78982,
  "Credit": 34593,
  "Ã½": 20195,
  "ĠÙħÙĤØ§ÙĦÙĩ": 108805,
  "å¸¦": 103652,
  "Ġappreciate": 15763,
  "ĠNah": 73088,
  "_Public": 75005,
  "Ġencryption": 26542,
  "xlsx": 66345,
  "Ġlobbyist": 91569,
  "Ġthreesome": 70064,
  "Ġcommunication": 10758,
  "Ġcritique": 43665,
  "lob": 1718,
  "-à¤ª": 116423,
  "ç§ģãģ®": 127880,
  "Ġspray": 23749,
  "lx": 32547,
  "frag": 34298,
  "jest": 50115,
  "ĠìĦ¤ìłķ": 66980,
  "Ġoccult": 74926,
  "ĠThornton": 79334,
  "Ġ});ĊĊĊĊ": 82867,
  "ĠMotorola": 63590,
  "powers": 78404,
  "(prod": 84427,
  "Ġáº£nh": 102620,
  "agnostics": 15920,
  "ĠFilm": 17042,
  ".CON": 31297,
  "ĠLeban": 32324,
  "Ġsene": 125111,
  "_scroll": 42507,
  "ĠXiao": 66690,
  "ÐµÐ»": 12394,
  "Ġinfancy": 86617,
  "Ġjin": 102309,
  "ĠprostÄĽ": 123220,
  "heiro": 60577,
  "ĠSugar": 32019,
  "dl": 8910,
  "_PAIR": 66865,
  "yny": 57504,
  "ĉEditor": 78451,
  "(info": 14542,
  "Ġë´": 106562,
  "ĠEstonia": 69462,
  "enas": 28043,
  "âĢŀØ¸": 113316,
  "ponsive": 14555,
  "macÄ±": 127281,
  "Ġazure": 77630,
  "Ġpartes": 81282,
  "Ð¸Ð´ÐµÐ½ÑĤ": 114653,
  "ispecies": 107251,
  "Ġforestry": 88134,
  "oÄŁun": 106501,
  "uben": 77067,
  "çĩĥ": 114887,
  "Ġpercentage": 11668,
  "æ¸Ľ": 114485,
  "ĉĉĉĉĉ": 1164,
  "IV": 3166,
  "Ã¡s": 7206,
  "Ä±n": 16507,
  "Ġlash": 98381,
  "arakter": 112913,
  "declare": 18978,
  "ĠsetSearch": 86782,
  "Ġtaxed": 72515,
  "Ġprogramma": 98239,
  "overflow": 21490,
  "ĠÎ¶Ïī": 115544,
  "Ġinhabited": 70598,
  "ĠMJ": 62045,
  "303": 13236,
  "emia": 22689,
  ".grey": 40172,
  "<IEnumerable": 49501,
  "$,": 55976,
  "Ġqueue": 7325,
  "Ġmanifest": 14794,
  "heart": 18207,
  "ulner": 59501,
  "ĠpÃ¡gina": 47401,
  "imizer": 42799,
  "]]></": 89782,
  "ĠSÄ±nÄ±f": 122813,
  "à¸±à¸ļà¸Ľà¸£": 122982,
  ".Err": 28962,
  "Ġprostoru": 126122,
  "ë·": 111368,
  "(decimal": 72200,
  "SENSOR": 99330,
  "Ġaltro": 93017,
  "ĠÐ¿ÑĢÐ°Ð²Ð¾": 107540,
  "ised": 4147,
  "ordering": 52969,
  "Ġnarciss": 58298,
  "_books": 74184,
  "_rc": 31399,
  "Ãĩ": 47013,
  "keep": 13397,
  "Routing": 25730,
  "Ġregulating": 58499,
  "Ġkendisine": 115876,
  "ĠWerner": 80835,
  "ĠHansen": 58253,
  "Ġè¿ŀ": 123116,
  "/ge": 69848,
  "ĠWorkflow": 61273,
  "Ġnavy": 45874,
  "$r": 44060,
  "module": 4450,
  "Ġwizard": 35068,
  "Ġusado": 98443,
  "ÏħÎ½Î±": 106343,
  "nosti": 74952,
  "Ð¢Ð°": 117608,
  "Ġpurposes": 10096,
  "-view": 23318,
  "acements": 34178,
  "_drop": 30684,
  "à¹Īà¸Ńà¹Ħà¸Ľ": 120880,
  "/windows": 76449,
  "ĠÙģÙĪØ±": 114747,
  "scopic": 58510,
  "Ġsam": 10167,
  "@testable": 86861,
  "Ġtl": 30896,
  "eyi": 102670,
  "Ġâĵĺ": 90900,
  ".shapes": 100081,
  "ĠPizza": 35918,
  "Ġall": 682,
  "Ġdisciple": 84795,
  ">('": 68738,
  "ãĢģæĸ°": 121453,
  "<|reserved_special_token_121|>": 128126,
  "ĠëĦ¤ìĿ´íĬ¸": 108991,
  "cdr": 65270,
  "ĠtÃŃn": 106414,
  "enge": 6443,
  "PRE": 17809,
  "Ġlocating": 72991,
  "ĠSaddam": 67447,
  "(actual": 30821,
  "Ġupgrading": 47035,
  "ĠSÄ±": 122769,
  "(inst": 36787,
  "STM": 36949,
  "ĠCycle": 42392,
  "ĠCaribbean": 35374,
  "Ġcushions": 68241,
  "Ġtrek": 45688,
  "ĠðŁĺīĊĊ": 82536,
  "irthday": 20546,
  "Ġcst": 94904,
  "ĠJW": 96576,
  "à¸Ħà¸ĵà¸°": 119649,
  "è¦³": 114181,
  "Ġwashed": 38593,
  "Ġbit": 2766,
  "çŃĸ": 105226,
  "ĠPradesh": 43458,
  "ĠAlexis": 60061,
  "/Login": 55903,
  "Ġcháº¯c": 109910,
  "setSize": 98007,
  "Ġ=='": 62907,
  "ILES": 47078,
  ".ops": 47878,
  "allee": 54482,
  "ilename": 4123,
  "otland": 78211,
  "hive": 89668,
  "_initializer": 37562,
  "ĠÑĦÑĥÐ½ÐºÑĨÐ¸": 55813,
  "_fix": 37160,
  "Ġconsuming": 35208,
  "ĠCONTENT": 36868,
  "bring": 82477,
  "ĠDub": 17533,
  "Ġimpact": 5536,
  "\"D": 62528,
  "ĠTeuchos": 86189,
  "ĠUsing": 12362,
  "Ġtarde": 61745,
  "-degree": 38775,
  "Ġtack": 14192,
  "_bucket": 39849,
  "stral": 56070,
  "ĠJaw": 34294,
  "_SERVICE": 22318,
  "NORMAL": 69079,
  "Pago": 83327,
  "ILogger": 83352,
  "ĠLoved": 85127,
  "à¸§à¸£": 114297,
  "ĠÐĳÐ°ÑĢ": 120092,
  "_BC": 73347,
  "activex": 37331,
  "ĠHampton": 64774,
  "ĠDataBase": 68030,
  "Ġportion": 13651,
  "RESS": 7973,
  "ĠLOCAL": 43601,
  "-spacing": 53473,
  "Ġmij": 69497,
  "Ġprophets": 72768,
  "Ġhired": 22163,
  "Ġhints": 31743,
  "Ġespecial": 33397,
  "Ġthuyáº¿t": 114921,
  "Ġphilosophers": 61787,
  "ĠAlla": 91733,
  ".setRequest": 44926,
  "Ð½ÑĶ": 112585,
  "ĠNode": 6146,
  ".php": 2348,
  "-info": 12788,
  "ĠerrorCallback": 90180,
  "ĠDecorating": 98320,
  "å¹³": 50211,
  "*num": 80027,
  "ĠØ¯Ø´ÙħÙĨ": 123136,
  "ĠrowNum": 100135,
  "Ġevento": 45542,
  "Ġflap": 67533,
  "çĶµè¯Ŀ": 88905,
  "Ġscripture": 73888,
  "Attachment": 34669,
  "Î¬Î¶": 111254,
  "luck": 86476,
  "ĠCocktail": 93816,
  "regar": 34830,
  "_embedding": 52602,
  "ĠShuttle": 78787,
  ".toUpperCase": 33404,
  "undos": 65954,
  "iership": 77178,
  "ĠFernandez": 83726,
  "ĠWilson": 17882,
  "Ġ**Ċ": 38014,
  "-node": 40154,
  "ĠÑĢÐ°Ð·Ð²Ð¸ÑĤÐ¸Ñı": 111643,
  "ÅĽ": 7545,
  "ayar": 76246,
  ".IsNullOrWhiteSpace": 37675,
  "zeigt": 97795,
  "meldung": 88797,
  "Ġà¤¸à¤®à¤Ŀ": 108508,
  "çĪ½": 126976,
  "Ġbá»¥i": 126410,
  "ĠÄįÃ¡": 127396,
  "_PIXEL": 51584,
  "elyn": 92609,
  "mas": 7044,
  "-disc": 52765,
  "476": 22191,
  "Ġster": 22562,
  "Ġresolutions": 43595,
  "Ġbarley": 81817,
  "ĠPortfolio": 47292,
  ".Log": 5360,
  "Ġà¤ħà¤¸": 105739,
  "Ġstip": 43773,
  "tested": 76036,
  "ĠÑĹÑħ": 102094,
  "_NUM": 9828,
  "ĠRatio": 51848,
  "Ð¾Ð²Ð°ÑĤÑĮÑģÑı": 114982,
  "Ġmeasured": 17303,
  "gregated": 94140,
  "à¥¤": 100278,
  "Î»Î¿": 100586,
  "aris": 42960,
  ".windows": 69213,
  "Ġ(_,": 40564,
  "Ġmedication": 24099,
  "Ġagli": 99782,
  "Ġbisexual": 56832,
  "ĠPlenty": 69489,
  "Ġ#$": 82785,
  ",void": 99995,
  "Ġsoud": 107954,
  "ĠØ£ÙģØ¶ÙĦ": 119602,
  ".free": 46695,
  "ĠHope": 18231,
  "_atts": 96870,
  "Ø³Ø·": 112671,
  "XH": 119540,
  "ç²ī": 110918,
  "Ġdiscourse": 41602,
  "ĠuluslararasÄ±": 117412,
  "mob": 35035,
  "Ð¼": 6578,
  "åĥ": 59999,
  "setCellValue": 42369,
  "à¸´à¸«à¸²à¸£": 110912,
  "ĠÃĸÄŁ": 111819,
  "ÑĤÑĭÐ¹": 127323,
  "writers": 62712,
  "ĠØ§ÙĦÙĦ": 102314,
  "ĠÃ¶nemlidir": 123636,
  "ĠIv": 34583,
  "NotFoundError": 69008,
  "à¹Īà¸²à¸§": 104646,
  "ĠWOW": 62400,
  "ĠVAL": 9913,
  "_);čĊ": 63547,
  "Ġlaboratory": 27692,
  "Fil": 51240,
  "Ġhomosexual": 42864,
  "mol": 45444,
  "ĠÑĤÑĢÐµÐ±ÑĥÐµÑĤ": 124522,
  "ĠWordpress": 89169,
  "-notch": 78611,
  "}`,": 29450,
  "éļı": 106161,
  ".points": 31896,
  "Ġtrabaj": 39974,
  "/repos": 50605,
  "ÑĢÐ¸ÑģÑĤ": 108596,
  "Ù¡": 109610,
  "icÃŃ": 108330,
  "Ġcontinuing": 14691,
  "ĠÑıÑģ": 121816,
  "é¨İ": 119126,
  "è¶³çĲĥ": 117366,
  ".Power": 55186,
  "ÙĦÙħØ§ÙĨ": 104312,
  "ĠGwen": 95884,
  "ĠìĹŃìĤ¬": 119229,
  "ANGLES": 75853,
  "ionage": 64790,
  "Ġundesirable": 77344,
  "ĠÑģÑĤÐ°ÑĢ": 104342,
  ".adjust": 80032,
  "Ġprotects": 36236,
  "Ġimmer": 26612,
  "ĠìĤ¬ìļ©": 41820,
  "Ġlille": 89122,
  "ÙĪÙĪ": 117514,
  "Ġclique": 81479,
  "ĠØ¹ÙĨØ¯": 106167,
  "ÑĨÑĸÑĹ": 100752,
  "ä¸īä¸īä¸īä¸ī": 109571,
  "Ġprior": 4972,
  ".getDeclared": 81365,
  "Ð°Ð´Ð¶": 123453,
  "ĠWEST": 66190,
  "-Ðļ": 113517,
  "ĠÐ³ÑĢÐ°": 102973,
  "Ġwasn": 5828,
  "trie": 9104,
  "ĠÐ»ÑĮ": 120212,
  "Ġholes": 20349,
  "Ġmansion": 52528,
  "ĠçļĦ": 44689,
  "Ġeer": 44372,
  "Ġoccupying": 72280,
  "Ð½ÑıÑĤÑĮ": 108774,
  "ãģķ": 30813,
  "asing": 4522,
  "Ġstrides": 37387,
  "ĠGover": 94984,
  "ÑĢÑıÐ´": 105080,
  "à¥Īà¤¨": 104071,
  "-point": 16983,
  "illiseconds": 57294,
  "Music": 25099,
  "ĠMagnum": 94961,
  "gent": 16149,
  "ï¼ĮåĨį": 117250,
  "Ġ%\"": 69968,
  "ĠÑĤÐ¾Ð²Ð°ÑĢÑĸÐ²": 127490,
  "_CHUNK": 71608,
  "Îĳ": 100341,
  "Ġgathering": 23738,
  "326": 17470,
  "ĠPAR": 27173,
  "à¹Īà¸§": 100842,
  "pter": 74237,
  "ãģ¨ãģ®": 110792,
  "Ġuntranslated": 91448,
  "Cell": 3683,
  "Ġreinforces": 95593,
  "_amt": 55705,
  "agers": 11467,
  "ĠClearance": 93230,
  "Ġtraumat": 99136,
  "Ġsollten": 75553,
  "ÐºÐ¾Ð»": 123362,
  "ãģıãĤĮ": 120700,
  "COM": 8867,
  "Ġcanv": 73478,
  "ĠEcc": 81760,
  "Up": 2378,
  "ĠFur": 50940,
  "Ġze": 14017,
  "à¸µà¸¥": 114013,
  "æĴ¤": 125844,
  "ê°Ģ": 20565,
  "Ġenums": 71817,
  "ĠÑ": 9015,
  "Ġnháº¥t": 101071,
  "ItemClickListener": 38429,
  "_normalize": 81907,
  "redi": 65699,
  "=session": 84500,
  "Ġleth": 98522,
  "ĠXxx": 50128,
  "Ġemploi": 92800,
  "vasion": 59093,
  "Ġmonoc": 96157,
  "Ġà¹Ģà¸¡à¸ķà¸£": 125917,
  ".Currency": 78286,
  "ä¿ĿåŃĺ": 47585,
  "ĠJournalism": 69653,
  "ĠEvelyn": 96425,
  "ĠitemBuilder": 76935,
  "-keys": 77209,
  "Ġà¨": 70133,
  "Î»ÎµÎ¹": 107978,
  "à¸²à¸£à¸°": 121443,
  "Ġacts": 14385,
  "optim": 19680,
  "/welcome": 87797,
  "ÑĭÐ²Ð°Ð½Ð¸Ñı": 121698,
  "(np": 10101,
  "_TURN": 95683,
  "Ġprotagonist": 46684,
  "checks": 50483,
  "Ġalso": 1101,
  "Ġmetavar": 52318,
  "Mu": 40220,
  "_offer": 68914,
  "Ġvg": 85630,
  "âĢĻautres": 93922,
  "Ġeasy": 4228,
  "_PLAY": 39675,
  "ĠJury": 96371,
  "Ġ}));ĊĊ": 28225,
  "Ġtorso": 64300,
  "Ġdisjoint": 85884,
  "<meta": 18816,
  ".Append": 9159,
  "neighbors": 80588,
  "Î½ÏĮ": 123258,
  "DET": 84682,
  "-long": 24725,
  "Ø§Ø´Ø©": 122472,
  "Ġlasted": 36513,
  "Mexico": 69931,
  "films": 66502,
  "renom": 45943,
  "xFFFFFFFF": 23445,
  "ĠListening": 77797,
  "timestamps": 34691,
  "éĵ¶": 106671,
  "Ġburge": 88069,
  "Ġsealing": 66934,
  "Ġunbelievable": 52229,
  "Ġfairy": 45586,
  "ĠDallas": 19051,
  "ĠhtmlFor": 33293,
  ".script": 47813,
  "Ġexplor": 48539,
  ".feature": 30691,
  "ĠBED": 83364,
  "Ġprogramas": 94939,
  "Ġauthorized": 19144,
  "uth": 952,
  "updating": 93154,
  "Ġfishes": 95461,
  "æĪĺ": 102778,
  "âĢĮÙĨ": 113980,
  "ĠØ¨ÛĮØ´ØªØ±ÛĮ": 126494,
  "ĠPatterson": 58734,
  "agma": 5835,
  "Ġpillow": 43425,
  "Ġsmoother": 61405,
  ".localPosition": 51429,
  "Ġrequested": 11472,
  "âĢĺ": 14336,
  "Ġempath": 36681,
  "ancing": 9151,
  "Ġlying": 21078,
  "MENU": 45229,
  "OptionsItemSelected": 42881,
  "TextView": 13982,
  "ĠMagical": 73810,
  "Ġsqueezed": 65262,
  "ĠGeorgetown": 66039,
  "USAGE": 81433,
  "ĠÑĢÑĥÑħ": 111749,
  "ĠÑĥÐ²ÐµÐ»Ð¸Ñĩ": 114449,
  "ëĵľë¦½ëĭĪëĭ¤": 109616,
  "_ng": 83202,
  "ĠFOUR": 75191,
  "ĠInspector": 45595,
  "ĠElection": 26838,
  "ĠÙ¾ÙĪÙĦ": 120136,
  "Cre": 10987,
  "%;\">": 84538,
  "ĠLegendary": 60189,
  "information": 26125,
  "ĠÑĢÐ¾Ð·ÑĢÐ°ÑħÑĥÐ½": 126527,
  "Ġukon": 119580,
  "bitrary": 88951,
  "ĠmÄĽli": 111350,
  "_ratio": 20512,
  "ĠÐ²ÑĭÑĢÐ°ÑīÐ¸": 127769,
  "-san": 47038,
  "Ġlarger": 8294,
  "ĠéĤ£": 127087,
  "iteit": 69619,
  "Ġortaya": 105199,
  "Offer": 40562,
  "ä¹Łæľī": 123976,
  "_lit": 99499,
  "banks": 80046,
  "ìĵ°": 113026,
  "_SB": 73309,
  "ÏĩÏĮ": 127464,
  "_no": 6673,
  "Ġinbound": 66043,
  "Ġcontext": 2317,
  "Ġacompan": 52510,
  "Ġhorm": 21548,
  "ĠPt": 52170,
  "ĠSphere": 55599,
  "Ġincentiv": 84084,
  ".setPositiveButton": 98068,
  "idade": 9252,
  "ĠTS": 23822,
  "ĠVoldemort": 81791,
  "_total": 11017,
  "_src": 16673,
  "orch": 22312,
  "_blob": 47008,
  ")?": 12106,
  "iffany": 56182,
  "Silver": 53443,
  "Ġaccommodate": 29376,
  "Ġhoy": 49841,
  "æĲ": 102729,
  "è³ĩæĸĻ": 109544,
  "_medium": 55967,
  "Ġquá»¹": 122039,
  "Ġmultim": 80149,
  ".desktop": 81528,
  "ãİ¡": 105565,
  "ĠOscar": 31797,
  "âĦĸâĦĸâĦĸâĦĸ": 118392,
  ".parts": 68635,
  "GNUC": 66475,
  "Ġdarf": 88331,
  ".APPLICATION": 34797,
  "(urls": 92282,
  "fgets": 100093,
  "tik": 103589,
  "Ġwhatsoever": 36734,
  ".dimensions": 78992,
  "_cons": 33071,
  "Ø¬Ø§": 106457,
  "ï¼": 1569,
  "Ð»Ð¾ÑģÑı": 108731,
  "Ġuy": 83000,
  "ãģĻãģ¹ãģ¦": 122617,
  "lasting": 70529,
  "Perform": 48051,
  "ĠĠĠĠĠĠĠĠĠĠĠĠĠĠĠĠčĊ": 28465,
  "Ġarbit": 17114,
  "à¤ª": 87262,
  "orthy": 34594,
  "igner": 78756,
  "riendly": 18260,
  ".AddInParameter": 92482,
  ".FETCH": 96379,
  "ĠCir": 42009,
  "âĢĮÚ¯Ø°": 118023,
  "074": 26739,
  "Ġpasses": 16609,
  "dob": 52116,
  "Ã¼fus": 109066,
  "ĠKelvin": 92073,
  "Ġteh": 81006,
  "Ġëı": 65905,
  "Ġtrash": 23701,
  "_rs": 48215,
  "pec": 1007,
  "ç´°": 104398,
  "ä½įäºİ": 121245,
  "ÃŃnh": 100474,
  "Ġîł": 104738,
  "DOG": 98910,
  "Ġpixel": 13252,
  "vo": 3415,
  "ĉrow": 35067,
  "_buy": 47448,
  "Ġqint": 85817,
  "Ġçİ": 103043,
  "ĠçĻ¾åº¦æĶ¶å½ķ": 115058,
  "ĠÐ¸ÑģÐºÑĥÑģ": 117321,
  "Sub": 3214,
  "ĠSoccer": 38633,
  "deployment": 83313,
  "Ð°ÑĤÐ¾Ð²": 117076,
  "contacts": 30163,
  "Ġellas": 98760,
  "ĠEastern": 18516,
  "çµ¡": 117139,
  "Ġscrambled": 71578,
  "æĥĳ": 115461,
  "ĠĠĠĊĊ": 35033,
  "ãģĴ": 102639,
  "Ġdreaded": 83590,
  "ëĵ±íķĻêµĲ": 112070,
  "_translate": 67481,
  ".authService": 64927,
  "Ð½Ð¸ÑĨÐµ": 125317,
  "ĠJoyce": 54726,
  "Ġrencontr": 66283,
  "à¥Ĥà¤ķ": 113677,
  "uro": 2868,
  "Ġdying": 23069,
  "vangst": 34043,
  "902": 21026,
  "along": 39393,
  "ĠMPEG": 71089,
  "(Packet": 93322,
  "}-": 20312,
  "MORE": 47798,
  "_collision": 71475,
  "('(": 71063,
  "drm": 99658,
  "ĠØ£Ø¯": 111679,
  "Ġcontrast": 13168,
  "Check": 4061,
  "cstdlib": 43795,
  "ardash": 56788,
  "Ġsul": 26858,
  "ĠerrorHandler": 72173,
  "ÑĭÑħ": 63233,
  "ìµľê³ł": 122695,
  "ĠAlmost": 35403,
  "Ð²Ð°Ð»Ð°": 113142,
  "ĠÑģÑĤÑĢÐ°Ð½": 119641,
  "ĠCook": 12797,
  "Ġthyroid": 54060,
  "ĠhÄ±zlÄ±": 110198,
  "ĠÙĨÙħÙĪØ¯Ø§Ø±": 127549,
  "phis": 37889,
  "reated": 2920,
  "asts": 12019,
  "ĠInfinity": 40989,
  "_sq": 48352,
  "(px": 82761,
  "ĠmÅ¯": 101680,
  ".Circle": 83943,
  "Ġinstancia": 99079,
  "Parms": 86540,
  "ĠHERE": 19804,
  "ĠLorenzo": 74500,
  "oy": 2303,
  "ĠstÅĻÃŃ": 116139,
  "isor": 16220,
  "mares": 63636,
  "Ġlayouts": 50154,
  "_ANAL": 60853,
  "?</": 27147,
  "noun": 91209,
  "(Room": 91101,
  ".Clear": 13833,
  "cludes": 7548,
  "Ġê³łê°Ŀ": 116534,
  "ĠØ§Ø±ÙĪÙ¾Ø§": 124891,
  "âĢĲ'": 127354,
  "-produced": 84561,
  "ĠIndustries": 37528,
  "Ġdd": 20221,
  "Ġsupplementary": 80506,
  "_EMAIL": 30648,
  "ĠaracÄ±lÄ±ÄŁÄ±yla": 125564,
  "Ġnotorious": 44081,
  "_mk": 65961,
  "accept": 10543,
  "bus": 10551,
  "_CONTEXT": 30677,
  "fp": 11089,
  "Drivers": 89929,
  "Ġ}]": 59692,
  "/layouts": 90217,
  "956": 26067,
  "Ġrehabilitation": 44438,
  "-project": 34796,
  "Ġprofoundly": 66278,
  "ĠMDB": 87452,
  "ĠLemma": 86910,
  "Ð´Ð°Ñħ": 125412,
  "Jump": 35079,
  "FACE": 20342,
  "scr": 26121,
  "ABOUT": 76630,
  "ĠPermanent": 57316,
  "Ġfriendships": 63081,
  "_students": 72744,
  "eriod": 113682,
  "Ġflown": 53850,
  "ðŁĺ": 76460,
  "(userid": 82966,
  "ÏģÎŃÏĢÎµÎ¹": 116410,
  "à¤µà¤¤": 122920,
  "ĠComo": 46774,
  "Context": 2014,
  "Ġcontinuum": 86901,
  "ĠTristan": 97690,
  "_TOTAL": 51931,
  "_BLACK": 57655,
  "permanent": 98524,
  "ANNEL": 18383,
  "'use": 19726,
  "===========": 36499,
  "ĠGiá»": 105214,
  "Ġconten": 55111,
  "exterity": 59916,
  "Ġbreaker": 67867,
  "à¹Ģà¸ªà¸£": 109347,
  "Ġoverwhel": 17201,
  "Ġ'\"'": 53190,
  "à¤¾à¤Ĥ": 100515,
  "Ġsefer": 120151,
  "ĠPLUS": 59553,
  "ĠÑģÐ°Ð¼Ð¾ÑģÑĤÐ¾ÑıÑĤÐµÐ»ÑĮ": 115206,
  "-described": 51704,
  ".Operator": 86646,
  "à¹Īà¸ªà¸²à¸¡à¸²à¸£à¸ĸ": 124538,
  "Ġseul": 74206,
  "Ġweaponry": 78122,
  "-viol": 76827,
  "ĉĉĉĠĠĠĠĠĠĠ": 33817,
  "HeaderValue": 98821,
  "Ġdiscern": 42645,
  "ĠisEqualToString": 26603,
  "Markup": 54188,
  "Ġayuda": 74759,
  "Ġà¹Ģà¸§": 105965,
  "ĠÐ·Ð°Ð±ÐµÐ·Ð¿ÐµÑĩÐµÐ½Ð½Ñı": 113876,
  "Ġskew": 41643,
  "Ġpanoramic": 84357,
  "ĠUObject": 56212,
  ".examples": 71759,
  "SECOND": 99304,
  "_DER": 97162,
  "+v": 99367,
  "Ġconsequat": 85987,
  "å®¶æĹı": 122013,
  "Ġbakeca": 41057,
  "Äįi": 103853,
  "à¤¾à¥¤": 100781,
  "Ġhips": 43523,
  "iction": 2538,
  "Ġxpath": 65625,
  "ê³¨": 112542,
  "+\":": 81579,
  "Again": 31485,
  "Ġestim": 15279,
  "elerinde": 113317,
  "COUNT": 39243,
  ">(&": 45884,
  "ĠIsNot": 69343,
  "ÐĿÐµ": 63720,
  "Ã©t": 10515,
  ".cgi": 60114,
  "_FORE": 48285,
  "ĠBuccaneers": 93168,
  "interpreted": 94561,
  "Ġpermutation": 59541,
  "_BOTH": 83818,
  "ĠBru": 19215,
  "abus": 58641,
  "Ġexce": 91384,
  "Ã¼ny": 117108,
  "ĠìĿ¸ìłķ": 127507,
  "_hp": 49578,
  "Ġoverrun": 85378,
  "(register": 69266,
  "ï¼ĮåĽłæŃ¤": 118170,
  "ULSE": 84489,
  "HITE": 30679,
  "ISODE": 100001,
  "PET": 80504,
  "ĠlÆ°Æ¡ng": 112228,
  "ØªÙĬØ§Ø±": 125724,
  "ĠgetProperty": 76596,
  ".currentTarget": 38110,
  "Ġnineteenth": 66089,
  "ĠÅ¼e": 24230,
  "ĠÐ½Ð°Ð²ÐµÑĢ": 124862,
  "([\\": 70016,
  "Ã¼nÃ¼": 103314,
  "ĠsÄ±r": 108259,
  "Spin": 42838,
  "ritel": 60062,
  "Ġpl": 628,
  "ĠNasÄ±l": 117600,
  "_scaling": 80316,
  "ĠCheck": 4343,
  "ÎµÏģÎ¼Î±Î½": 120211,
  "kemiz": 115193,
  "_Font": 75313,
  "ĠSoldiers": 75531,
  "Ġà¤¡": 101006,
  "Ġtwisting": 80654,
  ".Pull": 98457,
  "à¸±à¸ģà¸£": 109313,
  "Ġqualities": 29600,
  "NoSuch": 66631,
  "ĠÄĲáº¡i": 104620,
  "Qualified": 67093,
  "Ġnoticias": 96701,
  "ĠTencent": 71021,
  "ĠÃ¶deme": 119052,
  "_presence": 57503,
  "FRAME": 55203,
  "ĠÐ½Ð°ÑĩÐµ": 127831,
  "untas": 55672,
  "åīįãģ«": 112772,
  "ÑıÑĤÐ¸": 102629,
  "Ġtroubleshooting": 69771,
  "ĠgetPage": 71953,
  "ĠClimate": 31636,
  "ëĤĺ": 61415,
  "nano": 94725,
  "ĠgerektiÄŁini": 119850,
  "åıįåºĶ": 121287,
  "mpz": 83805,
  "_Var": 62351,
  "@SuppressWarnings": 35532,
  "Restart": 60454,
  "Dave": 56830,
  "'Ãł": 81991,
  "UiThread": 76492,
  "ĠÐºÐ½Ð¸Ð¶": 121336,
  "Ġbert": 68199,
  "Ġait": 107902,
  "ĠØ§Ùĥ": 110973,
  ".wind": 90076,
  "configure": 21678,
  "ĠStringBuilder": 11664,
  "Robot": 44474,
  "ãģĹãģ": 21105,
  "ãĥ¼ãĥĬ": 109793,
  "mÃ¼ÅŁtÃ¼r": 122315,
  "Ð½Ð¾Ð¾Ð±ÑĢÐ°Ð·": 125247,
  "ĠëĴ": 106301,
  "hod": 100830,
  "ĠGat": 73213,
  "_PROC": 46150,
  "à¹īà¸²à¸Ĺ": 107909,
  "Ð¸Ð±Ð¾Ð»ÐµÐµ": 111330,
  "ÏĦÎ®ÏĤ": 108355,
  "uger": 59520,
  "Ġbuz": 93254,
  "_DATABASE": 46610,
  "ekce": 119667,
  "imators": 72136,
  "Ġì¦Ĳ": 118598,
  "ĠÐ·Ð»Ð¾Ñĩ": 124124,
  "cido": 55451,
  "ÐºÑĥÑĢ": 106636,
  "ĠÙĨØµØ¨": 117133,
  "Ġexclusion": 42308,
  "à¸Ľà¸£à¸°à¸ģà¸Ńà¸ļ": 112400,
  "doch": 73393,
  "à¥įà¤¬à¤°": 119872,
  "ĠØ§Ø±ØªØ¨Ø§Ø·": 109940,
  "Ġtemin": 124071,
  "ĠPLC": 70452,
  "Ġmunicipalities": 59589,
  "ÙıÙħ": 106715,
  "Ġeditions": 47634,
  "Ġtow": 16190,
  "åıĮ": 104836,
  ".dateTime": 59262,
  "Ġë¬´": 101480,
  "ĠPKK": 99058,
  ".img": 15694,
  "undra": 79830,
  "Ġceasefire": 82873,
  "ĠHim": 21058,
  "write": 5040,
  "ëĤ´ê¸°": 114675,
  "634": 24307,
  "ĠEmbassy": 53527,
  "ãģ£ãģ¦ãģĦ": 107462,
  "ĉq": 19043,
  "?=": 60667,
  "Ġå¤ĸ": 106547,
  "ĠÙħÛĮÙĦÛĮ": 107149,
  "ĠDot": 32362,
  "ĠTrÆ°á»Ŀng": 110178,
  "irl": 2881,
  "Ġ\\Ċ": 3120,
  "Ġblk": 41743,
  "Ġitaliane": 100043,
  "Ġpesso": 40675,
  "ĠOrganization": 21021,
  "479": 21848,
  "ĠBottle": 55085,
  "ambio": 65758,
  "urgent": 86153,
  "okie": 12785,
  "ĠBeautifulSoup": 37010,
  "................................................................": 43369,
  "spb": 44567,
  "Ġhern": 72909,
  "getApplication": 92969,
  "Ġcookie": 12829,
  "Ġë§ŀ": 107625,
  "ĠATA": 92722,
  "Slf": 73338,
  "åºı": 33144,
  "ĠØ§ÙĦØ¹ÙĤ": 124104,
  "ĠYaz": 89670,
  "ĠSometimes": 18156,
  "ĠØ¹Ø´": 111860,
  "ĠUÅ¾": 119727,
  "[X": 51144,
  "ĠMeasures": 73656,
  "Å¡tÄĽ": 100913,
  "UPPORTED": 62240,
  "ĉyield": 46191,
  "ryn": 61343,
  "ÑĩÐ¸Ðµ": 108488,
  "Ġchained": 68069,
  "ĠÐºÑĥÐ±": 122170,
  "Ġplugged": 59329,
  "Â¨": 76105,
  "-TV": 53392,
  "riv": 77467,
  "à¸¸à¸ª": 125230,
  "ĠgetC": 44199,
  "='<": 36795,
  "Ġvec": 7638,
  "Ġéĩį": 109367,
  "(pg": 85233,
  ".shader": 93761,
  "Ġ??": 9602,
  "(check": 25044,
  "ĠÐ±Ð°ÑĤÑĮÐºÑĸÐ²": 125186,
  "_arrow": 47666,
  "Ġenqueue": 54857,
  "igy": 93593,
  "'^$',": 92256,
  "Ġmejorar": 85216,
  "\\\":\\\"": 24389,
  "Ġextinction": 52609,
  "Ġargs": 2897,
  "Ġcircle": 12960,
  "Ġnuovo": 73829,
  "_race": 92417,
  "éľĢ": 59462,
  "emap": 43140,
  "_cursor": 29701,
  "Ã¹i": 109961,
  "otu": 114845,
  "CoreApplication": 85579,
  "ĉversion": 76054,
  "_appro": 37157,
  "Ġpuesto": 85809,
  ">()->": 89480,
  ".AddItem": 92502,
  "ĠBag": 20287,
  "à¹Įà¸Ń": 116290,
  "ĠÑģÐ°Ð¼Ð¾ÑģÑĤÐ¾ÑıÑĤÐµÐ»ÑĮÐ½Ð¾": 121539,
  "UICollectionView": 56671,
  "ĠFit": 30990,
  "frequency": 47621,
  "/path": 52076,
  "/TR": 53427,
  "ĠTham": 110055,
  "ãĤĦãģ£ãģ¦": 125338,
  "Keith": 91428,
  "ÅĻad": 104373,
  "Ġgratuitement": 93034,
  "æ¯Ĵ": 109177,
  "Ġhottest": 38391,
  ".compareTo": 46808,
  "ÑĥÑĤ": 38521,
  "ĠCeiling": 65525,
  "Ð¾ÑĢÑĤ": 103104,
  "SearchParams": 95957,
  "ÎłÏģÎ¿": 127267,
  "Ðĳ": 61432,
  "Earlier": 34141,
  "ĠSpecify": 48495,
  "Ġspeak": 6604,
  "Ġcentered": 31288,
  ".linspace": 39812,
  "Ø§ÛĮ": 47172,
  "ĠdÅ¯m": 119971,
  "ĠÃľy": 125815,
  "Ġsyslog": 75587,
  "nictvÃŃ": 111315,
  "Handle": 7144,
  "=headers": 55185,
  "ĠSID": 57121,
  "Ġpasa": 87776,
  "Ġkep": 65284,
  "ĠPrinter": 47033,
  "Ġapproach": 5603,
  "[random": 60963,
  "arhus": 92189,
  "è©¦": 106081,
  "ìĤ°ìĹħ": 126918,
  "<|reserved_special_token_192|>": 128197,
  "Ġluckily": 91145,
  "Ġaggrav": 46041,
  "give": 47530,
  "Ġtextiles": 94082,
  "iets": 81881,
  "Ġecon": 3898,
  "æĪĲåĬŁ": 19653,
  "Ġleaks": 37796,
  "Ġconservatism": 90674,
  "Ø§Ø´ÛĮ": 113273,
  "Ġripped": 44092,
  "(Uri": 53352,
  "ãĤĮãĤĭ": 104028,
  ".company": 28020,
  "Ġsubmits": 95135,
  "Stack": 4434,
  "_THEME": 63381,
  "Ġlaat": 73499,
  "options": 2945,
  "Ġadvance": 12178,
  "åĩº": 20834,
  "ĠMODEL": 49070,
  "loadModel": 95031,
  "Ġpref": 19257,
  "Ġ\"{": 14190,
  "Ġgenomes": 85381,
  "Ġapocalypse": 88914,
  "CONDITION": 84786,
  "riority": 8948,
  "ĠbáºŃt": 114696,
  "ĠRuntimeObject": 54759,
  ".record": 33124,
  "phase": 26199,
  "ĠRelevant": 88516,
  "ĠÐ½Ð°ÑĤ": 111640,
  "Ġplace": 2035,
  "à¸µĊ": 109787,
  "ï¼¤": 123570,
  "yalty": 25803,
  "ĠNewark": 65599,
  "Ø¨Ø¯": 101356,
  "ÐµÐ½Ð¸Ð¹": 62491,
  "ĠJudicial": 68308,
  "ĠBiom": 91608,
  "Î»ÎµÏħÏĦÎ±": 113139,
  "istÃ©": 115097,
  "Ġfall": 4498,
  ".ViewHolder": 36336,
  "respuesta": 58760,
  "ÐµÑĢÐº": 106498,
  "-job": 71048,
  "StartTime": 41303,
  "Ġgoddess": 52190,
  "ROL": 16922,
  "ê²Į": 58901,
  "ŀ": 252,
  "Ġtaxpayer": 39273,
  "okay": 94317,
  ".imag": 72077,
  "Ġcontrasts": 83379,
  "Ġcomprehend": 58389,
  "-lo": 27578,
  "Spacing": 28124,
  "Ð¾Ñģ": 23630,
  "Ġpolitician": 37038,
  "KeyPressed": 70420,
  "Ġwild": 8545,
  "ĠÄĮ": 100713,
  "PAL": 74442,
  "è¿Ĳè¡Į": 117238,
  "ocused": 21012,
  "Ġadmits": 38239,
  ".F": 1006,
  "Ġdiscounted": 48774,
  ".signature": 76285,
  "ĠtaÅŁÄ±m": 118165,
  "shell": 22098,
  "ousedown": 49166,
  "Ġletz": 50865,
  "ĠBank": 8715,
  "motor": 59088,
  "_documento": 84161,
  "languages": 43924,
  "ĠÃ¼zer": 92657,
  "952": 24597,
  "Ġvalore": 95042,
  "Props": 6120,
  "=\"\"": 8573,
  ".usage": 93794,
  "_TB": 88906,
  "_DSP": 95381,
  "Chart": 14828,
  ",)": 47121,
  "),ĊĊ": 18966,
  "åĥı": 66201,
  "ĠÙĪØ§ÙĤØ¹": 105082,
  "ibus": 34495,
  "leting": 37035,
  "DonaldTrump": 73517,
  "Ġkrev": 120432,
  ":false": 22888,
  "ators": 3046,
  "imeType": 35972,
  "ĠGaz": 44392,
  "_Target": 76923,
  "BracketAccess": 94652,
  "ampionship": 12520,
  "anchors": 71599,
  ".callbacks": 72134,
  "ĠìĤŃìłľ": 77692,
  "cta": 78619,
  "ĠLaTeX": 99013,
  "Ġensure": 6106,
  "cp": 4777,
  "Ġexcerpt": 50565,
  "_To": 39446,
  "ĠPolitico": 71833,
  "Ġfuturistic": 80320,
  "ĠstÃ¡l": 124823,
  "Ġsuspended": 22340,
  "fee": 31117,
  "Ġì²¨ë¶ĢíĮĮìĿ¼": 109986,
  "orious": 22766,
  "ONG": 7691,
  "-light": 18179,
  "uales": 41852,
  "Ġcelou": 117224,
  "printing": 99931,
  "ĠcreateStore": 54539,
  "(gulp": 53799,
  "Ġsoutheastern": 83209,
  "/window": 80343,
  "imen": 27236,
  "ĠFeld": 50853,
  "ĠBarton": 70317,
  ".hstack": 78601,
  "ĠÐ¼Ð½Ð¾Ð³Ð¾": 106599,
  "¤íĶĦ": 107235,
  "sgiving": 32727,
  "Ġjan": 33962,
  "ĠUs": 4073,
  "ĉfprintf": 16562,
  "Ġpatrols": 88142,
  "RESULTS": 86728,
  "Ġminimum": 8187,
  "ĠIX": 40812,
  "Colorado": 78569,
  "650": 13655,
  "ĠWARNING": 27577,
  "à¸²à¸ĭ": 109493,
  "Ġlengths": 29416,
  "uxe": 36422,
  "acja": 52789,
  "dfs": 35478,
  "xEC": 87699,
  "890": 21381,
  "Ġsketch": 26610,
  "Mapped": 84445,
  "ĠBarnett": 86420,
  "})čĊčĊ": 71741,
  "Ġauthorization": 24645,
  "ÑĢÐ¾Ðº": 102070,
  "impact": 58400,
  "?ĊĊĊĊ": 15850,
  "abbage": 57589,
  "Ġnbr": 69190,
  "Actions": 13245,
  ".intellij": 37415,
  "ĠRETURNS": 69139,
  "ĠØ·Ø±": 103444,
  "GetType": 59164,
  "ayi": 112717,
  "Ġíİĺ": 106960,
  "ridge": 11431,
  "ĠìĤ¬ìĿ´íĬ¸": 117240,
  "Ġcá»Ļng": 107072,
  "-free": 12862,
  "Ġblasph": 99159,
  "ĠÐºÐ°ÐºÐ¾Ð¹": 113379,
  "ĠÐ¸Ð·Ð²ÐµÑģÑĤ": 110252,
  "ÐµÐ·ÑĥÐ»ÑĮÑĤ": 71889,
  "ĠAction": 5703,
  "ë¶Ħ": 80816,
  "çĶ·åŃĲ": 118374,
  "à¸±à¸ļà¸ªà¸Ļ": 121196,
  "_pp": 32700,
  "ĠdÃ©jÃł": 46939,
  "Ġeine": 10021,
  "ĠSpecific": 29362,
  "ĠMega": 35356,
  "Ġrst": 56615,
  "ÑģÑĤÐ²Ð¾": 100875,
  "Ġcolleg": 25511,
  "(LP": 75296,
  "ĉresource": 51446,
  "éļĲèĹı": 72794,
  ".tabControl": 50547,
  "utf": 4867,
  "à¤¿à¤ĸ": 103250,
  "ĠØ®ÙĪØ±": 123596,
  "buquerque": 69276,
  "Ġstoring": 28672,
  "(Product": 45604,
  "ĠforEach": 83632,
  "Ġaffects": 22223,
  "ÑİÑĩÐ¸": 102469,
  "à¤ıà¤®": 121124,
  ".Row": 14999,
  "ĠÏĥÏĦÎ¹ÏĤ": 106651,
  "/dat": 38666,
  "_sup": 24655,
  "_ids": 8237,
  "âĢľIn": 46233,
  "lararasÄ±": 109191,
  "ulin": 24292,
  "cheduled": 27742,
  "rtype": 33613,
  "ĠÐ²ÑĸÑĤ": 114236,
  "slide": 19902,
  "åĿ": 28638,
  "ĠgerÃ§ek": 102475,
  "getRepository": 42432,
  "Ġstringent": 70099,
  ".xhtml": 89466,
  "<|reserved_special_token_195|>": 128200,
  "Ġgathers": 86781,
  "ĠestÃ¡n": 42939,
  "ĠÎ®": 101941,
  "ĠØªÙĦÙģÙĨ": 120157,
  "closing": 86877,
  "Ġgamers": 35843,
  "ãĢĮä½ł": 124234,
  ".dr": 38038,
  "Ġ[~,": 94977,
  "ÐºÐ°Ð¿": 125225,
  ".subtract": 69752,
  "aliz": 102501,
  "çľ¼çĿĽ": 115931,
  "COMPLETE": 83069,
  "Ġmelts": 99191,
  "ĠTime": 4212,
  "ÑĢÐ¾Ð»": 120969,
  "ĠÐ¿ÐµÑĢÐµÐ½": 115119,
  "rait": 14687,
  "rai": 68962,
  "169": 11739,
  "Participant": 68604,
  "ĠBylo": 125891,
  "Ġhaircut": 86824,
  "ìĭŃ": 108405,
  "Ġdrying": 46479,
  "ĠEnt": 4968,
  "Ġgener": 1803,
  "Ġot": 14479,
  "Ġbadge": 24914,
  ".fake": 95724,
  "à¸¡à¸²à¸ģà¸ģà¸§": 122136,
  "Ġwf": 42348,
  "achers": 27618,
  "Slide": 30566,
  "(inter": 33724,
  "MLElement": 28434,
  "Ġlaps": 51055,
  "Ġfeed": 5510,
  "ĠLar": 32404,
  "ĠgetHeight": 63544,
  "ÑĸÑĹÐ²": 125646,
  "Ġunsett": 68770,
  "Ġporte": 60172,
  "ght": 2121,
  "dma": 46081,
  "ĠSvens": 87273,
  "spinner": 63191,
  "ĠØªÙĦÙĥ": 117778,
  "Ġmanufacturing": 15266,
  "Ġresources": 5070,
  "Unity": 38410,
  "arius": 41321,
  "\\Validation": 70550,
  "::*;Ċ": 57262,
  "(';": 56579,
  "(pool": 42938,
  "Ġsmack": 91594,
  "èģĶçĽŁ": 123728,
  "_white": 45531,
  "utra": 78981,
  "Ġâĸº": 66311,
  "Ġindustri": 67965,
  "Ġpicks": 22657,
  "cov": 57512,
  "Ġcharms": 81750,
  "ĠØ£Ø¬ÙĦ": 125108,
  "ĠUrg": 86586,
  "ĠLever": 79679,
  "ierrez": 96180,
  "ĉĉĉĉĉĉĉĉĉĉĉĉĉ": 18005,
  "Dies": 48889,
  "ĠClosure": 56667,
  "ĠAssemblyFileVersion": 99243,
  "Ġ;ĊĊĊ": 92681,
  "Ġconceptual": 44901,
  "609": 21138,
  "Ġsoaking": 78446,
  "cdn": 12534,
  "capabilities": 95492,
  "acaÄŁ": 103840,
  "imers": 68997,
  "Ġdep": 2219,
  "Ġstim": 12936,
  "Ġexpected": 3685,
  "Ġdispersion": 86712,
  "acen": 91587,
  "ĠÐ²Ð¾Ð·Ð¼Ð¾Ð¶": 104344,
  "åĮħ": 68379,
  ":variables": 57305,
  "èµ": 28425,
  "CACHE": 62836,
  "Ġnei": 57097,
  ".contract": 52735,
  "Ġè¯·æ±Ĥ": 81976,
  "ÎĳÎĿ": 104159,
  "Ġmá»įi": 105329,
  "WhiteSpace": 33783,
  "published": 33966,
  "_FIN": 46380,
  "Ġinsurg": 49214,
  "Ġ:-)": 92941,
  "Ġhumanity": 22706,
  "ĠØ´Ø§Ùĩ": 108319,
  "ĠJung": 50432,
  "Printing": 39628,
  "[Double": 64557,
  "Ġworthless": 66121,
  "à¥Ĥà¤°": 100799,
  "ixels": 10486,
  "glas": 27481,
  "<|reserved_special_token_33|>": 128038,
  "/\"+": 34878,
  "Ġ//@": 40581,
  "Ġdestino": 69197,
  "popup": 24636,
  "Ġmismo": 36994,
  "ëĤ¨ëıĦ": 125243,
  "ĠAV": 12431,
  "ĉName": 22002,
  "authentication": 46990,
  "Ġnoses": 97814,
  "-un": 20486,
  "quierda": 87481,
  "Ġdrawing": 13633,
  "-full": 24563,
  "Ġæº": 116195,
  "Ġimagined": 35706,
  "_NE": 14366,
  "ĠÐ¾ÑĤÐ»Ð¸Ñĩ": 114051,
  "Ġhacker": 55222,
  "ĠÛĮØ§": 101525,
  "iously": 13610,
  ".allocate": 69826,
  "Ġgame": 1847,
  ":)": 29589,
  "ĠØ³Ú©": 123576,
  "Î½Î¬": 123542,
  "Ġì¶ľìĹ°": 124675,
  ".asList": 26605,
  "tener": 74600,
  "ĠAppConfig": 64485,
  "ĠTehran": 53795,
  "Ġnow": 1457,
  "ĠBeauty": 31685,
  "EMS": 80718,
  "ĠWheels": 52549,
  "ãģŃ": 101832,
  "Ġ~/.": 41058,
  "ĠÑĢÐ°Ð¼ÐºÐ°Ñħ": 117987,
  "ACP": 62395,
  ".+": 60252,
  "ĠSÆ¡n": 112525,
  "Ġprotocols": 32885,
  "Ġdevastating": 33318,
  "stered": 83980,
  "ĠVáºŃy": 125193,
  "(@(": 87536,
  "ÑĸÑĩÐ½Ñĸ": 111913,
  "ÎĹÎľÎĳ": 127607,
  "@synthesize": 37020,
  "Ġcontinuity": 50106,
  "ĠphÃ¹": 105091,
  "ĠNghá»ĭ": 112236,
  "Dialogue": 83990,
  "ĠOptimization": 58839,
  "ĉT": 10473,
  "Ġoutsider": 75683,
  "ĠLoop": 22070,
  ":selected": 55454,
  ";\"><?": 65181,
  "ĠÙħØ±Ø¯Ùħ": 105545,
  "inction": 22073,
  "Ġclue": 31089,
  "DidEnter": 93177,
  ".Accessible": 93629,
  "Ġade": 17546,
  "à¥Ģà¤ķà¤°à¤£": 117804,
  "ĉRTDBG": 67901,
  "Ġyazar": 116265,
  "-many": 81288,
  "ubic": 42281,
  "ÐµÐºÐ¾Ð½Ð¾Ð¼": 127794,
  "Ġpepp": 83804,
  "Ð¶ÐµÐ½Ð½Ñı": 102642,
  "Co": 7489,
  "ÙĬØ§Øª": 103323,
  "Ġpassion": 11939,
  "stddef": 67497,
  "ĠÐ¼Ð°ÑĶ": 104260,
  "ĠAppropri": 86822,
  "lÃŃb": 118251,
  "ulations": 7607,
  "ĠÏĢÏģÏĮ": 106969,
  "Ġná»£": 116679,
  "Ġallo": 63747,
  "ĠGraphics": 20914,
  "-devel": 65203,
  ".forEach": 9033,
  "ĠÐºÐ°Ñģ": 112653,
  "Ġprolet": 64217,
  "ISOString": 68079,
  "ĠisKindOfClass": 49611,
  "Ġmary": 85730,
  "ABILITY": 5854,
  "Ġhighlight": 11415,
  "ÏĥÎ¿": 103581,
  "ĠRadioButton": 65611,
  "ĠspÃ¤ter": 88891,
  "Ġplate": 12235,
  "Ġvil": 26886,
  "Ġcomplexities": 84140,
  ".Publish": 85035,
  "Ġlp": 19088,
  "Ġtension": 24408,
  "Ġobjective": 16945,
  "`,Ċ": 13188,
  "oting": 11780,
  "+c": 50238,
  "ĠEntityType": 74217,
  "ĉcontext": 29513,
  "uestra": 76464,
  "ĠRouteServiceProvider": 86802,
  "ĠYosh": 74108,
  "QUENCY": 75213,
  "@store": 85614,
  "Ġsvou": 108529,
  "*p": 32268,
  "ĠTheresa": 43812,
  "underline": 46773,
  "_unregister": 70092,
  ".decor": 38512,
  "|x": 63927,
  "Ġflick": 29447,
  "android": 6080,
  "mer": 1195,
  "ĠIncre": 32711,
  "ĠÎºÏģÎ±": 126354,
  "site": 9703,
  "Ġreliance": 54180,
  "iven": 2116,
  "Ġturns": 10800,
  "ĠHour": 31933,
  "Ġshortcuts": 56020,
  "Ġoversees": 71945,
  "Ġlesion": 93217,
  "dera": 99003,
  "usion": 7713,
  "loating": 29593,
  "Deserializer": 81197,
  "Ġwater": 3090,
  "£¼": 36246,
  "Translator": 52753,
  "Ġdownhill": 73481,
  "Ġfinished": 8220,
  "Destination": 34705,
  "ĠPromo": 58503,
  "Group": 2878,
  "ĠSpringApplication": 92851,
  "ĠÚ©Ø§Ø±Øª": 125081,
  "ushed": 53078,
  "ĠdÃ¶neminde": 119419,
  "Ø±ÙĪØ¯": 121761,
  "ĠÎķÏĢÎ¹": 115071,
  "iVar": 82985,
  "Ġaantal": 97611,
  "æļ®": 127331,
  "ĠTXT": 73529,
  "(writer": 39456,
  "ournal": 5036,
  "(report": 46275,
  "ENTIC": 94407,
  "ĠãĤ°": 115334,
  "utors": 9663,
  "table": 2048,
  "Ġlangs": 65052,
  ".\"&": 84884,
  ".check": 9271,
  "ĉsql": 31733,
  "bef": 58747,
  "ĠÄįlovÄĽk": 114446,
  "leared": 93433,
  "_finalize": 71716,
  "_INCREMENT": 59158,
  "(socket": 28148,
  "Ġdan": 9279,
  ".CharField": 12927,
  "Ġanger": 19788,
  "Ġê±°": 101429,
  "ĠReason": 27857,
  "degrees": 70849,
  "Æ°a": 93458,
  "Ġ=\"": 17689,
  "ysis": 4548,
  "Ġanonym": 32248,
  "Ġfirefight": 38703,
  "Ġgdy": 77034,
  "ĠÙģØ±Ø§ÙĩÙħ": 124190,
  "Ġasset": 9513,
  "JS": 12830,
  "Ġinteractions": 22639,
  ".forward": 27613,
  "Ġdebacle": 100012,
  "ìĭĿ": 77437,
  "Ġmort": 10237,
  "ĠHACK": 96223,
  "_weather": 70464,
  ",unsigned": 58520,
  "/*!": 19202,
  "Ġcycles": 25492,
  "ĠJamie": 36857,
  "ĠÐ´Ð¾Ð´": 108242,
  "gregator": 59231,
  "Effects": 40882,
  "ĠIMO": 85171,
  "_put": 15927,
  "Ø§Ø²ÙĦ": 123212,
  "ÐĿÐŀ": 110959,
  "ĠVentura": 85754,
  "Ł³": 59815,
  "ĠéĢ": 102542,
  "Ġstormed": 86087,
  "ĠMaj": 31779,
  "Ġenlarg": 41039,
  "inherits": 78936,
  ".Flags": 52987,
  "}}\"Ċ": 96163,
  "Ġdx": 14142,
  "Ġsilk": 41044,
  "ĠíĻĺ": 104613,
  "Angular": 69459,
  "Ġmalt": 55756,
  "à¸£à¸°à¹Ģà¸ļ": 125838,
  "Ġhar": 4960,
  "Ġgiov": 72623,
  "Ġtearing": 56836,
  "Ġefficient": 11297,
  "ĠSCC": 80399,
  ".untracked": 93957,
  "Ġise": 77193,
  "ĉmain": 37741,
  "Ġtheo": 101036,
  "\\\"\",Ċ": 97001,
  "Ġ%": 1034,
  "ĠCardinals": 44427,
  "(Configuration": 46543,
  "$fields": 78192,
  "Ġseaborn": 95860,
  "Phill": 92777,
  ".conf": 14263,
  "Ġretention": 38231,
  "letal": 46590,
  "ĠÐ¼ÐµÐ´Ð¸ÑĨÐ¸Ð½": 118851,
  "(pred": 34089,
  ".blit": 39636,
  "_suspend": 65296,
  "á»įc": 83126,
  "Ġå¤ı": 122526,
  "Ġkinds": 13124,
  "Ð°Ð»ÑĮÐ½ÑĭÐ¹": 106494,
  "orgot": 44785,
  "ĠJOIN": 13369,
  "_xy": 42020,
  "ĠKitt": 81767,
  "ĠUnlike": 27140,
  ".StartPosition": 60834,
  ".part": 24424,
  "ĠÑģÐ²Ð¾": 101297,
  "ware": 1698,
  "Ġtro": 8348,
  "phins": 40772,
  ".collect": 30224,
  "Ġholy": 27823,
  "Modifier": 35505,
  "spoken": 52858,
  "Ġlyon": 89530,
  "roi": 51560,
  "Ø°": 56434,
  "rage": 48468,
  "-i": 18064,
  "Looking": 23274,
  "=\"?": 53493,
  "Ġmars": 48449,
  "Ð½Ð¸ÑĤÐ¸": 112323,
  "fin": 5589,
  "_ABS": 66346,
  "letic": 22740,
  "648": 23802,
  "Construct": 29568,
  "]=-": 45271,
  "ĠLegion": 40935,
  "åķı": 99397,
  "ĠìŀĪìĹĪëĭ¤": 104816,
  "Ġdried": 32720,
  "forcing": 42596,
  "handlers": 56727,
  "Ġprops": 7059,
  "ĉforeach": 9593,
  "(yy": 86967,
  "_bid": 63609,
  "æ¸¯": 103354,
  "ĠUluslararasÄ±": 121904,
  "ĠAust": 13222,
  "ĠÃ¶": 17372,
  "Ġinstalled": 10487,
  ".credentials": 75854,
  "çº³": 106625,
  ".čĊ": 3304,
  "necessary": 95317,
  "onga": 95024,
  "Ġdefining": 27409,
  "dados": 43689,
  "Ġtapping": 53728,
  "ĠÐ½Ð°Ð¹Ð±ÑĸÐ»ÑĮÑĪ": 121979,
  "-end": 13368,
  "ĠpÃ¤": 93464,
  "oci": 2168,
  "ĠBorn": 38916,
  "_zones": 94102,
  "ĠÑĢÐµÐ·ÑĥÐ»ÑĮÑĤÐ°ÑĤ": 99300,
  "Ġgrieving": 91844,
  ".Never": 84119,
  ".Aggressive": 98288,
  "Ġconfession": 58473,
  "Ġvariety": 8205,
  "(button": 25993,
  "âĢľYou": 33672,
  "Ġdispozici": 119322,
  "ĠÚ¯ÛĮØ±Ø¯": 120648,
  "_assoc": 19425,
  "ĠÑģÐºÐ°Ð·Ð°Ð»": 110964,
  "(;": 56024,
  "Ġblinds": 67161,
  "vang": 28861,
  "(jsonObject": 73030,
  "ĠÐ¿Ð¾Ð·Ð¸ÑĤÐ¸Ð²": 126340,
  ".ec": 30288,
  "ÐİÑĭÑŁN": 126523,
  "ĠgetSupportActionBar": 73928,
  "sburgh": 26320,
  "hal": 12130,
  "Ġ+čĊ": 20159,
  "-system": 37748,
  "ĠXPath": 66242,
  "Ġpath": 1853,
  "ĠÐ´Ð¸Ð²": 109053,
  "ascimento": 58061,
  "ĠBaton": 86269,
  "Feedback": 36448,
  "/sec": 61171,
  "ĠBillboard": 67293,
  "æĹ©": 103856,
  "Ġslopes": 60108,
  "ĠWorld": 4435,
  "Build": 11313,
  "Ġï¼¼Ċ": 117040,
  "å¾ŀ": 110039,
  "Î´ÏĮÎ½": 115952,
  "ĠCr": 4656,
  "Ð¸Ð³": 70397,
  "ÐµÐ½Ð¸Ð¼Ð¸": 117861,
  ".Exec": 31898,
  "FXML": 29248,
  "notif": 86146,
  "_part": 10715,
  "æŀļ": 109577,
  "ĉstring": 11611,
  "Ġ/>čĊ": 18473,
  "ĠErd": 45793,
  "Ġresumed": 58505,
  "Ġgiá»¯": 102644,
  "Seats": 100068,
  "Ġhoof": 85830,
  "ĠÄįtyÅĻi": 118541,
  "GetInstance": 43861,
  "eyond": 23478,
  "á»Ĺng": 127329,
  ":\")": 91320,
  "Ġligne": 27912,
  "ĠEclipse": 37223,
  "Ø³ÙĬ": 102033,
  "ìĽĲìĿĦ": 125160,
  "ĠStein": 35606,
  "Ġlarvae": 83861,
  "ĠÐµÑģÐ»Ð¸": 47353,
  "Ð¸Ð·Ð½ÐµÑģ": 119179,
  "ÑģÑĤÑĢÑĥÐºÑĤÐ¾ÑĢ": 89410,
  "ĠMuhammad": 36831,
  "ĠTher": 23258,
  "Ġjoys": 94898,
  ".emplace": 31891,
  ".<": 16134,
  "requests": 37342,
  "ĠCommandType": 38027,
  "Ġadvantages": 22934,
  "ileen": 91794,
  "Ð¾ÑĤ": 13337,
  "dummy": 32490,
  "893": 26088,
  "(py": 47927,
  "ãģłãĤĪ": 120572,
  "ĉps": 36109,
  "Ġlegal": 5897,
  "ĠSouthampton": 62251,
  "ï¼Įä¸Ģ": 104295,
  "éº¼": 114064,
  ".hp": 51734,
  "[@": 12606,
  "_particles": 68660,
  "Ø§Ø±Ø§Øª": 103363,
  "filename": 8570,
  "Ġboilers": 70049,
  "ĠTT": 33844,
  "ĠHUD": 49696,
  "ĠÃºltima": 72128,
  "ÑĢÑĥÐºÑĤÑĥ": 106713,
  "ĠnÃ¡m": 103516,
  "Ġworkouts": 46944,
  "åŃĶ": 115850,
  "íĨ¤": 122752,
  "ĠLX": 76898,
  "Ġingestion": 88447,
  "seniz": 127962,
  "ĠÐ¿Ð¾Ð´Ð¾Ð¹": 126216,
  ".ExecuteScalar": 82669,
  "ĉMat": 71168,
  "nÃ©": 52235,
  "ĠkvÄĽtna": 116040,
  "ĠØµÙĨØ¹ØªÛĮ": 117783,
  ",label": 63898,
  "-generator": 79102,
  "horia": 96729,
  "MBProgressHUD": 92373,
  "à¹ĮĊ": 105054,
  "à¸µà¸ģà¸²à¸£": 105391,
  "âĢ¦": 1981,
  "Ġdives": 94521,
  "ĠzajÃŃm": 113567,
  "Ġremainder": 27410,
  ".lng": 58114,
  ">Select": 63505,
  "(groupId": 99485,
  "ĠJordan": 17527,
  "Ġlemma": 19340,
  "ĠKal": 27930,
  "Ġimaginative": 77361,
  "icter": 80739,
  "Ġheapq": 89622,
  "Å¡ov": 126126,
  "/hr": 76001,
  ".toByteArray": 67284,
  "(IT": 89133,
  "ift": 2130,
  "SizeMode": 33176,
  "ToUpper": 77886,
  "_REGISTER": 34455,
  "ĠQUEST": 57828,
  "Ġfighter": 25902,
  "ï¼İ": 59983,
  "ĠÐ²ÑĸÐ´Ð¿Ð¾Ð²ÑĸÐ´Ð°Ð»ÑĮ": 119496,
  "ĠMad": 9671,
  "_reason": 39329,
  "ĠCassidy": 92897,
  "ĠDÃ¶n": 116694,
  ":m": 31386,
  "ĠEvery": 7357,
  "Ġrecount": 41286,
  "Ġfolk": 29036,
  "interpreter": 91654,
  "Ġfizz": 88079,
  "Ġdismantle": 95158,
  "ĠFXMLLoader": 91339,
  "Ġballot": 26938,
  "Ġinfluenza": 62937,
  "venting": 82920,
  "locale": 14824,
  "ĠWin": 12468,
  "graded": 24228,
  "Ġprophet": 53604,
  "azine": 10119,
  "notation": 11170,
  "Ġsinks": 58052,
  "ÑĥÐ·": 101647,
  "ffect": 1740,
  "_RULE": 51595,
  "ĠíĬ¹ë³Ħ": 120295,
  "ARI": 16412,
  "ãģ¾ãģĻ": 33541,
  "competition": 79123,
  "ĠcreateDate": 87585,
  "records": 27295,
  "_fatal": 93288,
  "Ġà¸ļ": 101148,
  "Ġâŀ": 83806,
  "dÄ±ÄŁÄ±nda": 125898,
  "ĠCommunity": 12332,
  "grund": 60885,
  "=%.": 90770,
  "ĠREMOVE": 49883,
  "Ġrustic": 58372,
  "_purchase": 64303,
  "builders": 99607,
  "à¸¥à¸²à¸¢": 118905,
  "ĠEssen": 99775,
  "ĠJohn": 3842,
  "Ġtoken": 4037,
  "ĠBills": 46740,
  "ĠHavana": 86975,
  "Ø¯ÛĮØ¯": 111944,
  "Ġpossibly": 11000,
  "REMOTE": 57120,
  "Although": 16179,
  "å¥ī": 121299,
  "è¿«": 117598,
  "alardan": 123997,
  ".scene": 17080,
  "Ġdeps": 49278,
  "Ġsucces": 50551,
  "Labels": 24600,
  "ĠØªÙĪ": 102124,
  "Ġ....ĊĊ": 95899,
  "stinence": 95821,
  "ĠIMF": 60170,
  "èį£": 116930,
  "ĠPatricia": 55034,
  "_team": 27630,
  "LANGADM": 76371,
  "è¡Įä¸ļ": 113366,
  "riday": 6249,
  "-centric": 65524,
  "ĠBabe": 74448,
  "Ġcomps": 89373,
  "Ġrecherche": 38317,
  "getMethod": 91261,
  "Ġ(*.": 58118,
  ".house": 84479,
  "_PR": 10794,
  "ĠKilling": 70677,
  "Ð»Ð¸ÑĤÐµÐ»ÑĮ": 113820,
  "ĠPASS": 51935,
  "ĠvlÃ¡d": 115845,
  "ĠFREE": 16655,
  "ĠCAT": 45081,
  ".mozilla": 54934,
  "ĠyapÄ±lmÄ±ÅŁ": 123965,
  "à¹īà¸Ńà¸ĩà¸ģ": 114123,
  "-backend": 91087,
  "%);Ċ": 95152,
  "_EDGE": 53143,
  "ëģ¼": 110833,
  "edith": 82163,
  "Hard": 28005,
  ".sparse": 90258,
  "_serial": 26684,
  "-article": 78505,
  "Ġoccurred": 10222,
  "Aside": 71088,
  ".opensource": 76917,
  "Ø¯Ùī": 127818,
  "/im": 73124,
  "ĠÑĥÐ´Ð¸Ð²": 126371,
  "Units": 27411,
  "SCREEN": 36388,
  "Ġsolve": 11886,
  "ÙĪÙĦ": 73904,
  "âĢĥ": 116503,
  "Tuy": 123436,
  "egrity": 68312,
  "Î¿Î½ÏĦÎ±ÏĤ": 114837,
  "Ġtorino": 71543,
  "phys": 42305,
  "èŀį": 106075,
  "ĠÎ±ÏĥÏĦ": 126938,
  ".\"</": 41197,
  "Ø§ÙĪØ±Ø²ÛĮ": 123305,
  "ÑĩÐµÑģÐºÐ¸Ðµ": 110761,
  "ĠPhotographer": 75839,
  "ĠÐ²ÐµÑģ": 105833,
  "ĠÐ¢Ð°ÐºÐ¶Ðµ": 116071,
  "Ġconsenting": 93501,
  "-key": 16569,
  "(DateTime": 33183,
  "ĠVariation": 89585,
  ".After": 37992,
  "ĠfileList": 70176,
  "ĠPub": 23435,
  "sortable": 66698,
  "Ġchild": 1716,
  "Ġladder": 36865,
  "ê¹ĮìļĶ": 117677,
  "ëĮĢ": 67945,
  "Ġgenetic": 19465,
  "Ġ!!": 11261,
  "/twitter": 83328,
  "_VAR": 26834,
  "_costs": 87046,
  "ĠWilmington": 85605,
  "company": 10348,
  "ĠviewModel": 21369,
  "VALUES": 47189,
  "ĠChristina": 60771,
  "_bw": 65584,
  "ĠMike": 11519,
  "ĠcurrentPage": 40414,
  "Ġhide": 10477,
  "Terminate": 63619,
  "FALSE": 31451,
  "ino": 3394,
  "Ġbietet": 61829,
  ">);Ċ": 43113,
  ".getEntity": 54905,
  "Ġstencil": 73470,
  "Ġdisen": 91910,
  "Î¬Î½Ïī": 112566,
  "Ġendurance": 49286,
  "().": 1020,
  "à¥įà¤¬à¤¨": 127414,
  "lette": 10010,
  "Ġoutspoken": 70379,
  "_Read": 39481,
  "-purpose": 59338,
  "Ãºn": 25155,
  "Ġreinc": 95807,
  "Ġprovisions": 19705,
  "ĠÎ¤Î±": 109930,
  "Ġ<|": 83739,
  "ĠMcB": 99974,
  "Ġlr": 28159,
  "ĠSá»ĳ": 112553,
  "ĠAFP": 27746,
  "Pic": 34905,
  "/type": 50711,
  "_RETURNTRANSFER": 72265,
  "sport": 62001,
  ".Provider": 37308,
  "glyphicon": 22921,
  "ĠInch": 55692,
  "ĠÑģÑĩÐ¸ÑĤ": 114535,
  "Ġwx": 9253,
  "ilege": 43869,
  "Ġalanda": 120730,
  "éĽĨåĽ¢": 113911,
  "Ġhouses": 15316,
  ".li": 62519,
  "ĠDecide": 99981,
  "itter": 3328,
  "ĠâĢĶĊ": 107216,
  "Bien": 82606,
  "ĠBÃ¶lgesi": 126248,
  "(animation": 75228,
  "ĠwxString": 57716,
  "about": 9274,
  "#######Ċ": 83124,
  "//================================================================================": 95403,
  "ĠPeer": 46247,
  "ĠAvust": 123456,
  "Ġpesticide": 84673,
  "ĠHVAC": 66433,
  "Des": 5001,
  "tlement": 45589,
  "ĠSurvivor": 65580,
  ":NSLocalizedString": 94195,
  "(se": 10698,
  "processed": 35122,
  "ĠtÃ¼rÃ¼": 125463,
  "Ġstruk": 123483,
  "ä¼ł": 42783,
  "-Mail": 38613,
  "(sprintf": 41754,
  "!==": 50114,
  "ãģ£ãģŁ": 100472,
  "Video": 10955,
  "Å¾el": 105089,
  "111": 5037,
  "Î½Î¿Î¼Î±": 115862,
  "dff": 99814,
  "ĠÙħØ·": 102190,
  "ĠSuffolk": 81883,
  "Ġperfectly": 14268,
  "ĠReasons": 66131,
  "urope": 4176,
  ".dp": 52306,
  "Ġimpulses": 87633,
  "ber": 655,
  "Ġrat": 11494,
  "ĠðŁĻĤ": 28584,
  "ffa": 73042,
  "ĠEzra": 85418,
  "Fax": 61409,
  "ĠApprox": 44919,
  ".sum": 13485,
  "Ġunlocking": 80478,
  "ĠPreservation": 92041,
  "Ġluk": 82380,
  "ĠProvince": 38894,
  "prehensive": 53999,
  "Ð°ÑĢÑĸÐ²": 115313,
  "Ø§ÙĤØ¹": 103471,
  "ĠÐ±Ð°Ð³": 104564,
  "};čĊ": 15776,
  "Ġvrou": 23259,
  "ĠMarie": 33116,
  "gp": 22650,
  "Ġechoes": 71057,
  "ãģ¨ãģį": 110018,
  "Gr": 6600,
  "Ġdesn": 66380,
  ".Ma": 94067,
  "Ġincentives": 36580,
  "Ġabolish": 90376,
  "acer": 9779,
  "à¸ł": 100658,
  "Birth": 32578,
  "hesive": 41918,
  ".AddDays": 67593,
  "é¡¿": 113176,
  "ĠAch": 46665,
  "_QUESTION": 94530,
  "Authorized": 61554,
  "als": 1147,
  "(new": 1792,
  "({\"": 17289,
  "Ġgiá»ĳng": 108024,
  "Ġstranded": 63205,
  "ãĤ«ãĥ«": 115145,
  "Log": 2250,
  "Ġéģ": 104102,
  "ĠØ§Ø¨ØªØ¯Ø§": 126129,
  "_bloc": 72672,
  "rant": 35534,
  "DirectoryName": 85383,
  "ĠÐ¿ÑĢÐ°": 100804,
  "æ´ģ": 121730,
  "()];Ċ": 34900,
  "ĠoranÄ±": 118473,
  "unsigned": 3710,
  "elen": 8564,
  "extract": 24396,
  "=row": 66629,
  "ĠØ³Ùĩ": 104648,
  "_hi": 48325,
  "Ġcentro": 41987,
  "676": 24187,
  "Ð¾Ð±ÑĭÑĤÐ¸": 97854,
  "Ð¾Ð´Ð¾": 105491,
  "ÐµÑĢÐ°Ñħ": 120692,
  "lord": 26680,
  "Ġrecipients": 34876,
  ".map": 4875,
  "Ġkvinder": 42525,
  "ÙĤØ¯Ø±": 118831,
  "Cards": 29548,
  "ipv": 43776,
  ":['": 70387,
  "linked": 44233,
  "Ġâĸ¼": 114207,
  "_delete": 11607,
  "dq": 86746,
  "ãģĭãģ®": 116421,
  "ĠKrÃ¡l": 115731,
  "Ground": 31814,
  "B": 33,
  "988": 24538,
  "Ġfrequ": 6297,
  "=$('#": 97661,
  "Metadata": 14952,
  "_prim": 88519,
  "ÑĤÐ°Ðº": 105789,
  "Update": 4387,
  ":S": 76469,
  "ĠcÃ¹ng": 101708,
  "went": 42700,
  "ÐµÐ²Ñĸ": 125514,
  "(long": 12916,
  "redentials": 16112,
  "æĽľæĹ¥": 121914,
  "ĉtotal": 35593,
  "YYY": 53409,
  "Ġstatt": 68417,
  "ĠÑĩÐ¾Ð»Ð¾Ð²ÑĸÐº": 115399,
  "oly": 5849,
  "Ġvaping": 81388,
  "Ġbravery": 86166,
  "Ġscarce": 59290,
  "æĭĶ": 119789,
  "ĠÎ¨": 120184,
  "Detection": 55917,
  "Ð°Ð»Ð¾Ð²": 120154,
  "ĠìķĮëł¤": 116023,
  "Ġcowboy": 81272,
  "TEAM": 98152,
  "Ã¼tÃ¼n": 103209,
  "ãĥĥãĤ«ãĥ¼": 125135,
  "Ġmuito": 34850,
  "å¦ĤæŃ¤": 110474,
  "(\"'": 46556,
  "_Red": 94040,
  "Ġinteg": 5503,
  "ĠØ¬Ø±ÛĮØ§ÙĨ": 118624,
  "transport": 27543,
  "hash": 8460,
  "Unmarshaller": 88790,
  "GuidId": 89274,
  "arer": 61570,
  "Ġimmigr": 15644,
  "905": 22393,
  "ĠØ£ÙĨÙĩ": 110868,
  "ÏģÎ¯Î±ÏĤ": 123678,
  "ĠÐ³Ð¾ÑĢÐ¾Ð´": 107317,
  "Ġscriptures": 87733,
  "IDS": 26696,
  "emade": 29532,
  "FUL": 50736,
  "à¹Ģà¸Īà¸£": 124567,
  "II": 5660,
  "Ġmkdir": 31173,
  "Ġdepos": 26364,
  "Ġcogn": 19329,
  ".disconnect": 48324,
  "ĠCPR": 77898,
  "Ġdatum": 42656,
  "(tc": 45515,
  "Ġ\\<^": 77989,
  "Ġallocate": 22864,
  "ppy": 35063,
  "ĠAuthority": 22677,
  "NotFoundException": 14920,
  "README": 55775,
  "'Ä±n": 105058,
  "åł¡": 114618,
  "Ġov": 25568,
  "Ġstrategist": 65235,
  ".EN": 53846,
  "ummies": 50279,
  "Ġcreepy": 51940,
  "daemon": 76941,
  "ĠðŁĺĢ": 91416,
  "@property": 7149,
  "Ġ)))": 100052,
  "GRP": 97093,
  "Privacy": 48932,
  "ï¼Įä¹Ł": 104587,
  "fight": 21828,
  "ĠÐ¾ÑĤÐ»Ð¸": 110378,
  "ĠÑģÑĤÐ°Ð½Ð¾Ð²": 105101,
  "iswa": 68320,
  "(step": 39536,
  "_cast": 5416,
  ".try": 49879,
  "Ġdando": 93745,
  "Ġlocalization": 53404,
  ":M": 66307,
  "Ġprimarily": 15871,
  "Now": 7184,
  "Ġatmosphere": 16975,
  "ĠBlanc": 70025,
  "ĠFilter": 12619,
  "274": 16590,
  "logen": 86945,
  "ĠmuÅ¾": 109353,
  "Johnny": 88960,
  "oleon": 60203,
  "583": 23493,
  "ĠÚ©ÙĪÚĨ": 112433,
  "Ġná»ķi": 107132,
  "Ġsecurities": 34919,
  "Pts": 91249,
  "ĠÐºÑĢÐ¾Ð²": 103658,
  "Ð°ÑĤÐµÐ»Ñı": 107587,
  "Î¼ÎµÏģÎ¿": 126225,
  "ĠvhodnÃ©": 126631,
  "/location": 92605,
  "<|eot_id|>": 128009,
  "RESOURCE": 55360,
  "ĠÐĽ": 100562,
  "Ġerhalten": 59084,
  "ĠAg": 4701,
  ":`~": 78902,
  ".ĊĊĊĊĊĊĊĊ": 28527,
  "ÐºÐ¾ÑģÑĤÐ¸": 113910,
  "ëŀĺìĬ¤": 90862,
  "Ġdello": 82701,
  "<|reserved_special_token_143|>": 128148,
  "ocracy": 46360,
  ".Theme": 70958,
  "ĠfontWithName": 98218,
  "ĠÑģÑĤÑĢÐ°Ð½Ñĭ": 124147,
  "pit": 33686,
  "ĠÐ¦ÐµÐ½ÑĤ": 114260,
  "ĠMade": 19332,
  "Ġrumored": 70468,
  "ĠAR": 6395,
  "iero": 44688,
  "Ġswing": 19336,
  "ĠØŃØ³ÛĮÙĨ": 116220,
  "Ġms": 10030,
  "apl": 73389,
  "ĠyÃ¶net": 105406,
  "Ġzamanda": 107230,
  "à¸Ńà¸Ł": 119548,
  "Ġresponders": 70639,
  "txn": 74470,
  "-arm": 67918,
  "Ġ(('": 93933,
  "_font": 17909,
  "toMatch": 44648,
  "-avatar": 80187,
  "Ġ[Ċ": 2330,
  "ĠÐ²ÐºÐ»ÑİÑĩ": 110885,
  "ÑģÐ¾": 124530,
  "asar": 68038,
  "ÙĪÙĦØ¯": 121300,
  "luÄŁ": 110013,
  "Decision": 75946,
  "elu": 79378,
  "ĠTcp": 65976,
  "Ġbiscuits": 87076,
  "Ġglac": 80616,
  "ĠcÃł": 119599,
  "éģ¿": 111098,
  "à¥ģà¤°à¤ķ": 111503,
  "ĠYYSTYPE": 98688,
  "=self": 7822,
  "_animation": 49587,
  "ĠÚ¯ÙĦ": 106619,
  "118": 8899,
  "ĠMem": 13862,
  "_GPIO": 18344,
  "ĉview": 37967,
  "imentos": 56373,
  "UEST": 55832,
  "married": 70582,
  "Unicode": 35020,
  "(currency": 91575,
  "(const": 2809,
  "ĠÙĪÙĦ": 104011,
  "Ø´Ø¯": 106263,
  "Ġemiss": 99763,
  "ĠSailor": 99002,
  "Î»Î¿Î½": 109716,
  "Grid": 3627,
  "Beautiful": 47618,
  "Ġ$čĊ": 96984,
  "_AV": 30486,
  "ramid": 32803,
  "-details": 31533,
  "-pages": 73447,
  "Ġneedy": 83563,
  "getto": 64722,
  "à¸¡à¸²à¸ģ": 102768,
  "Ġì¹´": 103236,
  "ĠFITNESS": 7877,
  "Ġunfamiliar": 50383,
  "','',": 75504,
  "hyper": 69292,
  "Ġtang": 22636,
  "ĠÄįasu": 119584,
  "$ĊĊ": 67526,
  "izr": 66462,
  ".setTo": 87959,
  ">>(": 26607,
  "Ġdominant": 25462,
  "assing": 73932,
  "needed": 41917,
  "à¸´à¸Īà¸ģà¸£à¸£à¸¡": 118345,
  "Ġchilled": 85042,
  "åĪĨ": 17620,
  ".eulerAngles": 81623,
  "ä¸ºç©º": 51747,
  "ĠìľĦ": 46810,
  "TITLE": 51428,
  "ational": 1697,
  "Ġmatches": 9248,
  "<Unit": 81387,
  "TexCoord": 50290,
  "ĉtypes": 99885,
  "Ġseriously": 14243,
  "Sans": 47982,
  "ĠÎĴÏģÎ¿ÏĩÎ®": 124380,
  "ĠÙħÙĦÙĬ": 116645,
  "degree": 42127,
  "Ġmateria": 45558,
  "RecyclerView": 38648,
  "aturally": 72247,
  "ĠWolves": 64579,
  "RI": 4403,
  "-choice": 63726,
  "Today": 15724,
  "echan": 112939,
  "ĠSt": 800,
  "ĠÐºÐ»Ð°": 112244,
  "Ġflashback": 98523,
  "Ġëĭ¨": 103123,
  "Ġpostgres": 60926,
  "Ġimmedi": 5668,
  "xE": 12892,
  "ĠAud": 15416,
  "Ġabsol": 88661,
  "ircuit": 38368,
  "LOGY": 52532,
  "ĠSaÄŁ": 110560,
  "ĠØªÛĮ": 116386,
  "_cores": 94541,
  "poser": 20672,
  "Ġtarn": 87580,
  "ÑĩÐ°Ñģ": 103716,
  "ĉbt": 83130,
  "anÃ©": 107369,
  "Ġhealthy": 9498,
  "ĠÑĤÐ¾Ð½": 108164,
  "Ġcongr": 31269,
  "Ġdissoci": 91342,
  "gorithms": 19517,
  "Ġpretend": 35840,
  "__)Ċ": 24010,
  "025": 18070,
  "ifica": 30588,
  "Movies": 41179,
  ")t": 79205,
  "ĠØ¨ÛĮÙħ": 106683,
  "para": 15138,
  "Ġunused": 20604,
  "ĠÑĢÐ¸Ð·": 120010,
  "Ġrevolutionary": 30191,
  "Ð»ÑıÐµÐ¼": 67768,
  "Ġduly": 77903,
  "ĠNewest": 79797,
  "Ġscent": 41466,
  "Ġcommunicates": 92606,
  "ÄĲiá»ģu": 115373,
  "ìĶ©": 123504,
  "age": 425,
  "ĠChinese": 8620,
  "ĠCoverage": 56769,
  "Ġexplodes": 95013,
  "EndDate": 49561,
  "ĠSIX": 98738,
  "à¤ł": 101985,
  "Ġìľłì§Ģ": 124208,
  "ĠPump": 34826,
  "Ġelites": 56803,
  "ĠÙ¾Ø²Ø´": 110809,
  "``": 14196,
  "(pdf": 86280,
  "ĠCustomers": 40689,
  "Ġbehavior": 7865,
  "_VIRTUAL": 78059,
  "Ġbrightest": 72021,
  "olo": 10216,
  "Clearly": 75471,
  "dÃŃl": 112055,
  "à¥Ĥà¤¸à¤°": 105869,
  "Ġpersonnel": 17274,
  "Ġtrademarks": 42134,
  "à¸£à¸²à¸°": 110232,
  "Ġà¤ļà¤²": 103746,
  "ĠSoros": 71287,
  "Ġconsole": 2393,
  "ĠCG": 6290,
  "Ġconfidentiality": 65295,
  "_Syntax": 49529,
  "ĠEVAL": 97492,
  "FileSync": 32206,
  "us": 355,
  "_ACT": 16302,
  "Non": 8284,
  "Ġcarousel": 53381,
  "ĠØ¥ÙĦ": 124502,
  "Ġcoursework": 75533,
  "ĠAutof": 94922,
  "Ġparse": 4820,
  "mlin": 42026,
  "ĠÑĥÑĩ": 101990,
  "_episodes": 98107,
  "Ġ(-": 10505,
  "ĠWX": 78541,
  "ĠĠĠĠĠĠĠĠĠĠĠĠĠĠĠĠĠĠĠĠĠĠĠĠĠ": 3586,
  "Validation": 14118,
  "<?>": 20112,
  "images": 3726,
  "_action": 8090,
  "ame": 373,
  "Ġ;;": 13981,
  "(Control": 80968,
  "Ġä¸ĥ": 117485,
  "anager": 8347,
  "ĠÑįÑĤÐ¾ÑĤ": 106380,
  "ĠÙĦØº": 122859,
  "ĠÃľber": 50471,
  ".geo": 62288,
  "Ø±Ø¬": 107971,
  "#Ċ": 5062,
  "////////////////////////////////////////////////////////////////////////////": 28282,
  "ä¸»ç¾©": 121930,
  "quotes": 54382,
  "aska": 17309,
  "ancial": 5003,
  "_Com": 17376,
  ".netty": 39796,
  "Ġsecretion": 87067,
  "Ġoverweight": 50254,
  "bere": 62386,
  ".black": 22220,
  ".TEST": 74601,
  "ĠFighter": 42667,
  "Ġtomorrow": 16986,
  "Ġï½²": 117730,
  "indexPath": 19420,
  "Ġvowed": 51130,
  "ï»¿//": 35866,
  "](\"": 74369,
  "åıĶ": 123183,
  "Ġwary": 55274,
  "Ð¾ÐºÐ¸": 113809,
  "Ġ=============================================================================Ċ": 83149,
  "ï½Ĭ": 120780,
  ".Dec": 23250,
  "API": 7227,
  "\\\"></": 41597,
  "udoku": 69402,
  "/table": 46426,
  "lane": 38947,
  "à¹īà¸²à¸ķ": 126009,
  "Ð¾ÑĩÐ½ÑĭÑħ": 118671,
  "<|reserved_special_token_164|>": 128169,
  "ĠÑĦÐ°Ðº": 103788,
  "ç»ĵåĲĪ": 126534,
  "ĠButton": 6739,
  "utility": 32000,
  "leases": 29399,
  "-note": 68338,
  "ĠErg": 74302,
  "Ġdiscreet": 62504,
  "ography": 5814,
  "Ġcampuses": 53008,
  "scheduler": 64222,
  "à¸ŀà¸§à¸ģ": 110543,
  "ElapsedTime": 99583,
  "Ġlean": 16025,
  "ĠFAMILY": 88569,
  "=dict": 40697,
  "ĠÐ²Ð¸Ð¿Ð°Ð´": 106914,
  "ĠHtml": 19751,
  "ĠLambda": 45621,
  "$email": 53803,
  "ao": 3524,
  "tableFuture": 70729,
  "Ġcpt": 95567,
  "Ġ****": 31804,
  "Ġoriginates": 99970,
  "Ġ:+:": 16329,
  "ĠØ§ÙĦØ¬": 101088,
  "ĠHome": 5492,
  "_log": 5337,
  "(sem": 84158,
  "Ġjste": 106916,
  "ĠHolly": 53425,
  "Ġmanner": 11827,
  "Ġconvergence": 56541,
  "ĠaddSubview": 18669,
  "cery": 22228,
  "upal": 21175,
  "ÑĩÐºÐ¸": 120058,
  "Î®": 74030,
  "Ø§Ø¯ÙĬØ©": 118464,
  "877": 23873,
  "Ġshedding": 80417,
  "Ġretains": 52944,
  ".um": 78351,
  "ĠÐ¢Ð°Ð¼": 117212,
  "ãģĤãģĤ": 115690,
  "ĠOptional": 12536,
  "Ġeditor": 6576,
  "Ġobserved": 13468,
  "_speed": 17374,
  "Ui": 24640,
  "ftar": 47301,
  ",False": 83037,
  "ĠSikh": 83662,
  "Ġclass": 538,
  "ç·": 100783,
  "uae": 76617,
  "ĠÑĤÑĢÐ¾": 113719,
  "UpdateTime": 65399,
  "ĠAudi": 40928,
  "è¶": 50266,
  "Ġrefl": 83535,
  "Ġsounded": 35408,
  "Ġastro": 47804,
  "upply": 85023,
  "Ġtrio": 35062,
  ".randn": 64106,
  "izzer": 94429,
  "olicitud": 59499,
  "(Dense": 69341,
  "urons": 54769,
  "_markup": 55549,
  "ĠBunlar": 126448,
  "ĠRelationships": 69668,
  "ĠÙĨÙħÛĮ": 104052,
  "Ġchunk": 12143,
  "-form": 8627,
  ".Calendar": 46222,
  "Ġmarital": 60439,
  "Ġé¦ĸé¡µç¬¬": 115107,
  "Ġmandatory": 23911,
  "114": 8011,
  ".Parent": 30085,
  "ĠfranÃ§": 42437,
  "Î¦": 104143,
  "çľĭè§ģ": 126093,
  "Ġsupplementation": 73796,
  "Ġunparalleled": 71257,
  "ĠcomponentName": 95242,
  "ĠØŃØ°": 119337,
  "ĠReform": 40365,
  ".flag": 42330,
  ".department": 67300,
  "serialized": 76377,
  "Ġphysically": 22655,
  "ĠUIControl": 79004,
  "ĠIncome": 33620,
  "çĦ¡": 43568,
  ".FormStartPosition": 66195,
  "ountains": 93406,
  "ÙĬÙĥØ§": 127663,
  "ãĥ¼ãĥ¬": 117163,
  "'ai": 34155,
  "Ġtreason": 79359,
  "/template": 38194,
  "Phones": 64187,
  "ÙĪØªØ±": 112597,
  "anded": 6601,
  "Ġbacterial": 45964,
  "_PLATFORM": 44319,
  "punk": 76609,
  "Ġdecir": 50018,
  ".toBe": 84546,
  "Ġrather": 4856,
  "Except": 59115,
  "uitable": 86581,
  "ĠORM": 54690,
  "Valid": 4180,
  "ĠTourism": 52652,
  "_listen": 80386,
  "sdale": 84782,
  "ĠTang": 41462,
  "')]": 52128,
  "Ġtre": 4353,
  "ĠStereo": 73075,
  "Ġcolumn": 3330,
  "arehouse": 20870,
  "-messages": 89242,
  "ĠEXTI": 86118,
  ".assertNull": 92172,
  "ÑŁÑŁÑŁÑŁÑŁÑŁÑŁÑŁÑŁÑŁÑŁÑŁÑŁÑŁÑŁÑŁ": 100509,
  "Ġscares": 97471,
  "CrLf": 84529,
  "ä¸Ģäºº": 122485,
  "ÏĥÎ¹Î±": 111781,
  "ĉredirect": 39021,
  "à¸«à¸Ļà¸Ķ": 113189,
  "ê²Įìĭľ": 117006,
  "iments": 12843,
  "itored": 37301,
  ".Params": 59368,
  "Ġsched": 5692,
  "posables": 97066,
  "Ġrobotics": 74706,
  "ÏĥÎ·": 100569,
  "EncodingException": 57737,
  "ą": 193,
  "USR": 50658,
  "Pad": 14047,
  "ĠÐĶÐ¾Ð±": 118106,
  "Ġsdk": 46502,
  "ĠÐ¿Ð¾ÐºÐ¾Ð»": 125345,
  "å¨ģ": 105578,
  "/help": 80030,
  "_ARGS": 25386,
  "Ġnije": 87593,
  "ĠÐ¿ÑĢÐ¸Ð½Ñı": 116046,
  "ILLED": 81011,
  "/select": 38446,
  "Ġside": 3185,
  ".ft": 54923,
  "Ġpodrob": 126479,
  "ĠmainScreen": 67506,
  "-editor": 47567,
  "ĠlÃ©kaÅĻ": 113463,
  ">)": 9414,
  "ĠXbox": 21222,
  "ofil": 47899,
  "ĠLiquid": 42358,
  "Ġsermon": 76482,
  "Ġdua": 97921,
  "Ġposterior": 46000,
  ".getDay": 71934,
  "Ġclearer": 49479,
  "ĠReplies": 64439,
  "ures": 1439,
  "à¸±à¸ļà¸ª": 113854,
  "Ġfatty": 40085,
  ".Helper": 70382,
  "slope": 97612,
  "WARDED": 98809,
  "Xi": 71730,
  "ĠautoFocus": 95581,
  "ĠKushner": 62431,
  "åĽ´": 105885,
  "Ġå¤§éĺª": 126730,
  "_RS": 60238,
  "Ġconquer": 51630,
  "íķ´": 34983,
  "\"]];Ċ": 41430,
  "Ġfullname": 62136,
  "Ġbenchmarks": 63119,
  "ê´Ģë¦¬ìŀĲ": 122619,
  "Ġforge": 57728,
  "_toggle": 49960,
  "loses": 50441,
  ")();Ċ": 85017,
  "_open": 11563,
  "fÃ©": 59958,
  "ĠvÅ¡em": 121788,
  "ĠÎ½Îµ": 126650,
  "cwd": 33265,
  "ĠíķĦìļĶíķľ": 126168,
  "ï¼ĮæĽ´": 127773,
  "Ġidx": 7335,
  "Ġgroundbreaking": 64955,
  "ĠPOT": 62602,
  "ĠÐ½ÐµÐ²": 105218,
  "ĠÑĢÐ¾Ð¼": 112029,
  "ĠMick": 60333,
  "Ġ,": 1174,
  "è®¡ç®Ĺ": 112352,
  "irse": 83714,
  "ĠFuk": 63759,
  "Ġæµ·": 109283,
  "Ġconnectors": 58170,
  "Ġmagistrate": 95191,
  "Ġ?>ĊĊĊ": 71293,
  "igrated": 95930,
  "ä¸¸": 113692,
  "Ġfrontend": 46745,
  "Ġprisons": 49429,
  "Very": 26840,
  "ĠNSS": 57108,
  ".bulk": 89691,
  "Ġopsiyon": 125918,
  "@foreach": 71670,
  "Ġgrp": 52959,
  "Ð½Ð¸Ð·": 107537,
  "åĶ¯ä¸Ģ": 121821,
  "itary": 45906,
  "ĠScholarship": 58984,
  "Ġasphalt": 46362,
  "Ġpreventative": 97420,
  ".Game": 21613,
  "æ²": 31106,
  "ipro": 49889,
  "Ġdab": 83868,
  "204": 7854,
  "Î¯Î¿ÏĤ": 121378,
  "Used": 23580,
  "à¹Ģà¸łà¸Ĺ": 113038,
  "announce": 66612,
  "ĠDirector": 10783,
  "-b": 1481,
  "ĠRencontre": 45685,
  "ĉrec": 69004,
  "ĠprÃ©sident": 89802,
  "ĠdeÄŁ": 62087,
  "/T": 17146,
  "armed": 31372,
  "constructor": 22602,
  "['<{": 74300,
  "ĠBurn": 18530,
  "Wrong": 30285,
  "Ġdisciplinary": 57315,
  "Ð¾Ð»Ð¸ÑĤ": 126151,
  "Won": 76936,
  "Ġbuy": 3780,
  "oro": 18812,
  "à¸§à¸¡": 103905,
  "ĠHelp": 11736,
  "kee": 22575,
  "ĠBetter": 24327,
  "idelity": 46201,
  "_UART": 33458,
  "ĠÐķÑģÐ»Ð¸": 72244,
  "ĠGUIDE": 95757,
  "/check": 47719,
  "(input": 5498,
  "Ġvotre": 15265,
  "MouseDown": 71026,
  "Ġëľ": 110329,
  "utzer": 60622,
  "³»": 37197,
  "Ġpsycho": 42111,
  "Ġgenus": 64677,
  "lÄ±ÄŁÄ±": 102320,
  "Ġwebsocket": 60043,
  "Deadline": 84693,
  "ĠNd": 88468,
  "ĠSprite": 22282,
  "ĠpÃºblico": 60050,
  "strap": 5202,
  "enemy": 28928,
  "PMENT": 55759,
  "meg": 71376,
  "_MASK": 11982,
  "itals": 16664,
  "Ġberries": 63494,
  "Ġrecording": 14975,
  "_Edit": 67258,
  "ĠBoca": 99657,
  "/AP": 60229,
  "ØªØ¨Ø§Ø·": 108634,
  "ç¼©": 118504,
  "ĠÃ©tait": 43989,
  "ĠqueryString": 51779,
  "ibble": 83518,
  "Î¹Î»": 107504,
  "à¸²à¸¨à¸²à¸ªà¸ķà¸£": 118884,
  "ÙĦØ§Ùģ": 120192,
  "Ð»Ð»": 121627,
  "Ġkaps": 125249,
  "ĠØ¨Ø§Ø´Ú¯Ø§Ùĩ": 106830,
  "Ġíķ´ê²°": 125347,
  "queueReusable": 38285,
  "Ġnem": 24566,
  ".delivery": 74185,
  "ÑĸÐ½ÑĮ": 113670,
  "-tax": 58144,
  "åĳ¼ãģ°": 127173,
  "Ø§ÙĤØ©": 109751,
  "Ġfluids": 56406,
  "(System": 10624,
  "neutral": 60668,
  "Ð²Ð°ÑİÑĤÑģÑı": 125120,
  "Tank": 67133,
  "_geometry": 58122,
  "Ġsolicit": 56246,
  "dam": 15770,
  "ĠSpecification": 52377,
  "Ġdeparting": 81573,
  "Ġmanned": 89425,
  "ĠJoker": 61377,
  "rsa": 61969,
  ",int": 10072,
  "<File": 53114,
  "_cred": 74575,
  "madÄ±": 109648,
  "ÑĨÐµÑģ": 127459,
  "Ġstability": 20334,
  "ĠayÄ±r": 117860,
  "GLIGENCE": 29481,
  "Ġ\"\\\\\"": 70037,
  "ĠÐ¿Ð¾ÑįÑĤÐ¾Ð¼Ñĥ": 107826,
  "Apellido": 61042,
  "ĠJens": 96130,
  "prÃ¡v": 103560,
  "Returning": 85914,
  "Ġfol": 9630,
  "thesized": 83979,
  "ĠConsulting": 47511,
  "ĠyÄ±lÄ±nda": 104032,
  "ĠÐ¿Ð¾Ð»ÑĥÑĩÐµÐ½Ð¸Ñı": 125824,
  "ĠVk": 33756,
  "seat": 44158,
  "à¥ĭà¤ĸ": 120531,
  "OVÃģ": 121111,
  "ĠCORPOR": 80483,
  "ĠÑģÐ¸Ð´": 109656,
  "ĠyÃ¶netimi": 125929,
  "atre": 16091,
  "MYSQL": 55163,
  "Validator": 14591,
  "_TREE": 47791,
  "gings": 53933,
  "(klass": 93211,
  "ĠBB": 18772,
  "ĠRohing": 92260,
  "emento": 76384,
  "\"&": 68286,
  "ĠKnicks": 62512,
  "ĠmouseY": 69147,
  "à¸µà¸¢à¸ģ": 117109,
  "':{'": 83859,
  "WithOptions": 75338,
  "à¸Īà¸°à¸ķ": 123855,
  "ĠTARGET": 42133,
  "rompt": 15091,
  "Philadelphia": 90524,
  "$link": 67002,
  "VECTOR": 44787,
  "anders": 85051,
  "ĠStd": 43617,
  "Ġì´Īê¸°": 96413,
  "ÅĻeba": 106372,
  "movies": 40520,
  "ĠOpcode": 79999,
  "HasColumnName": 42784,
  "ĠStory": 15457,
  "\",\"#": 59424,
  "sendKeys": 64154,
  "Ġtelevised": 76710,
  "camel": 94421,
  "328": 16884,
  "declaring": 65665,
  "redd": 33874,
  "Ġaut": 3154,
  "ÑģÐ¸Ð¹": 105400,
  "ÑĨÑĮ": 102583,
  "ippy": 46849,
  "ĠSug": 84867,
  "Ġwedge": 64785,
  "Ġtelefon": 43250,
  "ĠÙĪØ¸": 115917,
  "Ġjurisdictions": 56043,
  "ĠÄĳÃło": 109770,
  "skins": 50418,
  "ĠcheckBox": 53658,
  "IntervalSince": 90074,
  "Ġcref": 11393,
  "ÑĤÐµÐ½": 111899,
  "..'": 84243,
  "(slot": 44824,
  "ĠMVP": 32966,
  "proper": 81768,
  "å¾ħ": 75293,
  "*</": 32045,
  "ĠÎī": 125371,
  "(unsigned": 12546,
  "Ġmote": 88486,
  "/=": 67495,
  "Activated": 72458,
  "/modules": 23753,
  "Invest": 34976,
  "Ġkomb": 85564,
  "licensed": 72811,
  "vious": 2528,
  "é£İéĻ©": 122530,
  "à¹ĮĊĊ": 122886,
  "elt": 3903,
  "_items": 12408,
  "menu": 6192,
  "ĠComplete": 19121,
  "Ġcomplying": 89506,
  "Ġat": 520,
  "Ġbandwidth": 34494,
  "Ġroot": 3789,
  "etime": 4199,
  "Ġ\"\"\"čĊ": 26547,
  ".additional": 96641,
  "ĠTransactions": 56385,
  "Ġshores": 63263,
  "_VER": 15159,
  "\\Container": 67305,
  "mercial": 19370,
  "-policy": 67520,
  "ĠØ¢ÛĮÙĨØ¯Ùĩ": 123831,
  "ĠSENT": 96851,
  "_date": 4257,
  "ĠvlastnÄĽ": 118856,
  "Ġctx": 5753,
  "Ġphosphate": 79106,
  "Ġnecesita": 95066,
  "ĠÃ§ocu": 115481,
  "ĠÚĨÙĩ": 102929,
  "ĠMarco": 35281,
  "æ´²": 102776,
  "ĠType": 4078,
  "Seed": 42571,
  "522": 20936,
  "ĠonCreateOptionsMenu": 68194,
  "Ġrespects": 43666,
  "Ġsluts": 58695,
  "Ġgian": 101935,
  "ĠÐ½ÐµÐ¼": 102461,
  ".anim": 38636,
  "textarea": 12003,
  "å¤§éĩı": 122333,
  "ĠBud": 37235,
  "intro": 37542,
  "Ġedilen": 106471,
  "ĠØªØ§Ø±ÙĬØ®": 109734,
  "Ġå¾Ĵ": 122030,
  "/types": 21009,
  "Period": 24684,
  "çıł": 112712,
  "ĠÐ¿Ð¾Ð»Ñĸ": 118605,
  "ĠCellular": 88207,
  "ĠPaginator": 94164,
  "Ġplagiarism": 84998,
  "Ġparticipation": 20852,
  "ĠRetry": 79970,
  "ĠØ´ÙĩÛĮØ¯": 123321,
  "ĠØ§Ø¯Ø¨ÛĮ": 123554,
  "Ġbudgets": 42484,
  "_unpack": 55989,
  "ĠBible": 17377,
  "Ġdys": 22709,
  "âĢĻs": 753,
  ".setPosition": 43304,
  "Ġevidenced": 69457,
  "ĉerr": 10060,
  "ĠÐ´Ð²Ð¸Ð³": 111595,
  "ĠnewName": 50019,
  "Detector": 32706,
  "å¼ĺ": 119219,
  ".step": 22182,
  "reas": 51518,
  "ĠSnowden": 47460,
  "Hope": 39115,
  "ĠCurrent": 9303,
  "nvarchar": 64665,
  "à¤¾à¤ĩà¤®": 127782,
  "Ã¤ng": 26498,
  "ĠXOR": 70987,
  "location": 2588,
  "vrier": 91137,
  "Marcus": 83634,
  "StringBuilder": 70512,
  "Ø±Ø¨": 100496,
  "å§Ĩ": 109216,
  "_lc": 94157,
  "-insert": 75650,
  "_numero": 97828,
  "Ġtribunal": 63992,
  "Ġcarta": 76647,
  "Ġtravellers": 60068,
  "Ġtranslating": 67371,
  "ĠQQ": 74215,
  "ĠNOAA": 86748,
  "istrate": 61401,
  "uell": 42758,
  "proto": 15461,
  "Ġcommitting": 40583,
  "ĠcurrentItem": 92727,
  "Ġdiffering": 61469,
  "Ġfila": 49869,
  "Wall": 33697,
  "ĠÑĪÐ¸": 114090,
  ",cp": 53853,
  "ĠmÄĽsÃŃcÅ¯": 123971,
  "Ġrecruits": 56197,
  "ĠHA": 42416,
  "Ġih": 13608,
  "scar": 25529,
  "Ġfruity": 93032,
  "<Ċ": 31658,
  "ÙĬØ²": 102197,
  "ĠÎ»ÏĮÎ³": 116025,
  "Ġmetal": 9501,
  "Countries": 72828,
  "Ġpodp": 111466,
  ".LogError": 46578,
  "weekly": 72867,
  "_pin": 27392,
  "richt": 37802,
  "oenix": 18906,
  "Ġ{}\\": 57157,
  "ĠHighlights": 53300,
  "chmod": 57374,
  "ĠOff": 4206,
  "arti": 68641,
  "ĠÙĨÙģ": 108322,
  "HC": 23263,
  "enis": 39685,
  "getToken": 85831,
  "ĠiVar": 57292,
  "ARGE": 30859,
  "ĠTort": 56927,
  "ĠHack": 36082,
  "ĠëĦ": 66653,
  "mon": 1677,
  "Ġconcludes": 45537,
  "Ġiddi": 122312,
  "esion": 57081,
  "Autowired": 13494,
  "iol": 25947,
  "ĠGoes": 61261,
  "iever": 82121,
  "Ġexcelente": 96507,
  "ighet": 82608,
  "Factory": 4246,
  "Ġadd": 923,
  "ÑĢÐ¾ÑĤÐ¸Ð²": 114098,
  "Ø¯Ø§Ø±Ø©": 114266,
  "Ú¯Ø§Ø¨": 126873,
  "serv": 31875,
  "ALLED": 78340,
  "Ø§Ø¨ÙĤØ§Øª": 127775,
  "Ġcourtyard": 66385,
  "ĠMessageBox": 10511,
  "Ġloud": 17813,
  "Ġeinem": 17901,
  ".removeClass": 36465,
  "Ġfelse": 125455,
  "xD": 16141,
  "ĠVenezuelan": 83749,
  "ĠÄįlov": 107959,
  "Ġdissemination": 87764,
  "Ġskoro": 127260,
  "Ġbirbir": 108615,
  "inen": 17090,
  "Ġenergie": 122629,
  "ĠTennessee": 24097,
  "Ð°Ð½Ð¾Ð²": 100745,
  "Experts": 87241,
  "izarre": 30582,
  "Ġurine": 40335,
  "Ã¤tzlich": 87859,
  "ĠAVL": 90767,
  "ĠIreland": 14990,
  "Ġ[(\"": 85119,
  "Ġtrials": 19622,
  "ìłĳ": 107519,
  "Ġzav": 105093,
  "Url": 2934,
  "ĠÎłÏģÏĮ": 121012,
  "ĠMSG": 24200,
  "ixmap": 25613,
  "Ġbenefici": 38045,
  "\"W": 61067,
  "Ġexercised": 62113,
  "Ġconcatenated": 98634,
  "ä¸ĩåĨĨ": 110743,
  "ĠCLLocation": 53759,
  "ĠÂ£": 7083,
  "uegos": 87306,
  "Ġrental": 19160,
  "ĠMADE": 79799,
  "ration": 2214,
  "Ġgigs": 78920,
  "devil": 81252,
  "Ġstreets": 14708,
  "ytt": 91238,
  "Ġ>>": 3662,
  "Ġisn": 4536,
  "Ġtez": 125359,
  "Fuel": 71999,
  "_exe": 77174,
  "ĠSQLiteDatabase": 63536,
  "of": 1073,
  "Ã¢ce": 66096,
  "ĠWeed": 94409,
  "Ġsuáº¥t": 106876,
  "ustral": 5523,
  "åĢº": 115664,
  "Ø³": 20665,
  "ĠSelectListItem": 96983,
  "cripcion": 21323,
  "DT": 10822,
  "Ġapproval": 14765,
  "shape": 12510,
  "_week": 32377,
  "ĠEssence": 84870,
  "Ð¸ÑĩÐµÑģÐºÐ¸Ð¹": 112405,
  "Ġ||": 1393,
  "à¸ĩà¸ķ": 121614,
  "Ġinterp": 48371,
  "(link": 26461,
  "ĠðŁĴ": 64139,
  "esco": 94934,
  "ĠKnight": 23844,
  "<char": 22683,
  "Ð°Ð½Ð¸Ðµ": 27717,
  "Ġà¸Ńà¸³": 117298,
  "èı²": 112789,
  "alom": 83128,
  "ugu": 30885,
  "Ġbombs": 33606,
  "ĠInterior": 29958,
  "Ġattacker": 31810,
  "icias": 50785,
  "nees": 69819,
  "Ġëĵ£": 117512,
  "ãĢģäºĮ": 127862,
  "iders": 13572,
  "Ä°TESÄ°": 122549,
  "à¸ģà¸İ": 116715,
  "mandatory": 81216,
  "Ø°Ø±": 113364,
  "ãĢģå½¼": 119568,
  "Ġexpenses": 18512,
  "ļĮ": 48479,
  "ITS": 14813,
  "Ġ```Ċ": 42333,
  "enerative": 75989,
  "Ġandra": 90914,
  "extr": 39749,
  "Ġfleets": 91749,
  "(option": 31731,
  "ÑĮÐ¾Ð¼Ñĥ": 105746,
  "ĠONLY": 27785,
  "ÙĬÙĩ": 101629,
  "ĠÐºÐ¾Ð¼Ð°Ð½Ð´": 112860,
  "áŁ": 45358,
  "ĠComputers": 69549,
  ".Contract": 70565,
  "Ġfriend": 4333,
  "ĠBunny": 73162,
  "Î»Î¹ÎºÎ¬": 116935,
  "integer": 11924,
  "walker": 45352,
  "éĹ®": 57107,
  "Ġtomar": 64811,
  ":::|": 117483,
  "ynam": 11694,
  "Ġtyranny": 78001,
  "Ġonclick": 12449,
  "Ġchests": 84418,
  "Ġcine": 80852,
  ".admin": 18703,
  "ĠÐ¼ÑĸÐ³": 121084,
  "Ð°ÑĤ": 8131,
  "ohan": 57572,
  "igration": 5141,
  "Ġfake": 12700,
  "Ġarbitration": 54708,
  "/Math": 99817,
  "ĠÎ²Î±": 112359,
  ".mas": 36198,
  "ĠÑĤÑĢÐµÑħ": 119492,
  "Configs": 86005,
  "à¸´à¸Ļà¹Ģà¸Ķ": 125127,
  "Ġconcrete": 14509,
  "article": 7203,
  "èĻļ": 115534,
  "consume": 85594,
  "ĠÎ£Ïħ": 109185,
  "[keys": 93967,
  "ĠSurvival": 54451,
  "Ġhonestly": 27136,
  "enumer": 40601,
  "Ġmoral": 16033,
  "CASE": 41471,
  "(control": 46073,
  "Ġ\"::": 71254,
  "Ġembryos": 89873,
  "ĠÑĤÑĢÐ°Ð²": 105760,
  "ĠdefaultCenter": 56746,
  "ĉduration": 90400,
  "Ġ[-]:": 23957,
  "Ġsucc": 20639,
  ".now": 10930,
  "_dump": 18800,
  "(EX": 26482,
  "ĠrÅ¯zn": 112191,
  "ratulations": 38516,
  "ĠwÃ¼rde": 59981,
  "Ġsculpture": 51067,
  "lessly": 16117,
  "Â±n": 114175,
  "Ġbanned": 21501,
  "ipsoid": 97421,
  "Confirm": 17143,
  "Ġkitt": 67712,
  "uc": 1791,
  "à¥įà¤¬": 103979,
  "-ios": 89219,
  "Ġlastname": 46441,
  "xlabel": 50815,
  "getDate": 75380,
  ".series": 49749,
  "Reflection": 45338,
  "Ġ!_": 46234,
  ".ptr": 39840,
  "ĠæĿ¾": 115718,
  "ãģ§ãģįãģ¾ãģĻ": 125545,
  "PAGE": 38474,
  "Ġlegislators": 48962,
  "ĠFLAC": 90199,
  "')ĊĊ": 4713,
  "Symfony": 46274,
  "ÐłÐĺ": 120968,
  "Ġesc": 3920,
  ".reload": 20909,
  "Ġtend": 8541,
  "ĠLAS": 65231,
  "Ġmart": 49295,
  "çĶµå½±": 109998,
  "ĠÂłÂłĠÂłÂł": 108551,
  "Ġdecomposition": 66266,
  "ctor": 5009,
  "Ġinnovation": 19297,
  "ud": 664,
  "-wave": 89354,
  "ĠButt": 70449,
  ".conditions": 99804,
  "ĠÑģÐ²Ð¸": 127099,
  "Ġ*****": 42523,
  "ìĪľ": 106869,
  ".Groups": 60900,
  "ĠMariners": 82962,
  "ĠfÃ¡cil": 60240,
  "ROP": 19828,
  "ãģĵãĤį": 107404,
  "ĠHealthy": 44454,
  "ìŀ¡ëĭ´": 115163,
  "_visibility": 72356,
  "_reference": 26508,
  "Ã¨les": 85798,
  "ĠTrick": 70325,
  "Ġperse": 55250,
  "Ġdemocratic": 26623,
  "ĠMO": 11672,
  "Ġbanc": 69407,
  "ĠDamian": 92055,
  "squeeze": 53013,
  "æĿĥ": 42081,
  ".enc": 55544,
  ".Abstract": 38440,
  "Ġperformers": 45518,
  "_pattern": 21957,
  "Ġcrossover": 49480,
  "Ġefficiently": 30820,
  "ĠJÃ¡": 122854,
  "Ġadvertis": 19772,
  "enskÃ©": 121021,
  "WritableDatabase": 84999,
  "Ø¬": 34190,
  "ĠÙĨØ³": 107643,
  "_sol": 54768,
  "ìŀĲ": 26799,
  "-spinner": 71210,
  "Ð¾Ð¶": 21956,
  "_STAT": 16504,
  "_PRICE": 53000,
  "ĠEsp": 27612,
  "apeutics": 88886,
  "ï¼ģãĢįĊĊ": 104480,
  "/e": 16954,
  "}><": 72120,
  "Ð°ÑĢÑı": 107942,
  "ÏģÎºÎµÎ¹Î±": 120146,
  "(horizontal": 59931,
  "ĠÐ¼Ñĭ": 88300,
  "awning": 51946,
  "ĠÎ¸Îµ": 113788,
  "Ġneighbours": 36956,
  "ÐĽÐĺ": 122198,
  "Ġunclear": 25420,
  "enk": 79671,
  "ĠPlacement": 78516,
  ".Upload": 87697,
  "ĠstringByAppendingString": 97610,
  "à¥Ģà¤¨": 101273,
  "Ġslightest": 60147,
  "Ġauthenticate": 34289,
  "typeid": 89442,
  "ĠØ³Ø±Ø¹Øª": 117151,
  "mans": 70991,
  "Ð°Ð»Ð¸": 48355,
  "Ġeldre": 94460,
  "Ġchamber": 25199,
  "ĠÑıÐºÐ¾Ð¼Ñĥ": 116230,
  "åħĲ": 116581,
  "Ġvelmi": 105165,
  "Subscriber": 41336,
  "/frame": 69091,
  "sÄ±nÄ±z": 114327,
  "rox": 55889,
  "Ġthrom": 84664,
  "ĠtrÃ¡nh": 110672,
  "ĠÐ¿ÑĢÐ¾Ð±Ð»ÐµÐ¼Ñĭ": 118194,
  "xea": 57670,
  "Ġlbs": 29160,
  "Ġatau": 39472,
  "ĠLeader": 23896,
  "Ġthemed": 49644,
  "Rules": 27099,
  "Âłd": 108839,
  "URRENCY": 58392,
  "ĠgameOver": 72937,
  "ĠHIS": 66226,
  "38": 1987,
  ".moves": 85616,
  "stoi": 88341,
  "ĠÎĨ": 104094,
  "ĠpÅĻÃŃst": 127629,
  "CTL": 24813,
  "Ì£": 105001,
  "Ġconducts": 74198,
  "Ġrer": 49647,
  "_mux": 81463,
  "rray": 855,
  "Ð°Ð½Ð¸Ð¼Ð¸": 122480,
  "Ġdrinks": 21662,
  "ĠarasÄ±": 122873,
  "à¸Ħà¸³": 105819,
  "Ġmashed": 96234,
  "ende": 11178,
  "_BROWSER": 73600,
  "ruptions": 55781,
  "Ġassumed": 19655,
  "Ø§ÙĩØ¯": 122697,
  "=$((": 80345,
  "Ġoxidative": 79401,
  "Ġdend": 90052,
  "lys": 61492,
  "à": 156,
  "request": 2079,
  "ĉRuntime": 69421,
  "Ø·Ùħ": 126780,
  "Ġmarque": 75467,
  "Rectangle": 21775,
  ".findOne": 21554,
  "Ġintelligent": 25530,
  "million": 59413,
  "<|reserved_special_token_123|>": 128128,
  "ĠÐ²Ð·": 102196,
  "()))ĊĊ": 51062,
  ":],": 46599,
  "agina": 81701,
  "per": 716,
  "ä¿": 11743,
  "Sessions": 60162,
  "etimes": 7034,
  "Ġafect": 68364,
  "baÅŁ": 106605,
  "mentioned": 37691,
  "sql": 3628,
  "[N": 23015,
  "ĠGetName": 93888,
  "ÂłD": 113661,
  "ĠMatters": 58364,
  "','');Ċ": 91622,
  "Pour": 43278,
  "Ð½ÑĸÐ²ÐµÑĢÑģÐ¸ÑĤ": 112018,
  "ĠgetWindow": 83561,
  "Î±Ïĥ": 102213,
  "ĠÙĪÙĥØ§ÙĨ": 111353,
  "ĠIE": 18657,
  "Answers": 48332,
  "ĠIsaac": 42608,
  "Atlas": 62216,
  "Tk": 76392,
  "-e": 5773,
  "+B": 80826,
  "Ġmenn": 59827,
  "ĠduÅ¼": 89838,
  "Ġ\"+\"": 60598,
  "å§ĳ": 118230,
  ".getApp": 94635,
  ".isRequired": 20529,
  "Ġreceivers": 41006,
  "ĠÐ¿ÑĢÐ°Ð²Ð¸": 102709,
  "_MetaData": 76316,
  "-effect": 23937,
  "_collect": 69240,
  "Ġargue": 18046,
  "(':": 16364,
  "081": 22534,
  "Ġseiner": 55036,
  "ĠPayPal": 36431,
  "<Event": 52457,
  "(fi": 83070,
  "_lost": 89761,
  "EMPL": 17605,
  ".G": 1246,
  "olin": 37737,
  "meta": 5607,
  "ĠAdvoc": 48359,
  "'){Ċ": 12578,
  "ĠØªØ§ÛĮ": 122729,
  "Ġimagem": 63997,
  "$q": 46421,
  "Ġonset": 42080,
  "lectron": 70329,
  "ĠCic": 75051,
  "ĠPrimer": 88125,
  "Ġmissionary": 73998,
  "ĉsleep": 53633,
  "851": 24866,
  "nergie": 64374,
  "ĠAffiliate": 64216,
  "getClass": 43760,
  "bul": 16501,
  "UGINS": 92212,
  "Ġeggs": 19335,
  "ĠÐ¿ÑĢÐ¸Ð¹": 104515,
  "ĠÚĨØª": 125273,
  ".boot": 21551,
  "_sl": 12150,
  "Ġpurse": 53101,
  "Ġà¥¤ĊĊ": 127140,
  "ĠmoÅ¾nÃ©": 108372,
  "Egypt": 86767,
  ".drawRect": 86959,
  "ĠãĢľ": 127935,
  "ĠAway": 42581,
  "(cb": 36753,
  "ĠPurpose": 30145,
  "ĠWang": 29346,
  "_Draw": 70254,
  "à¤¼à¤¤": 109604,
  "Ø³Øª": 47686,
  "ERE": 43272,
  "magic": 38551,
  "Ġ*/ĊĊĊĊ": 79535,
  "tm": 14046,
  "aud": 8039,
  "Sibling": 36743,
  "-neck": 96533,
  "ĉverify": 94687,
  "enson": 34237,
  ".Geometry": 63962,
  "nout": 103647,
  "ïº®": 114893,
  "Ġqueen": 29006,
  ".exist": 52142,
  "ymous": 90492,
  "ĠGit": 21804,
  "VarInsn": 55859,
  "(find": 35043,
  "à¸¹à¸Ļà¸¢": 116167,
  "aktu": 51754,
  "è®¿éĹ®": 123133,
  "ytic": 70504,
  "Organ": 24105,
  "*x": 18988,
  "conditionally": 97067,
  "ĠNegro": 57147,
  "Ġexclusive": 14079,
  "ĠWhereas": 61695,
  "åħ¥": 17701,
  "ĠUNION": 78653,
  "(path": 5698,
  ".DropDownList": 76679,
  "Ġ$(\"": 25120,
  "Ġnearing": 83399,
  "ĠÐ¿ÑĸÐ´Ð¿ÑĢÐ¸ÑĶÐ¼": 106517,
  "Byte": 7300,
  "-region": 61779,
  "propTypes": 88093,
  "Resources": 11528,
  "Ġoriented": 42208,
  "ĠserÃ£o": 99524,
  "ĠÐºÐ¸": 116624,
  "ike": 3043,
  "ĠTerms": 20163,
  "ĠBes": 18569,
  "å°Ĥ": 114363,
  "ĠCharlotte": 29473,
  "Ga": 81888,
  "odied": 72206,
  "Ġjoy": 16267,
  "ulative": 22948,
  "CONNECT": 40621,
  "âĢĶwe": 86319,
  "ĠEmm": 66555,
  "PropertyParams": 86984,
  "Scotland": 96925,
  "ä¸°": 113928,
  "Ġobserver": 22842,
  "Ġsimultaneously": 25291,
  ".KeyPress": 68105,
  "Ð°Ð¶Ð´": 80205,
  "ëĵ¤ëıĦ": 126303,
  "ĠnÄĽkolik": 107153,
  "Ġcomput": 3801,
  "(err": 4052,
  "478": 22086,
  "EDIA": 24802,
  "ĠWow": 46817,
  "æŃ£åľ¨": 97655,
  "Ġgelir": 106815,
  "_vars": 11416,
  "Ġbureaucrats": 89740,
  "(UnityEngine": 44449,
  "ĉflash": 95270,
  "Ġsexo": 20189,
  "APSHOT": 67748,
  "ĠÐļÑĢÐ°Ñģ": 115646,
  "Ġ(?": 46059,
  "ĠÑĥÑĩÐ°ÑģÑĤÑĮ": 114389,
  "ĠëĶĶ": 105638,
  "iyatÄ±": 118126,
  "Ġsanct": 35589,
  "Ġtrip": 8577,
  "ĠÐ¾Ð²Ð¾": 115318,
  "Ġblades": 42742,
  ".Pages": 69929,
  "olis": 69858,
  "_CAMERA": 59479,
  "Ġbloody": 36277,
  "clang": 26452,
  "/Web": 51538,
  "_html": 9759,
  "ĠZombies": 89937,
  "Ġbat": 16120,
  "à¹ģà¸Ļà¸§": 114494,
  "prite": 5853,
  ">>;Ċ": 79043,
  "Ġhave": 617,
  "ĠØ²ÛĮ": 104220,
  "ãģ¨ãĤĤ": 107173,
  "Directories": 57497,
  "ĠNORTH": 75859,
  "ĠCos": 18606,
  "ĠBelarus": 70606,
  "_params": 6887,
  "Ġexperts": 11909,
  "Ġsak": 78410,
  "STONE": 94971,
  "à¸ĩà¹Ģà¸Ľ": 111572,
  "Res": 1079,
  "ĠLiga": 60127,
  "ointment": 29019,
  "anus": 59063,
  "modern": 50889,
  "Ġmetam": 88848,
  "ĠÐ¼Ð¸": 101722,
  "RM": 24575,
  "Ġunanim": 41075,
  "-bodied": 97397,
  "Zend": 63514,
  "})(": 32988,
  "frey": 76331,
  "ĠÐ¼Ð½Ð¾Ð³Ð¸Ðµ": 120371,
  "<|reserved_special_token_98|>": 128103,
  "ĠDeclaration": 42021,
  "Ġ+#": 95843,
  "ĠScots": 75367,
  "stage": 21406,
  "sylvania": 18987,
  "ĠFAILED": 50771,
  "ĠTECHNO": 88634,
  "Ġdepleted": 79266,
  "ëĮĢìĿĺ": 123094,
  "690": 21741,
  "ĠÐ´ÐµÐ¿": 108336,
  "åı¦å¤ĸ": 122922,
  "Ġmitt": 48432,
  "Ġmatchup": 45937,
  "ĠÐľÐ°Ð¹": 116352,
  "vlc": 99504,
  "vertices": 13328,
  "_REQUIRE": 55027,
  "LN": 51316,
  "Ġtiá»ĥu": 113134,
  "Ġsubjected": 38126,
  "Repository": 4727,
  "(layout": 20525,
  ".synthetic": 47192,
  "variable": 10014,
  "Ġderail": 83802,
  "coln": 22808,
  "ĠInfragistics": 56002,
  "ĠÏĮ": 101112,
  "ĠpatÅĻÃŃ": 112064,
  "ĠMIN": 17116,
  "ĠÐ¸Ð¼Ð¿": 121896,
  "ì¼Ģ": 107213,
  "Û°Û°Û°": 116307,
  "ĠtrÆ°ng": 118826,
  "ĠÄįervence": 119654,
  "Ġdry": 9235,
  "Ġpdu": 98069,
  "ĠÐ¾ÑĩÐµÑĢÐµÐ´ÑĮ": 120254,
  "ĠkÃ¶ÅŁ": 125137,
  "_FILL": 62100,
  "ĠÄ°n": 104671,
  "éĵģè·¯": 127601,
  "ĠÐ¿Ð¾ÑģÐº": 114558,
  "ĠWall": 9935,
  "ĠÄĳá»©ng": 112278,
  "íĽĦê¸°": 120521,
  "ĠfrÃ¥n": 49206,
  ">&": 5909,
  "æĪĲäºĨ": 123569,
  ",\"%": 30887,
  "uning": 38302,
  "ĉput": 46162,
  "UserId": 13812,
  "sin": 16319,
  "ĠÃħ": 80352,
  "ĠĠĠĠĠĠĠĠĠĠĠĠĠĠĠĠĠĠĠĠĠĠĠĠĠĠĠĠĠĠĠĠĠ": 6794,
  "Ġsofter": 64230,
  "Ġencyclopedia": 83708,
  "ĠdataArray": 84812,
  "iÃ¨rement": 67882,
  "(comb": 99980,
  "hled": 102623,
  "å°ļ": 109461,
  "Ð¶ÐµÐ½Ð¸Ðµ": 109508,
  "èĥ¸": 111140,
  "Ġï¼į": 112677,
  "_bulk": 72492,
  "éĻ©": 106491,
  "Ġbeams": 51045,
  "ĠBend": 48838,
  "irms": 14742,
  "ÑĨÑĸÐ¹Ð½Ð¾ÑĹ": 118412,
  "ĠDenver": 22898,
  "Ġjunge": 64757,
  "334": 17153,
  "-eyed": 53613,
  ".yellow": 63869,
  "wn": 1551,
  "Ġeffect": 2515,
  "ĠðŁĺ": 27623,
  "ĠØªÙĪØ¬Ùĩ": 106144,
  "Ġgrounding": 95841,
  "ingroup": 42381,
  "éĻĲå®ļ": 119379,
  "Ġçİ©": 118689,
  "Retention": 87429,
  "_RETRY": 79024,
  "Ġadvoc": 12516,
  "Ġbaggage": 61649,
  "ĠIranians": 90431,
  "Ġevolution": 15740,
  "ĠÐ½Ð°ÑĩÐ¸Ð½Ð°": 109867,
  "Ġ=================================================================": 16563,
  "Ġtá»ķng": 105596,
  ",čĊ": 1909,
  "...ĊĊĊ": 52130,
  "ĠPercy": 75786,
  "ĠdÅĻÃŃ": 113996,
  "Ġironically": 80865,
  "Ġcinemas": 98707,
  "ein": 72720,
  "Ob": 4213,
  "mentions": 98455,
  "ĠNUM": 16322,
  "Ġhopefully": 23127,
  "ì»¬": 121735,
  "ĠPoetry": 68787,
  "Ġdereg": 72915,
  "ĠMissouri": 25378,
  "ĠMASK": 56194,
  "Ġaks": 125792,
  "ĠìĿ´ëŁ°": 113498,
  "582": 23670,
  "Ġathlete": 34880,
  "ĠVladimir": 36011,
  "_AR": 24290,
  "_BTN": 59658,
  "ra": 969,
  "ĠBaltic": 73089,
  "seo": 45766,
  "_today": 69817,
  "InputModule": 81333,
  "Ġà¤¨à¤¦": 120291,
  "Ġcircuit": 16622,
  "ĠÙĤØ±ÙĨ": 123801,
  "_units": 29445,
  "Ġnoche": 75522,
  "ĠHollywood": 17681,
  "Ġíĺ¼": 113832,
  "Ġabstraction": 59851,
  "MOVE": 30216,
  "Ġflor": 70240,
  "[g": 33612,
  "ĠRory": 83421,
  "krvldkf": 109045,
  "_script": 15002,
  "ĠSyn": 24028,
  "Ġpals": 84187,
  "#{": 12297,
  "sequence": 15880,
  "craft": 7868,
  "ceptors": 58650,
  "ĠÄĳá»ĥ": 80768,
  "Ġmater": 53251,
  "losed": 9443,
  "Ġkosher": 98740,
  "antal": 60793,
  "ĠFamilies": 50556,
  "Ġinhibitors": 68642,
  "PEAT": 48117,
  "é©±": 119315,
  "ĠFreem": 96186,
  "_cent": 33691,
  "iac": 18029,
  "ĠWHITE": 43867,
  "dea": 56188,
  "ĠBrush": 34088,
  "ĠPrints": 50385,
  "aise": 4105,
  "Ġstale": 51451,
  "bare": 55202,
  "Ġtriangular": 66594,
  "InThe": 87193,
  "Ġcabo": 89484,
  "ĠÐ¿ÑĢÐ¾Ð²Ð¾Ð´Ð¸ÑĤÑĮ": 124698,
  "è¬": 105037,
  "ĠØ¨Ø®Ø´": 104277,
  "/callback": 92627,
  "ocese": 58744,
  "Ø¬ÙħØ©": 121266,
  "care": 10727,
  "isma": 39252,
  "âĢĻĊĊ": 30184,
  "Ġgraduated": 33109,
  "atri": 2416,
  "ĠWithout": 17586,
  "à¹Ģà¸ŀ": 101039,
  "Ġmissiles": 34441,
  "NDAR": 78741,
  "]+'": 85503,
  "ĠScandin": 60280,
  "Ġimpeachment": 64754,
  "Ġkur": 28364,
  "(Type": 23313,
  "ÑĢÐ¸Ð¼ÑĸÐ½": 122971,
  "ĠÑİ": 103512,
  "ĠÎ§Î±": 125642,
  "ÏĦÎ¯Î±": 125332,
  "à¤¬": 100335,
  "ĠÄ°yi": 118015,
  "references": 37009,
  "robe": 33936,
  "trying": 85134,
  "ĉMain": 76078,
  "Ġmein": 42335,
  "ĠYeni": 112241,
  "ĠÐ´ÑĸÑıÐ»ÑĮ": 105681,
  "ĉit": 24263,
  "ĠClothing": 54758,
  "}')": 68283,
  "Ġwalkthrough": 100044,
  "ĠJin": 39611,
  "ScreenState": 97242,
  ".Î£": 115732,
  ">r": 75508,
  "ĠANY": 4230,
  "ĠNotImplemented": 22273,
  "ograms": 56485,
  "Ġauthor": 3229,
  "EventData": 66974,
  "lvl": 59260,
  "Ġsurrounds": 71374,
  "Ġbindings": 36800,
  "urgical": 57673,
  "âĢĻya": 110894,
  "ÑģÑĤÐ²Ð¸Ðµ": 115848,
  "Ġdisposed": 26655,
  "RAY": 27758,
  "Ġexporters": 75948,
  "ĠEngl": 99730,
  "ÙĬÙĨÙĬØ©": 118627,
  "Bars": 31677,
  "cold": 88172,
  "Ġ`-": 94897,
  "ãģĳãĤĮãģ°": 118145,
  "Ġarrow": 18404,
  "luent": 57167,
  ".#": 44426,
  "iras": 51185,
  "iating": 23747,
  "ĠHuang": 59509,
  "Ġselectors": 57137,
  "Ġunw": 15375,
  "riott": 67871,
  "Ġthá»§": 102711,
  "particles": 69598,
  "_coef": 65029,
  "ÏĢÎ¿ÏĤ": 110931,
  "åĳĢ": 115437,
  "Ð¾ÑĩÐ½Ð¾Ð³Ð¾": 117638,
  "Ġconsum": 4766,
  "-management": 55885,
  "Ġhotels": 25325,
  "_release": 25596,
  ".Process": 30112,
  "horizontal": 31729,
  "Ġdocumentaries": 88466,
  "alaxy": 109956,
  "Ġdont": 15890,
  "ornings": 52785,
  "Ġload": 2865,
  ".${": 55462,
  "ĠEston": 54423,
  "ĉheaders": 68478,
  "_Mode": 55461,
  "ĠÄįÃŃslo": 115449,
  "æĽ¿": 109913,
  "-reported": 85296,
  "UTDOWN": 80802,
  "ç§ĭ": 107795,
  "Ġoportun": 63098,
  "ĠPainting": 55143,
  "¯": 107,
  "Ġobedience": 67194,
  "ĠRoll": 15028,
  "ĠAtl": 11080,
  "_Main": 46205,
  "arton": 80596,
  "Æł": 123097,
  "Ġattacking": 23664,
  "Ġharassed": 68610,
  "ĠÄ°ng": 107135,
  "Ġslides": 22245,
  "ords": 2311,
  "ĠCommunist": 37961,
  "(ct": 41683,
  "ĠØ¬ÙħÙĩÙĪØ±": 122078,
  "ĉicon": 46184,
  "_interval": 21183,
  "Ġcleaned": 28822,
  "vals": 26678,
  "adÄ±k": 114102,
  "ĠExpression": 16783,
  ".createParallelGroup": 18946,
  "Schedulers": 75774,
  "ĠÑĤÐ¾ÑĢ": 105252,
  "umer": 3471,
  "Ġdire": 13510,
  "Ġ-----------------------------------------------------------------------------Ċ": 52914,
  "ÑİÑĤ": 70129,
  "Ġreserva": 99744,
  "Ø§ÙĦÙģ": 110542,
  "_gid": 73993,
  "Logging": 35675,
  ".period": 56879,
  "datap": 94353,
  "Ġnationalist": 52994,
  "ç¸®": 123332,
  "Ġpartie": 48901,
  "(descriptor": 91480,
  "CppTypeDefinitionSizes": 67444,
  "à¤Ł": 100366,
  "ĠHomer": 66805,
  "Ġtherapy": 15419,
  "detach": 57864,
  "_SEPARATOR": 33343,
  "Ġforbid": 74731,
  "ĠØ¶ÙħÙĨ": 114910,
  "656": 20744,
  "ĠÑĤÐ¾ÑĤ": 110796,
  "Ġ[]);Ċ": 43297,
  "ĠCP": 15643,
  "Ġreefs": 92822,
  "Ġutilisateur": 87626,
  "_SCORE": 64827,
  "ĠSaves": 66667,
  "Ġvex": 84265,
  "Contours": 89814,
  "_seat": 92481,
  "Internal": 11830,
  "ep": 752,
  "ĠÐ±ÑĭÐ»Ð¸": 105170,
  "æ¬Ĭ": 112561,
  "ionate": 85999,
  "?,Ċ": 37574,
  "ĠAbd": 30738,
  "_WINDOWS": 72525,
  "_iterations": 56707,
  ".InteropServices": 39146,
  "Ġsurvivor": 49748,
  ".addProperty": 72024,
  "Ġdort": 53534,
  "Ġfocus": 5357,
  "_ds": 36462,
  "']": 663,
  "_digest": 54094,
  ".isSuccessful": 72799,
  "æĪ¶": 115403,
  ">=": 10123,
  "æ¬¢": 108025,
  "éŁĵ": 116137,
  "Ġdescribe": 7664,
  "ĠAristotle": 79001,
  "FORMAT": 47659,
  "roulette": 99248,
  "ĠonPostExecute": 84263,
  "Ġals": 10942,
  "(':',": 97680,
  "ĠØ¨Øº": 123662,
  "ĠMult": 22950,
  "ĠNPR": 45300,
  "Ġsupports": 11815,
  "ĠFalk": 72564,
  "Regional": 90907,
  "706": 22457,
  "ĠFeather": 79976,
  "ĠÐ¿Ð¾ÐºÑĥÐ¿": 112769,
  "ÙĬÙĦØ§": 127275,
  "bean": 17937,
  "ĠNel": 89461,
  "ª½": 103590,
  "itized": 84543,
  ";p": 57013,
  "ÙĲÙĳ": 119888,
  "Ġenroll": 52880,
  "CppI": 91296,
  "Ġgarbage": 26964,
  "_EQUALS": 69681,
  "Ġ$Ċ": 25441,
  "à¹īà¸Ńà¸ĩà¸Ļ": 120510,
  "å¤±": 21388,
  "obe": 15784,
  "à¤¯à¤¹": 110839,
  "Ġlets": 15714,
  "Ġresearching": 45243,
  "æĳ¸": 119609,
  "ĠBattles": 71256,
  "Ġå®": 42579,
  "Ġ=": 284,
  "ĠÐ¾ÑģÐ½Ð¾Ð²Ðµ": 116415,
  "Ġinclude": 2997,
  "typeName": 86591,
  "}`,Ċ": 28348,
  "ĠÑĢÐµÐ³Ñĸ": 121739,
  "Ġalert": 5225,
  ".To": 3354,
  "ĉBYTE": 78805,
  "ĠTrails": 94841,
  "\\data": 67055,
  "ĠÐ·Ð°Ð¼": 106206,
  "ĠAk": 16762,
  "ç«¥": 109421,
  "ideos": 5299,
  "ĠSexo": 57914,
  "ĠRFC": 40333,
  ";?></": 41112,
  "ĠCaj": 96879,
  "Ġma": 7643,
  "Ġprostitute": 66641,
  "_headers": 27817,
  "PRS": 91206,
  "iard": 68965,
  "ĠHELP": 56571,
  "earning": 16933,
  "(dateTime": 90559,
  "bak": 70922,
  "ĠÐ½Ð¸Ð·": 108472,
  "Ã³j": 62424,
  "ÙĩØ±Ùĩ": 124483,
  "ÂłN": 118420,
  "xfb": 47171,
  "IOR": 43996,
  "ĠSlovak": 62364,
  "Ġhá»¯u": 104832,
  "Ġloro": 48193,
  "çĢ¬": 120354,
  "ĠØĽ": 112739,
  "ãģ®ä¸Ģ": 112028,
  "ë¹ĦìķĦ": 126751,
  "erras": 85484,
  "ĠF": 435,
  "++": 1044,
  "uros": 44486,
  "Ġbelang": 84346,
  "thren": 63364,
  "ìĿ´ê°Ģ": 111721,
  "Ġ<+": 86803,
  "ĠâĢ¦Ċ": 117054,
  "ĠFoo": 34528,
  "inburgh": 37886,
  "lÃ¡dÃ¡nÃŃ": 125307,
  "Ð¾ÑģÑĢÐµÐ´": 121347,
  "relevant": 98673,
  "Ġrates": 7969,
  "_PACK": 24943,
  "Ġnewfound": 94621,
  "tvrt": 110844,
  "ĠÐ½Ð¸Ð¶": 110772,
  "Ġexecuted": 16070,
  "-svg": 59669,
  ".Black": 29929,
  "cuts": 23312,
  "Ġpsyched": 61833,
  "orption": 66181,
  "Ġlul": 69163,
  "Ġeclips": 93534,
  ".floor": 13185,
  "Ġyasak": 124196,
  "xFB": 70724,
  "Ġallegations": 18873,
  "Ġlik": 3208,
  ".nn": 20494,
  "Ġjumping": 30102,
  "posting": 65664,
  "rase": 10857,
  "ĠÐ½Ð°ÑĢ": 120217,
  "ĠsetBackgroundColor": 80974,
  ".waitKey": 60036,
  "888": 12251,
  "_join": 32117,
  "Wel": 84616,
  "ĠTÃ¼m": 116691,
  "èĪª": 104743,
  "Ġsore": 36366,
  "eldorf": 70975,
  "anÃ½": 120314,
  "unsch": 81891,
  "Ġlittle": 2697,
  "_third": 80619,
  "Ġemanc": 91225,
  "ĠDol": 25227,
  "ĠÙĪØ§ØŃ": 105188,
  "Ġpolymer": 47393,
  "assa": 56692,
  "ĠSchwarz": 87128,
  "hyp": 79343,
  "ĠÙĩØ§ÙĬ": 108898,
  "(cp": 45175,
  "UTILITY": 48697,
  "ĠRailroad": 70117,
  "Ġcrucial": 16996,
  "Ġmultiple": 5361,
  "Ã¡g": 28793,
  "ĠHob": 37876,
  "ĠãĥĹãĥŃ": 126159,
  "uchar": 30372,
  "ĠSeÃ§": 119999,
  "-third": 30277,
  "ewan": 53398,
  "_pdu": 96349,
  "ashi": 31478,
  "ĠÐ¼Ð³": 115769,
  "ĠØªØ·": 119061,
  "ĠPrecision": 52459,
  "ë°į": 122468,
  "StorageSync": 89677,
  "æĹģ": 113210,
  "Ġbubbles": 44783,
  "Bot": 24406,
  "=localhost": 85651,
  "riger": 65044,
  "Ġrespiratory": 42631,
  "Ġemailing": 92801,
  "ĠblÃŃzk": 125503,
  "Ġlib": 3127,
  "ÑĥÐ¿": 49907,
  "íķĻíļĮ": 117186,
  "Ġmurderers": 99265,
  "conexao": 86780,
  "othy": 29671,
  "ÑĢÐµÑĤÑĮ": 108650,
  "_oc": 50748,
  "Ð½Ð¸Ð²": 118982,
  "_errno": 38463,
  "Ġdecrypt": 39226,
  "[dir": 94579,
  "Ġstudied": 20041,
  "Ð±ÑĢÐ°": 109822,
  "Ġimpressed": 25408,
  "ĠÑĥÐ²Ð°": 111169,
  "Ġexemptions": 71988,
  "Ġalguna": 73127,
  "à¸Ńà¸Ķ": 102251,
  "Ġ-*-": 12286,
  "ĠPlaza": 41407,
  "Ġmolt": 91439,
  "athlon": 78017,
  "cop": 38828,
  ":');Ċ": 94828,
  "=[];Ċ": 41052,
  "vation": 61428,
  "(Bit": 69753,
  "Ġprezident": 114194,
  "Ġlearned": 9687,
  "Ġhiá»ĩu": 101882,
  "itionally": 17868,
  "Ġcontinental": 58636,
  "à¸µà¸ĭ": 119479,
  "Ġportfolios": 76808,
  "awner": 68293,
  "Scott": 39320,
  "rawn": 68668,
  "Ġhalinde": 110009,
  "ë§Īëĭ¤": 119596,
  "rence": 16271,
  "Ġouts": 23651,
  "htdocs": 40848,
  "Ġsn": 4224,
  "Names": 8139,
  "-flight": 77303,
  "-Isl": 81078,
  "_reservation": 97648,
  "ĠhlavnÃŃ": 113095,
  "ĠÐ§ÑĤÐ¾Ð±Ñĭ": 118317,
  "ĠÙĪÙĩ": 103524,
  "Ġpirates": 62575,
  "lein": 79469,
  "ĠCorruption": 90894,
  "Ġ'/');Ċ": 86442,
  "@Api": 81059,
  "ĠWHERE": 5401,
  "Ġwhisper": 35955,
  "Ġsuites": 56264,
  "Ġautomate": 69711,
  "ĠactionPerformed": 25026,
  "ENCE": 10360,
  "ĠonError": 33530,
  "âĢĵand": 87023,
  "ĠAla": 89762,
  "ãĥ¨": 112673,
  "Ġprocurement": 53678,
  "ĠRapids": 55286,
  "/order": 44495,
  ".Iterator": 41946,
  "ĠCHILD": 73620,
  "><?": 7660,
  "ĠAddresses": 92530,
  "@Configuration": 59546,
  "éĩĮ": 70349,
  "ĠnumRows": 80150,
  ",$_": 70683,
  "Ð¾Ð½Ð°": 74828,
  "Ġmáº¯c": 113310,
  "Hints": 76033,
  "Ġihtiy": 105685,
  "Ġhelium": 97607,
  "Ġcoco": 83450,
  "ï¼Įä¸İ": 126240,
  "boards": 19826,
  "WIDTH": 45502,
  ".Size": 2524,
  "Ġfloral": 46119,
  ".StackTrace": 74279,
  "ĠSÄ±r": 126236,
  "Ð¾ÑģÐ½Ð¾Ð²": 122653,
  "Ġuncert": 23953,
  "ĠÅŁekl": 110762,
  "Ġ&#": 45633,
  "ĠØ¢ÛĮØ§": 119183,
  "ĠAUX": 96855,
  "ĠMerry": 77801,
  "yst": 599,
  "Ã©s": 5512,
  "...(": 93156,
  "ĠCasting": 66848,
  "_likes": 90278,
  "Ġoptimized": 34440,
  "Ð¾Ð¿ÑĢÐ¸": 111308,
  "(dirname": 39902,
  "loth": 70652,
  "(Expected": 91530,
  "pushViewController": 98371,
  "<object": 33364,
  "ĠArb": 87987,
  "Ġnumel": 77311,
  "ÂĢÂ": 43576,
  "å¤ĩä»½": 112890,
  "ĠPas": 24971,
  "Ġì¡°": 66610,
  "Ġpunch": 21004,
  "Ġdane": 89695,
  "åİŁå§ĭ": 124586,
  "AF": 8440,
  "innacle": 70053,
  "Ġhesitant": 71560,
  "mal": 14991,
  "_IRQHandler": 76044,
  "Ġcorr": 45453,
  "intersection": 74748,
  "ĠÄĳem": 114970,
  ".init": 8435,
  "ĠÑģÐ¾ÑĤ": 109740,
  "Ġrug": 29742,
  "çİ©": 106738,
  "_BOOL": 33591,
  "Ð°Ð½ÑĸÑĤ": 117515,
  "ĠCavs": 96735,
  "Ġoptimization": 26329,
  ".modify": 75088,
  "ZZ": 34636,
  "HOST": 29787,
  "ĠSho": 64040,
  "è®¾è®¡åĻ¨": 79108,
  "_parts": 34317,
  "manifest": 43415,
  "Ġsevere": 15748,
  "Ġdesi": 86588,
  "ĠÐ¿ÑĸÐ´ÑģÑĤÐ°Ð²": 119158,
  ".jpg": 4924,
  ".ss": 47663,
  "ROID": 36267,
  "çĸ²": 127814,
  ".offsetWidth": 78907,
  "'),('": 68576,
  "ĠWHETHER": 18114,
  "plugin": 9316,
  "================================================================================": 64494,
  "anneer": 91585,
  "unken": 55029,
  "ĠLearn": 15281,
  "ĠVerse": 85168,
  "ĠFÃ¶r": 87567,
  "ĠStunden": 81644,
  "Ġç¿": 123768,
  "æ¢ħ": 108686,
  "****************************************": 41172,
  "Ġisland": 13218,
  "Ã¡lnÃŃm": 111507,
  "_GENERAL": 66436,
  "/schema": 62242,
  "Ø§Ø¹Ø±": 124640,
  "ĠÑģÑĤÐ¾Ð»": 105980,
  "inded": 17003,
  "Ġaliment": 38450,
  "ĠendIndex": 62203,
  "ente": 6960,
  "Ġä¸ĩåħĥ": 125116,
  "ĠÐ½Ð°ÑıÐ²": 115946,
  "Ġfluor": 54736,
  "ĠMonroe": 50887,
  "ĠStark": 47849,
  "Ð²ÑĢÐ¾Ð¿ÐµÐ¹": 111532,
  "ĠPMID": 62041,
  "_Label": 54657,
  "-blocking": 79861,
  "ÐµÐ¹ÑĩÐ°Ñģ": 109333,
  "think": 27963,
  "Ġvedere": 88845,
  "Ð½ÐµÐµ": 103374,
  "Ġbows": 82565,
  "Ġná»ĳi": 109035,
  "Ġç³": 114617,
  ".ObjectMapper": 90508,
  "ccb": 82417,
  "ÅŁam": 113950,
  "ĠMorton": 73036,
  "ĠKERNEL": 80791,
  "Ġinfinity": 56010,
  "/E": 26729,
  "ë¨¸ëĭĪ": 111341,
  "dato": 72205,
  "ĠFocus": 26891,
  "è§Ĥ": 103276,
  "]:čĊ": 53486,
  "Ð¼Ð°Ð·": 117835,
  "PRICE": 83375,
  "rÃ½": 113873,
  "lib": 2808,
  "(tbl": 85654,
  ".getWorld": 88187,
  "Ġleben": 98972,
  "ĠcomponentDidMount": 27838,
  "maker": 26850,
  "ASHINGTON": 44337,
  "_RW": 61918,
  "Comparer": 33042,
  "Ġcath": 31747,
  "ĠHá»Ļi": 107789,
  "Ġpra": 45103,
  "Ġaligned": 27210,
  "à¸¡à¹Ģà¸ķ": 117381,
  "ĠNONE": 43969,
  "YSTEM": 59861,
  "Ġsacrifices": 58023,
  "ource": 930,
  "swire": 80825,
  "_IC": 23817,
  "_DISPLAY": 38679,
  "Payments": 88746,
  "ĠPLACE": 82982,
  "ĠassertNotNull": 45428,
  "PRINTF": 53844,
  ".navigation": 15368,
  "Ã»": 30872,
  "Listeners": 32670,
  "ĠLotus": 61269,
  "ÐµÐºÑĤ": 30656,
  "ollow": 1573,
  "Ġpool": 7463,
  "ĠÐ´Ð²Ð¸Ð¶ÐµÐ½Ð¸Ñı": 121585,
  "_IOCTL": 68426,
  "ĠNeb": 52809,
  "FAILED": 38017,
  "ĉĊĉĊĊ": 92837,
  "[sub": 99850,
  ".***": 108265,
  "_score": 10622,
  "(mem": 41008,
  "Ġsounding": 49227,
  "-ahead": 99588,
  "ĠImageIcon": 49771,
  "Ġembedding": 40188,
  "Ġzipfile": 88052,
  "ĠÅĻÃŃkÃ¡": 114312,
  "ĠÐ¿ÑĢÐ¾ÑĤÑıÐ¶": 126453,
  "JUnit": 57348,
  "Ġingress": 79659,
  "Ġmachine": 5780,
  "Primitive": 34413,
  "Ġunilateral": 86978,
  "enant": 26178,
  "Ġãĥī": 113102,
  "ĠFlooring": 79058,
  "Ġsanctions": 24679,
  "Ġinval": 49144,
  "Ġdivisible": 76016,
  "Ġcurt": 44278,
  "Ġaudible": 80415,
  "Ġdedim": 125348,
  ".assertThat": 50075,
  "Ġtratamiento": 89745,
  "Ġbelieving": 35090,
  "<option": 14631,
  "ĉfunction": 7679,
  ".existsSync": 70933,
  "cached": 34018,
  "Ġ?????": 74578,
  "OTH": 26374,
  "TEGR": 69103,
  "Ġincap": 40968,
  "Ġrecycled": 47658,
  ".isTrue": 83626,
  "Ð½ÐºÐ°": 118867,
  "Ġcollection": 4526,
  "Ġappeared": 9922,
  "Ġproducers": 24190,
  ">.Ċ": 30916,
  "ĠWik": 43205,
  "EventType": 49006,
  "WND": 50395,
  "Ġemerges": 59696,
  "ĠsmÃ¥": 83944,
  "Ġcoder": 84642,
  ".ErrorCode": 99533,
  "ĠMosul": 62913,
  "Ø³ÙĪ": 120365,
  "Ġåıĸ": 121619,
  "ĠÑĥÑĩÐ½ÑĸÐ²": 125833,
  "ĠINCLUDED": 77551,
  "Ġzh": 60848,
  "ĠNY": 12551,
  "ĠRCA": 99431,
  "ĠRM": 31915,
  ".overlay": 77337,
  "Ġhumorous": 70946,
  "ĠÐ¾Ð±ÐµÑģÐ¿Ðµ": 118293,
  "ÄŁimiz": 105504,
  "---------------Ċ": 63832,
  "ĠInvestor": 76812,
  "EXTERNAL": 96376,
  "Ġacheter": 99490,
  "ĠØ³Ù¾": 106009,
  "à¹ĭ": 110060,
  ".Configure": 79381,
  "otropic": 79432,
  "606": 20213,
  "ĠSupply": 30909,
  "window": 5624,
  "Ġ))": 12254,
  "stroke": 29341,
  "ĠPAS": 61017,
  "ĠComprehensive": 67963,
  "ĠtextSize": 78500,
  "Ġê³ł": 101254,
  "Ġtendencies": 61555,
  "ĠØ¹Ø§Ø´ÙĤ": 126349,
  "ĠØªØµ": 102256,
  "Ġslice": 16363,
  "stanov": 115222,
  "Ġforgot": 29695,
  "ĠĠĠĠĠĠĠĠĠĠĠĠĠĠĠĠĠĠĠĠĠĠĠĠĠĠĠĠĠĠĠĠĠĠĠĠĠĠĠĠĠĠĠĠĠĠĠĠĠĠĠĠĠĠĠĠĠĠĠĠĠĠĠĠĠĠĠĠĠĠĠĠĠĠĠĠĠĠĠĠ": 98517,
  "ÙĦÙĥ": 101119,
  "ĠBlogger": 88775,
  "Ġintend": 30730,
  "uÅ¡": 117491,
  "Ġwirklich": 56913,
  "ĠMacros": 99547,
  "Ġgiver": 95615,
  ".accuracy": 99395,
  "DESCRIPTION": 46533,
  ".innerHeight": 55176,
  "Occurred": 62785,
  "Ġë¬¸ìŀĲ": 81021,
  "Ġshowcase": 35883,
  "Ġ(++": 47438,
  "ĉaddr": 54283,
  "Ġbiggest": 8706,
  "LABEL": 64390,
  "ĠDeleted": 55217,
  "Ġpom": 30584,
  "ĠFreddy": 96882,
  "ZN": 45947,
  "ĠIConfiguration": 65590,
  "ĠTypeface": 96284,
  "Ġå½": 66297,
  "ope": 2862,
  "à¸·à¹Ī": 65784,
  "Ġ********": 35245,
  "ĠHEIGHT": 43000,
  "/mainwindow": 82998,
  "afb": 97934,
  "-columns": 74669,
  "(Conv": 89463,
  "Ġ=Ċ": 4125,
  "Ġgy": 29720,
  "Regressor": 94239,
  "519": 21851,
  "uming": 30589,
  "friends": 30562,
  ".Align": 75322,
  "Ġxlink": 97339,
  "Ġambitious": 32855,
  "Ġheavyweight": 71729,
  "(skip": 83174,
  "ĠPrintf": 92008,
  "aurants": 35084,
  "placing": 49033,
  "Susan": 86383,
  "Ġdatatable": 94106,
  "ÄĽj": 110755,
  "ê²½ìłľ": 127463,
  "hec": 42750,
  "anga": 19934,
  "ĠjQuery": 13518,
  "Ġineligible": 96916,
  "ĠìĿĺ": 101787,
  "nnen": 19851,
  "Arizona": 82591,
  "Ġmilitia": 58698,
  "clientId": 68783,
  "ĠM": 386,
  "Ġcaller": 20456,
  "Ġtumult": 85677,
  "ĠEACH": 95513,
  "deck": 34525,
  "Ġloyalty": 32883,
  "ĠExpand": 51241,
  "itel": 57743,
  "Ġintestinal": 63900,
  ".She": 99641,
  ".mybatisplus": 54396,
  "hwnd": 98418,
  "à¤¿à¤§": 103245,
  "ĠAVC": 70418,
  "ĠCs": 68432,
  "ĠÐĵÐ¾Ð»": 118767,
  "_PROTO": 31365,
  "Ġloophole": 94095,
  "ÐµÐºÑĤÐ¸Ð²": 110082,
  "ĉčĊ": 4574,
  "Ġpride": 22519,
  "Ġwoman": 5333,
  "ustum": 76408,
  ">\\": 8616,
  "ĠUkrain": 31704,
  "Grade": 36457,
  "ĠRookie": 83225,
  "-frequency": 79412,
  "ĠMonday": 7159,
  "epend": 13059,
  "Ġconnectivity": 31357,
  "ĠìĦłìĪĺ": 113561,
  "Ġflutter": 74883,
  "ĠPIC": 61706,
  "Ġmanifests": 84332,
  "Ð¸ÑĤÐ¸ÑģÑı": 107658,
  "ĠÑĢÐ¾Ð´": 103335,
  "exceptions": 62852,
  "Ġ\")čĊ": 51941,
  "Ġattenu": 57732,
  "SPA": 88292,
  "Ġborrowers": 64488,
  "useState": 56770,
  "Ġrelat": 91903,
  "aybe": 50891,
[...]
